{
  "version": "1.0",
  "truncation": null,
  "padding": null,
  "added_tokens": [
    {
      "id": 0,
      "content": "<bos>",
      "single_word": false,
      "lstrip": false,
      "rstrip": false,
      "normalized": false,
      "special": true
    },
    {
      "id": 1,
      "content": "<eos>",
      "single_word": false,
      "lstrip": false,
      "rstrip": false,
      "normalized": false,
      "special": true
    },
    {
      "id": 2,
      "content": "<pad>",
      "single_word": false,
      "lstrip": false,
      "rstrip": false,
      "normalized": false,
      "special": true
    },
    {
      "id": 3,
      "content": "<unk>",
      "single_word": false,
      "lstrip": false,
      "rstrip": false,
      "normalized": false,
      "special": true
    },
    {
      "id": 4,
      "content": "<mask>",
      "single_word": false,
      "lstrip": false,
      "rstrip": false,
      "normalized": false,
      "special": true
    }
  ],
  "normalizer": {
    "type": "Sequence",
    "normalizers": [
      {
        "type": "Strip",
        "strip_left": true,
        "strip_right": true
      },
      {
        "type": "NFKC"
      }
    ]
  },
  "pre_tokenizer": {
    "type": "CharDelimiterSplit",
    "delimiter": "\u0000"
  },
  "post_processor": {
    "type": "ByteLevel",
    "add_prefix_space": true,
    "trim_offsets": true,
    "use_regex": true
  },
  "decoder": {
    "type": "ByteLevel",
    "add_prefix_space": true,
    "trim_offsets": true,
    "use_regex": true
  },
  "model": {
    "type": "BPE",
    "dropout": null,
    "unk_token": null,
    "continuing_subword_prefix": null,
    "end_of_word_suffix": null,
    "fuse_unk": false,
    "byte_fallback": false,
    "ignore_merges": false,
    "vocab": {
      "<bos>": 0,
      "<eos>": 1,
      "<pad>": 2,
      "<unk>": 3,
      "<mask>": 4,
      " ": 5,
      "!": 6,
      "(": 7,
      ")": 8,
      "*": 9,
      ",": 10,
      "-": 11,
      ".": 12,
      "/": 13,
      "0": 14,
      "1": 15,
      "2": 16,
      "3": 17,
      "4": 18,
      "5": 19,
      "6": 20,
      "7": 21,
      "8": 22,
      "9": 23,
      ":": 24,
      ";": 25,
      "?": 26,
      "@": 27,
      "A": 28,
      "B": 29,
      "C": 30,
      "D": 31,
      "E": 32,
      "F": 33,
      "G": 34,
      "H": 35,
      "I": 36,
      "K": 37,
      "M": 38,
      "N": 39,
      "O": 40,
      "R": 41,
      "S": 42,
      "V": 43,
      "Y": 44,
      "c": 45,
      "h": 46,
      "m": 47,
      "o": 48,
      "p": 49,
      "s": 50,
      "t": 51,
      "w": 52,
      "y": 53,
      "~": 54,
      "·": 55,
      "—": 56,
      "‘": 57,
      "’": 58,
      "“": 59,
      "”": 60,
      "※": 61,
      "、": 62,
      "。": 63,
      "《": 64,
      "》": 65,
      "【": 66,
      "】": 67,
      "一": 68,
      "丁": 69,
      "七": 70,
      "万": 71,
      "丈": 72,
      "三": 73,
      "上": 74,
      "下": 75,
      "不": 76,
      "与": 77,
      "丐": 78,
      "丑": 79,
      "专": 80,
      "且": 81,
      "世": 82,
      "业": 83,
      "丛": 84,
      "东": 85,
      "丝": 86,
      "丢": 87,
      "两": 88,
      "严": 89,
      "丧": 90,
      "个": 91,
      "丫": 92,
      "中": 93,
      "丰": 94,
      "串": 95,
      "临": 96,
      "丸": 97,
      "丹": 98,
      "为": 99,
      "主": 100,
      "丽": 101,
      "举": 102,
      "乃": 103,
      "久": 104,
      "么": 105,
      "义": 106,
      "之": 107,
      "乌": 108,
      "乍": 109,
      "乎": 110,
      "乏": 111,
      "乐": 112,
      "乔": 113,
      "乖": 114,
      "乘": 115,
      "九": 116,
      "乞": 117,
      "也": 118,
      "习": 119,
      "乡": 120,
      "书": 121,
      "买": 122,
      "乱": 123,
      "乳": 124,
      "乾": 125,
      "了": 126,
      "予": 127,
      "争": 128,
      "事": 129,
      "二": 130,
      "于": 131,
      "亏": 132,
      "云": 133,
      "互": 134,
      "五": 135,
      "井": 136,
      "亚": 137,
      "些": 138,
      "亡": 139,
      "亢": 140,
      "交": 141,
      "亦": 142,
      "产": 143,
      "享": 144,
      "京": 145,
      "亭": 146,
      "亮": 147,
      "亲": 148,
      "人": 149,
      "亿": 150,
      "什": 151,
      "仁": 152,
      "仅": 153,
      "仆": 154,
      "仇": 155,
      "今": 156,
      "介": 157,
      "仍": 158,
      "从": 159,
      "仑": 160,
      "仔": 161,
      "他": 162,
      "仗": 163,
      "付": 164,
      "仙": 165,
      "代": 166,
      "令": 167,
      "以": 168,
      "仪": 169,
      "们": 170,
      "仰": 171,
      "仲": 172,
      "件": 173,
      "价": 174,
      "任": 175,
      "份": 176,
      "仿": 177,
      "企": 178,
      "伊": 179,
      "伍": 180,
      "伏": 181,
      "伐": 182,
      "休": 183,
      "众": 184,
      "优": 185,
      "伙": 186,
      "会": 187,
      "伞": 188,
      "伟": 189,
      "传": 190,
      "伤": 191,
      "伦": 192,
      "伧": 193,
      "伪": 194,
      "伫": 195,
      "伯": 196,
      "估": 197,
      "伴": 198,
      "伶": 199,
      "伸": 200,
      "伺": 201,
      "似": 202,
      "但": 203,
      "位": 204,
      "低": 205,
      "住": 206,
      "佑": 207,
      "体": 208,
      "何": 209,
      "余": 210,
      "佛": 211,
      "作": 212,
      "你": 213,
      "佣": 214,
      "佩": 215,
      "佬": 216,
      "佯": 217,
      "佳": 218,
      "使": 219,
      "侃": 220,
      "侄": 221,
      "侈": 222,
      "例": 223,
      "侗": 224,
      "供": 225,
      "依": 226,
      "侠": 227,
      "侣": 228,
      "侥": 229,
      "侦": 230,
      "侧": 231,
      "侯": 232,
      "侵": 233,
      "便": 234,
      "促": 235,
      "俄": 236,
      "俊": 237,
      "俏": 238,
      "俗": 239,
      "俘": 240,
      "保": 241,
      "信": 242,
      "俨": 243,
      "俩": 244,
      "修": 245,
      "俯": 246,
      "俱": 247,
      "俺": 248,
      "倍": 249,
      "倏": 250,
      "倒": 251,
      "倔": 252,
      "倘": 253,
      "候": 254,
      "倚": 255,
      "借": 256,
      "倡": 257,
      "倦": 258,
      "倪": 259,
      "债": 260,
      "值": 261,
      "倾": 262,
      "假": 263,
      "偎": 264,
      "偏": 265,
      "做": 266,
      "停": 267,
      "健": 268,
      "偶": 269,
      "偷": 270,
      "偿": 271,
      "傀": 272,
      "傅": 273,
      "傍": 274,
      "储": 275,
      "催": 276,
      "傲": 277,
      "傻": 278,
      "像": 279,
      "僧": 280,
      "僵": 281,
      "僻": 282,
      "儒": 283,
      "儡": 284,
      "儿": 285,
      "允": 286,
      "元": 287,
      "兄": 288,
      "充": 289,
      "兆": 290,
      "先": 291,
      "光": 292,
      "克": 293,
      "免": 294,
      "兑": 295,
      "兔": 296,
      "党": 297,
      "兜": 298,
      "入": 299,
      "全": 300,
      "八": 301,
      "公": 302,
      "六": 303,
      "兰": 304,
      "共": 305,
      "关": 306,
      "兴": 307,
      "兵": 308,
      "其": 309,
      "具": 310,
      "典": 311,
      "兹": 312,
      "养": 313,
      "兼": 314,
      "兽": 315,
      "内": 316,
      "冉": 317,
      "册": 318,
      "再": 319,
      "冒": 320,
      "冕": 321,
      "写": 322,
      "军": 323,
      "冠": 324,
      "冤": 325,
      "冥": 326,
      "冬": 327,
      "冯": 328,
      "冰": 329,
      "冲": 330,
      "决": 331,
      "况": 332,
      "冷": 333,
      "冻": 334,
      "冼": 335,
      "净": 336,
      "凄": 337,
      "准": 338,
      "凉": 339,
      "凋": 340,
      "凌": 341,
      "减": 342,
      "凑": 343,
      "凛": 344,
      "凝": 345,
      "几": 346,
      "凡": 347,
      "凤": 348,
      "凭": 349,
      "凯": 350,
      "凰": 351,
      "凳": 352,
      "凶": 353,
      "凸": 354,
      "凹": 355,
      "出": 356,
      "击": 357,
      "函": 358,
      "凿": 359,
      "刀": 360,
      "刃": 361,
      "分": 362,
      "切": 363,
      "刑": 364,
      "划": 365,
      "列": 366,
      "刘": 367,
      "则": 368,
      "刚": 369,
      "创": 370,
      "初": 371,
      "判": 372,
      "刨": 373,
      "利": 374,
      "别": 375,
      "刮": 376,
      "到": 377,
      "制": 378,
      "刷": 379,
      "刹": 380,
      "刺": 381,
      "刻": 382,
      "剁": 383,
      "剂": 384,
      "削": 385,
      "前": 386,
      "剐": 387,
      "剑": 388,
      "剔": 389,
      "剖": 390,
      "剥": 391,
      "剧": 392,
      "剩": 393,
      "剪": 394,
      "副": 395,
      "割": 396,
      "剿": 397,
      "劈": 398,
      "力": 399,
      "劝": 400,
      "办": 401,
      "功": 402,
      "加": 403,
      "务": 404,
      "劣": 405,
      "动": 406,
      "助": 407,
      "努": 408,
      "劫": 409,
      "励": 410,
      "劲": 411,
      "劳": 412,
      "势": 413,
      "勃": 414,
      "勇": 415,
      "勉": 416,
      "勒": 417,
      "勤": 418,
      "勾": 419,
      "勿": 420,
      "匀": 421,
      "包": 422,
      "匆": 423,
      "匕": 424,
      "化": 425,
      "北": 426,
      "匙": 427,
      "匪": 428,
      "匮": 429,
      "匹": 430,
      "区": 431,
      "医": 432,
      "匿": 433,
      "十": 434,
      "千": 435,
      "升": 436,
      "午": 437,
      "半": 438,
      "华": 439,
      "协": 440,
      "卑": 441,
      "卒": 442,
      "单": 443,
      "卖": 444,
      "南": 445,
      "博": 446,
      "卜": 447,
      "占": 448,
      "卡": 449,
      "卦": 450,
      "卧": 451,
      "卫": 452,
      "印": 453,
      "危": 454,
      "即": 455,
      "却": 456,
      "卵": 457,
      "卷": 458,
      "卸": 459,
      "厅": 460,
      "历": 461,
      "厉": 462,
      "压": 463,
      "厌": 464,
      "厕": 465,
      "厘": 466,
      "厚": 467,
      "原": 468,
      "厢": 469,
      "厥": 470,
      "厨": 471,
      "厮": 472,
      "去": 473,
      "参": 474,
      "又": 475,
      "叉": 476,
      "及": 477,
      "友": 478,
      "双": 479,
      "反": 480,
      "发": 481,
      "叔": 482,
      "取": 483,
      "受": 484,
      "变": 485,
      "叙": 486,
      "叛": 487,
      "叠": 488,
      "口": 489,
      "古": 490,
      "句": 491,
      "另": 492,
      "叨": 493,
      "只": 494,
      "叫": 495,
      "召": 496,
      "叭": 497,
      "叮": 498,
      "可": 499,
      "台": 500,
      "叱": 501,
      "史": 502,
      "右": 503,
      "叵": 504,
      "叶": 505,
      "号": 506,
      "司": 507,
      "叹": 508,
      "叼": 509,
      "吁": 510,
      "吃": 511,
      "各": 512,
      "吆": 513,
      "合": 514,
      "吉": 515,
      "吊": 516,
      "同": 517,
      "名": 518,
      "后": 519,
      "吐": 520,
      "向": 521,
      "吓": 522,
      "吗": 523,
      "君": 524,
      "吝": 525,
      "吞": 526,
      "吟": 527,
      "吠": 528,
      "否": 529,
      "吧": 530,
      "吩": 531,
      "含": 532,
      "听": 533,
      "吮": 534,
      "启": 535,
      "吱": 536,
      "吴": 537,
      "吵": 538,
      "吸": 539,
      "吹": 540,
      "吻": 541,
      "吼": 542,
      "呀": 543,
      "呆": 544,
      "呈": 545,
      "告": 546,
      "呐": 547,
      "呕": 548,
      "呗": 549,
      "员": 550,
      "呜": 551,
      "呢": 552,
      "呤": 553,
      "周": 554,
      "味": 555,
      "呵": 556,
      "呸": 557,
      "呻": 558,
      "呼": 559,
      "命": 560,
      "咀": 561,
      "咄": 562,
      "咆": 563,
      "和": 564,
      "咎": 565,
      "咏": 566,
      "咐": 567,
      "咒": 568,
      "咔": 569,
      "咕": 570,
      "咙": 571,
      "咚": 572,
      "咛": 573,
      "咝": 574,
      "咤": 575,
      "咦": 576,
      "咧": 577,
      "咪": 578,
      "咬": 579,
      "咯": 580,
      "咱": 581,
      "咳": 582,
      "咸": 583,
      "咽": 584,
      "哀": 585,
      "品": 586,
      "哄": 587,
      "哆": 588,
      "哇": 589,
      "哈": 590,
      "响": 591,
      "哑": 592,
      "哗": 593,
      "哟": 594,
      "哥": 595,
      "哦": 596,
      "哨": 597,
      "哩": 598,
      "哪": 599,
      "哭": 600,
      "哮": 601,
      "哺": 602,
      "哼": 603,
      "哽": 604,
      "唇": 605,
      "唉": 606,
      "唏": 607,
      "唐": 608,
      "唔": 609,
      "唠": 610,
      "唤": 611,
      "唬": 612,
      "唯": 613,
      "唱": 614,
      "啃": 615,
      "啄": 616,
      "商": 617,
      "啊": 618,
      "啕": 619,
      "啜": 620,
      "啦": 621,
      "啧": 622,
      "啪": 623,
      "啬": 624,
      "啸": 625,
      "啼": 626,
      "啾": 627,
      "喀": 628,
      "喂": 629,
      "喃": 630,
      "善": 631,
      "喉": 632,
      "喊": 633,
      "喏": 634,
      "喔": 635,
      "喘": 636,
      "喙": 637,
      "喜": 638,
      "喝": 639,
      "喧": 640,
      "喷": 641,
      "喻": 642,
      "喽": 643,
      "嗅": 644,
      "嗑": 645,
      "嗓": 646,
      "嗔": 647,
      "嗖": 648,
      "嗜": 649,
      "嗡": 650,
      "嗤": 651,
      "嗦": 652,
      "嗫": 653,
      "嗬": 654,
      "嗯": 655,
      "嗷": 656,
      "嘀": 657,
      "嘈": 658,
      "嘉": 659,
      "嘎": 660,
      "嘘": 661,
      "嘛": 662,
      "嘟": 663,
      "嘤": 664,
      "嘭": 665,
      "嘱": 666,
      "嘲": 667,
      "嘴": 668,
      "嘶": 669,
      "嘹": 670,
      "嘻": 671,
      "嘿": 672,
      "噗": 673,
      "噘": 674,
      "噙": 675,
      "噢": 676,
      "噤": 677,
      "器": 678,
      "噪": 679,
      "噫": 680,
      "噬": 681,
      "噱": 682,
      "噼": 683,
      "嚎": 684,
      "嚓": 685,
      "嚣": 686,
      "嚷": 687,
      "嚼": 688,
      "囊": 689,
      "囔": 690,
      "囚": 691,
      "四": 692,
      "回": 693,
      "因": 694,
      "团": 695,
      "囤": 696,
      "园": 697,
      "困": 698,
      "囱": 699,
      "围": 700,
      "固": 701,
      "国": 702,
      "图": 703,
      "圆": 704,
      "圈": 705,
      "土": 706,
      "圣": 707,
      "在": 708,
      "地": 709,
      "场": 710,
      "圾": 711,
      "址": 712,
      "均": 713,
      "坊": 714,
      "坍": 715,
      "坎": 716,
      "坏": 717,
      "坐": 718,
      "坑": 719,
      "块": 720,
      "坚": 721,
      "坛": 722,
      "坝": 723,
      "坞": 724,
      "坟": 725,
      "坠": 726,
      "坡": 727,
      "坤": 728,
      "坦": 729,
      "坷": 730,
      "垂": 731,
      "垃": 732,
      "型": 733,
      "垒": 734,
      "垠": 735,
      "垢": 736,
      "垣": 737,
      "垫": 738,
      "垮": 739,
      "埃": 740,
      "埋": 741,
      "城": 742,
      "域": 743,
      "培": 744,
      "基": 745,
      "堀": 746,
      "堂": 747,
      "堆": 748,
      "堡": 749,
      "堤": 750,
      "堪": 751,
      "堵": 752,
      "塌": 753,
      "塑": 754,
      "塔": 755,
      "塞": 756,
      "填": 757,
      "塾": 758,
      "境": 759,
      "墓": 760,
      "墙": 761,
      "增": 762,
      "墟": 763,
      "墨": 764,
      "壁": 765,
      "壤": 766,
      "士": 767,
      "壮": 768,
      "声": 769,
      "壳": 770,
      "壶": 771,
      "壹": 772,
      "处": 773,
      "备": 774,
      "复": 775,
      "夏": 776,
      "夕": 777,
      "外": 778,
      "多": 779,
      "夜": 780,
      "够": 781,
      "大": 782,
      "天": 783,
      "太": 784,
      "夫": 785,
      "夭": 786,
      "央": 787,
      "失": 788,
      "头": 789,
      "夷": 790,
      "夸": 791,
      "夹": 792,
      "夺": 793,
      "奄": 794,
      "奇": 795,
      "奈": 796,
      "奉": 797,
      "奋": 798,
      "奏": 799,
      "契": 800,
      "奔": 801,
      "奕": 802,
      "奖": 803,
      "套": 804,
      "奢": 805,
      "奥": 806,
      "女": 807,
      "奴": 808,
      "奶": 809,
      "奸": 810,
      "她": 811,
      "好": 812,
      "如": 813,
      "妃": 814,
      "妄": 815,
      "妆": 816,
      "妇": 817,
      "妈": 818,
      "妍": 819,
      "妒": 820,
      "妓": 821,
      "妖": 822,
      "妙": 823,
      "妞": 824,
      "妥": 825,
      "妨": 826,
      "妩": 827,
      "妮": 828,
      "妹": 829,
      "妻": 830,
      "姆": 831,
      "始": 832,
      "姐": 833,
      "姑": 834,
      "姓": 835,
      "委": 836,
      "姨": 837,
      "姻": 838,
      "姿": 839,
      "威": 840,
      "娃": 841,
      "娇": 842,
      "娘": 843,
      "娜": 844,
      "娩": 845,
      "娶": 846,
      "婆": 847,
      "婚": 848,
      "婢": 849,
      "婪": 850,
      "婴": 851,
      "婶": 852,
      "媚": 853,
      "媲": 854,
      "媳": 855,
      "嫁": 856,
      "嫉": 857,
      "嫌": 858,
      "嫣": 859,
      "嫩": 860,
      "嬉": 861,
      "子": 862,
      "孔": 863,
      "孕": 864,
      "字": 865,
      "存": 866,
      "孙": 867,
      "孝": 868,
      "季": 869,
      "孤": 870,
      "学": 871,
      "孩": 872,
      "孪": 873,
      "孬": 874,
      "孰": 875,
      "孱": 876,
      "孵": 877,
      "孺": 878,
      "孽": 879,
      "宁": 880,
      "它": 881,
      "宅": 882,
      "宇": 883,
      "守": 884,
      "安": 885,
      "宋": 886,
      "完": 887,
      "宗": 888,
      "官": 889,
      "宙": 890,
      "定": 891,
      "宛": 892,
      "宜": 893,
      "宝": 894,
      "实": 895,
      "宠": 896,
      "审": 897,
      "客": 898,
      "宣": 899,
      "室": 900,
      "宫": 901,
      "宰": 902,
      "害": 903,
      "宴": 904,
      "宵": 905,
      "家": 906,
      "容": 907,
      "宽": 908,
      "宾": 909,
      "宿": 910,
      "寂": 911,
      "寄": 912,
      "密": 913,
      "富": 914,
      "寐": 915,
      "寒": 916,
      "寝": 917,
      "寞": 918,
      "察": 919,
      "寡": 920,
      "寥": 921,
      "寸": 922,
      "对": 923,
      "寺": 924,
      "寻": 925,
      "导": 926,
      "寿": 927,
      "封": 928,
      "射": 929,
      "将": 930,
      "尊": 931,
      "小": 932,
      "少": 933,
      "尔": 934,
      "尖": 935,
      "尘": 936,
      "尚": 937,
      "尝": 938,
      "尤": 939,
      "尬": 940,
      "就": 941,
      "尴": 942,
      "尸": 943,
      "尺": 944,
      "尼": 945,
      "尽": 946,
      "尾": 947,
      "尿": 948,
      "局": 949,
      "屁": 950,
      "层": 951,
      "居": 952,
      "屈": 953,
      "屋": 954,
      "屎": 955,
      "屏": 956,
      "屑": 957,
      "展": 958,
      "属": 959,
      "屠": 960,
      "屡": 961,
      "履": 962,
      "山": 963,
      "屿": 964,
      "岁": 965,
      "岂": 966,
      "岌": 967,
      "岔": 968,
      "岖": 969,
      "岗": 970,
      "岚": 971,
      "岛": 972,
      "岩": 973,
      "岭": 974,
      "岳": 975,
      "岸": 976,
      "峋": 977,
      "峙": 978,
      "峡": 979,
      "峭": 980,
      "峰": 981,
      "峻": 982,
      "崇": 983,
      "崎": 984,
      "崖": 985,
      "崩": 986,
      "嵌": 987,
      "嶙": 988,
      "巅": 989,
      "巍": 990,
      "川": 991,
      "州": 992,
      "巡": 993,
      "巢": 994,
      "工": 995,
      "左": 996,
      "巧": 997,
      "巨": 998,
      "差": 999,
      "己": 1000,
      "已": 1001,
      "巴": 1002,
      "巷": 1003,
      "巾": 1004,
      "币": 1005,
      "市": 1006,
      "布": 1007,
      "帅": 1008,
      "帆": 1009,
      "师": 1010,
      "希": 1011,
      "帐": 1012,
      "帕": 1013,
      "帖": 1014,
      "帘": 1015,
      "帜": 1016,
      "帝": 1017,
      "带": 1018,
      "席": 1019,
      "帮": 1020,
      "帷": 1021,
      "常": 1022,
      "帽": 1023,
      "幅": 1024,
      "幌": 1025,
      "幔": 1026,
      "幕": 1027,
      "幢": 1028,
      "干": 1029,
      "平": 1030,
      "年": 1031,
      "并": 1032,
      "幸": 1033,
      "幻": 1034,
      "幼": 1035,
      "幽": 1036,
      "广": 1037,
      "庄": 1038,
      "庆": 1039,
      "庇": 1040,
      "床": 1041,
      "序": 1042,
      "庐": 1043,
      "库": 1044,
      "应": 1045,
      "底": 1046,
      "店": 1047,
      "庙": 1048,
      "府": 1049,
      "庞": 1050,
      "废": 1051,
      "度": 1052,
      "座": 1053,
      "庭": 1054,
      "庵": 1055,
      "康": 1056,
      "庸": 1057,
      "廉": 1058,
      "廊": 1059,
      "廓": 1060,
      "延": 1061,
      "建": 1062,
      "开": 1063,
      "异": 1064,
      "弃": 1065,
      "弄": 1066,
      "弈": 1067,
      "弊": 1068,
      "式": 1069,
      "弓": 1070,
      "引": 1071,
      "弟": 1072,
      "张": 1073,
      "弥": 1074,
      "弦": 1075,
      "弧": 1076,
      "弩": 1077,
      "弯": 1078,
      "弱": 1079,
      "弹": 1080,
      "强": 1081,
      "归": 1082,
      "当": 1083,
      "录": 1084,
      "形": 1085,
      "彤": 1086,
      "彩": 1087,
      "彪": 1088,
      "彬": 1089,
      "彭": 1090,
      "影": 1091,
      "役": 1092,
      "彻": 1093,
      "彼": 1094,
      "往": 1095,
      "征": 1096,
      "径": 1097,
      "待": 1098,
      "很": 1099,
      "徊": 1100,
      "律": 1101,
      "徐": 1102,
      "徒": 1103,
      "得": 1104,
      "徘": 1105,
      "御": 1106,
      "徨": 1107,
      "循": 1108,
      "微": 1109,
      "德": 1110,
      "徽": 1111,
      "心": 1112,
      "必": 1113,
      "忆": 1114,
      "忌": 1115,
      "忍": 1116,
      "忐": 1117,
      "忑": 1118,
      "忒": 1119,
      "志": 1120,
      "忘": 1121,
      "忙": 1122,
      "忠": 1123,
      "忡": 1124,
      "忧": 1125,
      "忪": 1126,
      "快": 1127,
      "念": 1128,
      "忽": 1129,
      "怀": 1130,
      "态": 1131,
      "怅": 1132,
      "怆": 1133,
      "怎": 1134,
      "怒": 1135,
      "怔": 1136,
      "怕": 1137,
      "怖": 1138,
      "怜": 1139,
      "思": 1140,
      "怠": 1141,
      "怡": 1142,
      "急": 1143,
      "性": 1144,
      "怨": 1145,
      "怪": 1146,
      "怯": 1147,
      "总": 1148,
      "恃": 1149,
      "恋": 1150,
      "恍": 1151,
      "恐": 1152,
      "恒": 1153,
      "恕": 1154,
      "恙": 1155,
      "恢": 1156,
      "恨": 1157,
      "恩": 1158,
      "恭": 1159,
      "息": 1160,
      "恰": 1161,
      "恳": 1162,
      "恶": 1163,
      "恼": 1164,
      "悄": 1165,
      "悉": 1166,
      "悍": 1167,
      "悔": 1168,
      "悚": 1169,
      "悟": 1170,
      "悠": 1171,
      "患": 1172,
      "悦": 1173,
      "您": 1174,
      "悬": 1175,
      "悯": 1176,
      "悲": 1177,
      "悴": 1178,
      "悸": 1179,
      "悻": 1180,
      "情": 1181,
      "惊": 1182,
      "惋": 1183,
      "惑": 1184,
      "惕": 1185,
      "惘": 1186,
      "惚": 1187,
      "惜": 1188,
      "惠": 1189,
      "惧": 1190,
      "惨": 1191,
      "惩": 1192,
      "惫": 1193,
      "惬": 1194,
      "惭": 1195,
      "惯": 1196,
      "想": 1197,
      "惶": 1198,
      "惹": 1199,
      "惺": 1200,
      "愁": 1201,
      "愈": 1202,
      "愉": 1203,
      "意": 1204,
      "愕": 1205,
      "愚": 1206,
      "感": 1207,
      "愣": 1208,
      "愤": 1209,
      "愦": 1210,
      "愧": 1211,
      "愿": 1212,
      "慈": 1213,
      "慌": 1214,
      "慎": 1215,
      "慑": 1216,
      "慕": 1217,
      "慢": 1218,
      "慧": 1219,
      "慨": 1220,
      "慰": 1221,
      "慷": 1222,
      "憋": 1223,
      "憔": 1224,
      "憧": 1225,
      "憨": 1226,
      "憬": 1227,
      "憾": 1228,
      "懂": 1229,
      "懈": 1230,
      "懊": 1231,
      "懒": 1232,
      "懦": 1233,
      "懮": 1234,
      "懵": 1235,
      "戈": 1236,
      "戏": 1237,
      "成": 1238,
      "我": 1239,
      "戒": 1240,
      "或": 1241,
      "战": 1242,
      "戚": 1243,
      "截": 1244,
      "戮": 1245,
      "戳": 1246,
      "戴": 1247,
      "户": 1248,
      "房": 1249,
      "所": 1250,
      "扁": 1251,
      "扇": 1252,
      "扉": 1253,
      "手": 1254,
      "才": 1255,
      "扎": 1256,
      "扑": 1257,
      "扒": 1258,
      "打": 1259,
      "扔": 1260,
      "托": 1261,
      "扛": 1262,
      "扣": 1263,
      "执": 1264,
      "扩": 1265,
      "扫": 1266,
      "扬": 1267,
      "扭": 1268,
      "扮": 1269,
      "扯": 1270,
      "扰": 1271,
      "扶": 1272,
      "批": 1273,
      "扼": 1274,
      "找": 1275,
      "承": 1276,
      "技": 1277,
      "抄": 1278,
      "把": 1279,
      "抑": 1280,
      "抓": 1281,
      "投": 1282,
      "抖": 1283,
      "抗": 1284,
      "折": 1285,
      "抚": 1286,
      "抛": 1287,
      "抡": 1288,
      "抢": 1289,
      "护": 1290,
      "报": 1291,
      "披": 1292,
      "抬": 1293,
      "抱": 1294,
      "抵": 1295,
      "抹": 1296,
      "押": 1297,
      "抽": 1298,
      "抿": 1299,
      "拂": 1300,
      "拄": 1301,
      "担": 1302,
      "拆": 1303,
      "拇": 1304,
      "拉": 1305,
      "拌": 1306,
      "拍": 1307,
      "拐": 1308,
      "拒": 1309,
      "拔": 1310,
      "拖": 1311,
      "拗": 1312,
      "拘": 1313,
      "拙": 1314,
      "招": 1315,
      "拜": 1316,
      "拟": 1317,
      "拢": 1318,
      "拥": 1319,
      "拦": 1320,
      "拧": 1321,
      "拨": 1322,
      "择": 1323,
      "括": 1324,
      "拭": 1325,
      "拯": 1326,
      "拱": 1327,
      "拳": 1328,
      "拼": 1329,
      "拽": 1330,
      "拾": 1331,
      "拿": 1332,
      "持": 1333,
      "挂": 1334,
      "指": 1335,
      "按": 1336,
      "挎": 1337,
      "挑": 1338,
      "挖": 1339,
      "挚": 1340,
      "挟": 1341,
      "挠": 1342,
      "挡": 1343,
      "挣": 1344,
      "挤": 1345,
      "挥": 1346,
      "挨": 1347,
      "挪": 1348,
      "挫": 1349,
      "振": 1350,
      "挲": 1351,
      "挺": 1352,
      "挽": 1353,
      "捂": 1354,
      "捅": 1355,
      "捆": 1356,
      "捉": 1357,
      "捏": 1358,
      "捕": 1359,
      "捞": 1360,
      "损": 1361,
      "捡": 1362,
      "换": 1363,
      "捣": 1364,
      "捧": 1365,
      "据": 1366,
      "捶": 1367,
      "捷": 1368,
      "捺": 1369,
      "掀": 1370,
      "授": 1371,
      "掉": 1372,
      "掌": 1373,
      "掏": 1374,
      "掐": 1375,
      "排": 1376,
      "掘": 1377,
      "掠": 1378,
      "探": 1379,
      "掣": 1380,
      "接": 1381,
      "控": 1382,
      "推": 1383,
      "掩": 1384,
      "措": 1385,
      "掬": 1386,
      "掰": 1387,
      "掳": 1388,
      "掴": 1389,
      "掷": 1390,
      "掺": 1391,
      "揉": 1392,
      "揍": 1393,
      "描": 1394,
      "提": 1395,
      "插": 1396,
      "握": 1397,
      "揣": 1398,
      "揪": 1399,
      "揭": 1400,
      "援": 1401,
      "揽": 1402,
      "搀": 1403,
      "搁": 1404,
      "搂": 1405,
      "搅": 1406,
      "搏": 1407,
      "搐": 1408,
      "搓": 1409,
      "搔": 1410,
      "搜": 1411,
      "搞": 1412,
      "搬": 1413,
      "搭": 1414,
      "携": 1415,
      "摁": 1416,
      "摄": 1417,
      "摆": 1418,
      "摇": 1419,
      "摊": 1420,
      "摔": 1421,
      "摘": 1422,
      "摧": 1423,
      "摩": 1424,
      "摭": 1425,
      "摸": 1426,
      "撅": 1427,
      "撑": 1428,
      "撒": 1429,
      "撕": 1430,
      "撞": 1431,
      "撤": 1432,
      "撩": 1433,
      "撬": 1434,
      "播": 1435,
      "撼": 1436,
      "擅": 1437,
      "操": 1438,
      "擎": 1439,
      "擒": 1440,
      "擦": 1441,
      "攀": 1442,
      "攒": 1443,
      "攘": 1444,
      "攥": 1445,
      "支": 1446,
      "收": 1447,
      "改": 1448,
      "攻": 1449,
      "放": 1450,
      "政": 1451,
      "故": 1452,
      "效": 1453,
      "敌": 1454,
      "敏": 1455,
      "救": 1456,
      "教": 1457,
      "敛": 1458,
      "敝": 1459,
      "敞": 1460,
      "敢": 1461,
      "散": 1462,
      "敬": 1463,
      "数": 1464,
      "敲": 1465,
      "整": 1466,
      "敷": 1467,
      "文": 1468,
      "斋": 1469,
      "斑": 1470,
      "斓": 1471,
      "斗": 1472,
      "料": 1473,
      "斜": 1474,
      "斤": 1475,
      "斥": 1476,
      "斧": 1477,
      "斩": 1478,
      "断": 1479,
      "斯": 1480,
      "新": 1481,
      "方": 1482,
      "施": 1483,
      "旁": 1484,
      "旅": 1485,
      "旋": 1486,
      "族": 1487,
      "旗": 1488,
      "无": 1489,
      "既": 1490,
      "日": 1491,
      "旦": 1492,
      "旧": 1493,
      "旨": 1494,
      "早": 1495,
      "旭": 1496,
      "旱": 1497,
      "时": 1498,
      "旷": 1499,
      "旺": 1500,
      "昂": 1501,
      "昆": 1502,
      "昌": 1503,
      "明": 1504,
      "昏": 1505,
      "易": 1506,
      "昔": 1507,
      "星": 1508,
      "映": 1509,
      "春": 1510,
      "昧": 1511,
      "昨": 1512,
      "昭": 1513,
      "是": 1514,
      "昼": 1515,
      "显": 1516,
      "晃": 1517,
      "晋": 1518,
      "晓": 1519,
      "晕": 1520,
      "晚": 1521,
      "晦": 1522,
      "晨": 1523,
      "普": 1524,
      "景": 1525,
      "晰": 1526,
      "晴": 1527,
      "晶": 1528,
      "智": 1529,
      "暂": 1530,
      "暇": 1531,
      "暖": 1532,
      "暗": 1533,
      "暝": 1534,
      "暧": 1535,
      "暮": 1536,
      "暴": 1537,
      "曙": 1538,
      "曝": 1539,
      "曰": 1540,
      "曲": 1541,
      "曳": 1542,
      "更": 1543,
      "曼": 1544,
      "曾": 1545,
      "替": 1546,
      "最": 1547,
      "月": 1548,
      "有": 1549,
      "朋": 1550,
      "服": 1551,
      "朗": 1552,
      "望": 1553,
      "朝": 1554,
      "期": 1555,
      "朦": 1556,
      "木": 1557,
      "未": 1558,
      "末": 1559,
      "本": 1560,
      "术": 1561,
      "朱": 1562,
      "朴": 1563,
      "朵": 1564,
      "机": 1565,
      "朽": 1566,
      "杀": 1567,
      "杂": 1568,
      "权": 1569,
      "杆": 1570,
      "李": 1571,
      "材": 1572,
      "村": 1573,
      "杖": 1574,
      "束": 1575,
      "条": 1576,
      "来": 1577,
      "杨": 1578,
      "杯": 1579,
      "杰": 1580,
      "松": 1581,
      "板": 1582,
      "极": 1583,
      "构": 1584,
      "枉": 1585,
      "析": 1586,
      "枕": 1587,
      "林": 1588,
      "枚": 1589,
      "果": 1590,
      "枝": 1591,
      "枢": 1592,
      "枪": 1593,
      "枫": 1594,
      "枭": 1595,
      "枯": 1596,
      "架": 1597,
      "柄": 1598,
      "柏": 1599,
      "某": 1600,
      "染": 1601,
      "柔": 1602,
      "柜": 1603,
      "查": 1604,
      "柯": 1605,
      "柱": 1606,
      "柳": 1607,
      "柴": 1608,
      "栅": 1609,
      "标": 1610,
      "栈": 1611,
      "栏": 1612,
      "树": 1613,
      "栖": 1614,
      "栗": 1615,
      "校": 1616,
      "栩": 1617,
      "株": 1618,
      "样": 1619,
      "核": 1620,
      "根": 1621,
      "格": 1622,
      "栽": 1623,
      "桀": 1624,
      "桃": 1625,
      "框": 1626,
      "案": 1627,
      "桌": 1628,
      "桐": 1629,
      "桑": 1630,
      "桠": 1631,
      "档": 1632,
      "桥": 1633,
      "桨": 1634,
      "桩": 1635,
      "桶": 1636,
      "梁": 1637,
      "梅": 1638,
      "梗": 1639,
      "梢": 1640,
      "梦": 1641,
      "梧": 1642,
      "梨": 1643,
      "梭": 1644,
      "梯": 1645,
      "械": 1646,
      "梳": 1647,
      "检": 1648,
      "棂": 1649,
      "棋": 1650,
      "棍": 1651,
      "棒": 1652,
      "棕": 1653,
      "棘": 1654,
      "森": 1655,
      "棱": 1656,
      "棵": 1657,
      "棺": 1658,
      "椅": 1659,
      "植": 1660,
      "椎": 1661,
      "楚": 1662,
      "楮": 1663,
      "楼": 1664,
      "概": 1665,
      "榜": 1666,
      "榭": 1667,
      "榻": 1668,
      "槌": 1669,
      "槐": 1670,
      "槛": 1671,
      "模": 1672,
      "横": 1673,
      "樱": 1674,
      "橙": 1675,
      "橡": 1676,
      "檀": 1677,
      "檐": 1678,
      "欠": 1679,
      "次": 1680,
      "欢": 1681,
      "欣": 1682,
      "欧": 1683,
      "欲": 1684,
      "欺": 1685,
      "款": 1686,
      "歇": 1687,
      "歉": 1688,
      "歌": 1689,
      "止": 1690,
      "正": 1691,
      "此": 1692,
      "步": 1693,
      "武": 1694,
      "歪": 1695,
      "歹": 1696,
      "死": 1697,
      "歼": 1698,
      "殃": 1699,
      "殉": 1700,
      "殊": 1701,
      "残": 1702,
      "殒": 1703,
      "殖": 1704,
      "段": 1705,
      "殷": 1706,
      "殿": 1707,
      "毁": 1708,
      "毅": 1709,
      "母": 1710,
      "每": 1711,
      "毒": 1712,
      "比": 1713,
      "毕": 1714,
      "毙": 1715,
      "毛": 1716,
      "毡": 1717,
      "毫": 1718,
      "毯": 1719,
      "氏": 1720,
      "民": 1721,
      "气": 1722,
      "氛": 1723,
      "氧": 1724,
      "水": 1725,
      "永": 1726,
      "汁": 1727,
      "求": 1728,
      "汇": 1729,
      "汉": 1730,
      "汗": 1731,
      "江": 1732,
      "池": 1733,
      "污": 1734,
      "汤": 1735,
      "汩": 1736,
      "汪": 1737,
      "汰": 1738,
      "汹": 1739,
      "汽": 1740,
      "沁": 1741,
      "沃": 1742,
      "沈": 1743,
      "沉": 1744,
      "沌": 1745,
      "沏": 1746,
      "沐": 1747,
      "沙": 1748,
      "沛": 1749,
      "沟": 1750,
      "没": 1751,
      "沥": 1752,
      "沦": 1753,
      "沧": 1754,
      "沫": 1755,
      "沮": 1756,
      "河": 1757,
      "沸": 1758,
      "油": 1759,
      "治": 1760,
      "沾": 1761,
      "沿": 1762,
      "泄": 1763,
      "泉": 1764,
      "泊": 1765,
      "泌": 1766,
      "泓": 1767,
      "法": 1768,
      "泛": 1769,
      "泞": 1770,
      "泡": 1771,
      "波": 1772,
      "泣": 1773,
      "泥": 1774,
      "注": 1775,
      "泪": 1776,
      "泰": 1777,
      "泻": 1778,
      "泼": 1779,
      "泽": 1780,
      "洁": 1781,
      "洋": 1782,
      "洒": 1783,
      "洗": 1784,
      "洞": 1785,
      "津": 1786,
      "洪": 1787,
      "洲": 1788,
      "活": 1789,
      "洼": 1790,
      "派": 1791,
      "流": 1792,
      "浅": 1793,
      "浆": 1794,
      "浇": 1795,
      "浊": 1796,
      "测": 1797,
      "济": 1798,
      "浑": 1799,
      "浓": 1800,
      "浩": 1801,
      "浪": 1802,
      "浮": 1803,
      "浴": 1804,
      "海": 1805,
      "浸": 1806,
      "涂": 1807,
      "消": 1808,
      "涉": 1809,
      "涌": 1810,
      "涎": 1811,
      "涓": 1812,
      "涕": 1813,
      "涛": 1814,
      "涟": 1815,
      "涡": 1816,
      "涤": 1817,
      "润": 1818,
      "涧": 1819,
      "涨": 1820,
      "涩": 1821,
      "涯": 1822,
      "液": 1823,
      "涸": 1824,
      "淀": 1825,
      "淋": 1826,
      "淌": 1827,
      "淑": 1828,
      "淘": 1829,
      "淡": 1830,
      "淤": 1831,
      "淫": 1832,
      "深": 1833,
      "混": 1834,
      "淹": 1835,
      "添": 1836,
      "淼": 1837,
      "清": 1838,
      "渊": 1839,
      "渍": 1840,
      "渐": 1841,
      "渔": 1842,
      "渗": 1843,
      "渠": 1844,
      "渡": 1845,
      "渣": 1846,
      "温": 1847,
      "港": 1848,
      "渲": 1849,
      "渴": 1850,
      "游": 1851,
      "渺": 1852,
      "湃": 1853,
      "湖": 1854,
      "湛": 1855,
      "湮": 1856,
      "湾": 1857,
      "湿": 1858,
      "溃": 1859,
      "溅": 1860,
      "源": 1861,
      "溜": 1862,
      "溢": 1863,
      "溪": 1864,
      "溶": 1865,
      "溺": 1866,
      "滋": 1867,
      "滑": 1868,
      "滔": 1869,
      "滚": 1870,
      "滞": 1871,
      "满": 1872,
      "滥": 1873,
      "滩": 1874,
      "滴": 1875,
      "漂": 1876,
      "漆": 1877,
      "漉": 1878,
      "漏": 1879,
      "漓": 1880,
      "演": 1881,
      "漠": 1882,
      "漩": 1883,
      "漪": 1884,
      "漫": 1885,
      "漾": 1886,
      "潇": 1887,
      "潘": 1888,
      "潜": 1889,
      "潮": 1890,
      "澄": 1891,
      "澈": 1892,
      "澎": 1893,
      "澡": 1894,
      "激": 1895,
      "瀑": 1896,
      "瀚": 1897,
      "灌": 1898,
      "火": 1899,
      "灭": 1900,
      "灯": 1901,
      "灰": 1902,
      "灵": 1903,
      "灶": 1904,
      "灼": 1905,
      "灾": 1906,
      "灿": 1907,
      "炉": 1908,
      "炎": 1909,
      "炒": 1910,
      "炫": 1911,
      "炬": 1912,
      "炭": 1913,
      "炮": 1914,
      "炯": 1915,
      "炸": 1916,
      "点": 1917,
      "炼": 1918,
      "炽": 1919,
      "烁": 1920,
      "烂": 1921,
      "烈": 1922,
      "烙": 1923,
      "烛": 1924,
      "烟": 1925,
      "烤": 1926,
      "烦": 1927,
      "烧": 1928,
      "烫": 1929,
      "烬": 1930,
      "热": 1931,
      "烽": 1932,
      "焉": 1933,
      "焕": 1934,
      "焚": 1935,
      "焦": 1936,
      "焰": 1937,
      "然": 1938,
      "煌": 1939,
      "煎": 1940,
      "煞": 1941,
      "煦": 1942,
      "照": 1943,
      "煮": 1944,
      "煽": 1945,
      "熄": 1946,
      "熊": 1947,
      "熔": 1948,
      "熙": 1949,
      "熟": 1950,
      "熬": 1951,
      "燃": 1952,
      "燎": 1953,
      "燕": 1954,
      "燥": 1955,
      "爆": 1956,
      "爪": 1957,
      "爬": 1958,
      "爱": 1959,
      "父": 1960,
      "爷": 1961,
      "爸": 1962,
      "爹": 1963,
      "爽": 1964,
      "片": 1965,
      "版": 1966,
      "牌": 1967,
      "牒": 1968,
      "牙": 1969,
      "牛": 1970,
      "牢": 1971,
      "物": 1972,
      "牲": 1973,
      "牵": 1974,
      "特": 1975,
      "牺": 1976,
      "犀": 1977,
      "犄": 1978,
      "犟": 1979,
      "犬": 1980,
      "犯": 1981,
      "状": 1982,
      "犹": 1983,
      "狂": 1984,
      "狈": 1985,
      "狐": 1986,
      "狗": 1987,
      "狞": 1988,
      "狠": 1989,
      "狡": 1990,
      "狩": 1991,
      "独": 1992,
      "狭": 1993,
      "狮": 1994,
      "狰": 1995,
      "狱": 1996,
      "狸": 1997,
      "狼": 1998,
      "猎": 1999,
      "猛": 2000,
      "猜": 2001,
      "猝": 2002,
      "猪": 2003,
      "猫": 2004,
      "猬": 2005,
      "献": 2006,
      "猴": 2007,
      "猾": 2008,
      "獠": 2009,
      "玄": 2010,
      "率": 2011,
      "玉": 2012,
      "王": 2013,
      "玩": 2014,
      "环": 2015,
      "现": 2016,
      "玲": 2017,
      "玻": 2018,
      "珍": 2019,
      "珠": 2020,
      "班": 2021,
      "球": 2022,
      "琅": 2023,
      "理": 2024,
      "琉": 2025,
      "琢": 2026,
      "琳": 2027,
      "琴": 2028,
      "琼": 2029,
      "瑕": 2030,
      "瑟": 2031,
      "瑶": 2032,
      "璀": 2033,
      "璃": 2034,
      "瓜": 2035,
      "瓢": 2036,
      "瓣": 2037,
      "瓦": 2038,
      "瓶": 2039,
      "甘": 2040,
      "甚": 2041,
      "甜": 2042,
      "生": 2043,
      "用": 2044,
      "甩": 2045,
      "甬": 2046,
      "田": 2047,
      "由": 2048,
      "甲": 2049,
      "申": 2050,
      "电": 2051,
      "男": 2052,
      "画": 2053,
      "畅": 2054,
      "界": 2055,
      "畏": 2056,
      "畔": 2057,
      "留": 2058,
      "畜": 2059,
      "略": 2060,
      "番": 2061,
      "畸": 2062,
      "疆": 2063,
      "疏": 2064,
      "疑": 2065,
      "疗": 2066,
      "疙": 2067,
      "疚": 2068,
      "疤": 2069,
      "疫": 2070,
      "疮": 2071,
      "疯": 2072,
      "疲": 2073,
      "疼": 2074,
      "疾": 2075,
      "痂": 2076,
      "病": 2077,
      "症": 2078,
      "痊": 2079,
      "痒": 2080,
      "痕": 2081,
      "痛": 2082,
      "痞": 2083,
      "痣": 2084,
      "痪": 2085,
      "痴": 2086,
      "痹": 2087,
      "瘟": 2088,
      "瘦": 2089,
      "瘩": 2090,
      "瘫": 2091,
      "瘸": 2092,
      "瘾": 2093,
      "癖": 2094,
      "癞": 2095,
      "癯": 2096,
      "登": 2097,
      "白": 2098,
      "百": 2099,
      "皂": 2100,
      "的": 2101,
      "皆": 2102,
      "皇": 2103,
      "皑": 2104,
      "皙": 2105,
      "皮": 2106,
      "皱": 2107,
      "皿": 2108,
      "盆": 2109,
      "盈": 2110,
      "益": 2111,
      "盍": 2112,
      "盏": 2113,
      "监": 2114,
      "盒": 2115,
      "盔": 2116,
      "盖": 2117,
      "盗": 2118,
      "盘": 2119,
      "盛": 2120,
      "盟": 2121,
      "目": 2122,
      "盯": 2123,
      "盲": 2124,
      "直": 2125,
      "相": 2126,
      "盼": 2127,
      "盾": 2128,
      "省": 2129,
      "眈": 2130,
      "眉": 2131,
      "看": 2132,
      "真": 2133,
      "眠": 2134,
      "眨": 2135,
      "眩": 2136,
      "眯": 2137,
      "眶": 2138,
      "眷": 2139,
      "眸": 2140,
      "眺": 2141,
      "眼": 2142,
      "着": 2143,
      "睁": 2144,
      "睛": 2145,
      "睡": 2146,
      "督": 2147,
      "睦": 2148,
      "睫": 2149,
      "睹": 2150,
      "睽": 2151,
      "睿": 2152,
      "瞄": 2153,
      "瞅": 2154,
      "瞌": 2155,
      "瞎": 2156,
      "瞒": 2157,
      "瞟": 2158,
      "瞥": 2159,
      "瞧": 2160,
      "瞪": 2161,
      "瞬": 2162,
      "瞭": 2163,
      "瞰": 2164,
      "瞳": 2165,
      "瞻": 2166,
      "矛": 2167,
      "矢": 2168,
      "矣": 2169,
      "知": 2170,
      "矩": 2171,
      "矫": 2172,
      "短": 2173,
      "矮": 2174,
      "石": 2175,
      "矿": 2176,
      "码": 2177,
      "砌": 2178,
      "砍": 2179,
      "研": 2180,
      "砖": 2181,
      "砰": 2182,
      "破": 2183,
      "砸": 2184,
      "砾": 2185,
      "础": 2186,
      "硕": 2187,
      "硬": 2188,
      "确": 2189,
      "碌": 2190,
      "碍": 2191,
      "碎": 2192,
      "碑": 2193,
      "碗": 2194,
      "碧": 2195,
      "碰": 2196,
      "碴": 2197,
      "碾": 2198,
      "磁": 2199,
      "磅": 2200,
      "磊": 2201,
      "磕": 2202,
      "磨": 2203,
      "礁": 2204,
      "礡": 2205,
      "示": 2206,
      "礼": 2207,
      "社": 2208,
      "祈": 2209,
      "祖": 2210,
      "祝": 2211,
      "神": 2212,
      "祟": 2213,
      "祠": 2214,
      "祥": 2215,
      "票": 2216,
      "祭": 2217,
      "祷": 2218,
      "祸": 2219,
      "禀": 2220,
      "禁": 2221,
      "禅": 2222,
      "福": 2223,
      "离": 2224,
      "禽": 2225,
      "秀": 2226,
      "私": 2227,
      "秃": 2228,
      "秉": 2229,
      "秋": 2230,
      "种": 2231,
      "科": 2232,
      "秒": 2233,
      "秘": 2234,
      "租": 2235,
      "积": 2236,
      "称": 2237,
      "移": 2238,
      "秽": 2239,
      "稀": 2240,
      "程": 2241,
      "稍": 2242,
      "税": 2243,
      "稚": 2244,
      "稠": 2245,
      "稳": 2246,
      "稻": 2247,
      "稽": 2248,
      "穴": 2249,
      "究": 2250,
      "穷": 2251,
      "穹": 2252,
      "空": 2253,
      "穿": 2254,
      "突": 2255,
      "窃": 2256,
      "窄": 2257,
      "窍": 2258,
      "窒": 2259,
      "窗": 2260,
      "窘": 2261,
      "窜": 2262,
      "窝": 2263,
      "窟": 2264,
      "窥": 2265,
      "窦": 2266,
      "窿": 2267,
      "立": 2268,
      "竖": 2269,
      "站": 2270,
      "竞": 2271,
      "竟": 2272,
      "章": 2273,
      "童": 2274,
      "竭": 2275,
      "端": 2276,
      "竹": 2277,
      "竿": 2278,
      "笈": 2279,
      "笋": 2280,
      "笑": 2281,
      "笔": 2282,
      "笛": 2283,
      "符": 2284,
      "笨": 2285,
      "第": 2286,
      "笼": 2287,
      "等": 2288,
      "筋": 2289,
      "筑": 2290,
      "筒": 2291,
      "答": 2292,
      "策": 2293,
      "筝": 2294,
      "筹": 2295,
      "签": 2296,
      "简": 2297,
      "算": 2298,
      "管": 2299,
      "箭": 2300,
      "箱": 2301,
      "篇": 2302,
      "篝": 2303,
      "篡": 2304,
      "篮": 2305,
      "篷": 2306,
      "簇": 2307,
      "簧": 2308,
      "簸": 2309,
      "籁": 2310,
      "籍": 2311,
      "米": 2312,
      "类": 2313,
      "粉": 2314,
      "粒": 2315,
      "粗": 2316,
      "粘": 2317,
      "粮": 2318,
      "粹": 2319,
      "粼": 2320,
      "精": 2321,
      "糊": 2322,
      "糕": 2323,
      "糙": 2324,
      "糟": 2325,
      "系": 2326,
      "素": 2327,
      "索": 2328,
      "紧": 2329,
      "紫": 2330,
      "累": 2331,
      "繁": 2332,
      "纔": 2333,
      "纠": 2334,
      "红": 2335,
      "纤": 2336,
      "约": 2337,
      "级": 2338,
      "纪": 2339,
      "纭": 2340,
      "纯": 2341,
      "纱": 2342,
      "纳": 2343,
      "纵": 2344,
      "纷": 2345,
      "纸": 2346,
      "纹": 2347,
      "线": 2348,
      "练": 2349,
      "组": 2350,
      "细": 2351,
      "织": 2352,
      "终": 2353,
      "绊": 2354,
      "绍": 2355,
      "经": 2356,
      "绑": 2357,
      "绒": 2358,
      "结": 2359,
      "绕": 2360,
      "绘": 2361,
      "给": 2362,
      "络": 2363,
      "绝": 2364,
      "绞": 2365,
      "统": 2366,
      "绢": 2367,
      "绣": 2368,
      "继": 2369,
      "绩": 2370,
      "绪": 2371,
      "续": 2372,
      "绯": 2373,
      "绰": 2374,
      "绳": 2375,
      "维": 2376,
      "绵": 2377,
      "绷": 2378,
      "绸": 2379,
      "综": 2380,
      "绽": 2381,
      "绿": 2382,
      "缀": 2383,
      "缉": 2384,
      "缓": 2385,
      "缔": 2386,
      "缕": 2387,
      "编": 2388,
      "缘": 2389,
      "缚": 2390,
      "缝": 2391,
      "缠": 2392,
      "缨": 2393,
      "缩": 2394,
      "缭": 2395,
      "缰": 2396,
      "缲": 2397,
      "缸": 2398,
      "缺": 2399,
      "网": 2400,
      "罔": 2401,
      "罕": 2402,
      "罗": 2403,
      "罚": 2404,
      "罡": 2405,
      "罢": 2406,
      "罩": 2407,
      "罪": 2408,
      "置": 2409,
      "署": 2410,
      "羁": 2411,
      "羊": 2412,
      "美": 2413,
      "羔": 2414,
      "羞": 2415,
      "羡": 2416,
      "群": 2417,
      "羹": 2418,
      "羽": 2419,
      "翁": 2420,
      "翅": 2421,
      "翔": 2422,
      "翕": 2423,
      "翘": 2424,
      "翠": 2425,
      "翱": 2426,
      "翻": 2427,
      "翼": 2428,
      "耀": 2429,
      "老": 2430,
      "考": 2431,
      "者": 2432,
      "而": 2433,
      "耍": 2434,
      "耐": 2435,
      "耗": 2436,
      "耳": 2437,
      "耶": 2438,
      "耸": 2439,
      "耻": 2440,
      "耽": 2441,
      "耿": 2442,
      "聆": 2443,
      "聊": 2444,
      "聋": 2445,
      "职": 2446,
      "联": 2447,
      "聚": 2448,
      "聪": 2449,
      "肃": 2450,
      "肆": 2451,
      "肉": 2452,
      "肋": 2453,
      "肌": 2454,
      "肖": 2455,
      "肘": 2456,
      "肚": 2457,
      "肝": 2458,
      "肠": 2459,
      "股": 2460,
      "肢": 2461,
      "肤": 2462,
      "肥": 2463,
      "肩": 2464,
      "肮": 2465,
      "肯": 2466,
      "育": 2467,
      "肴": 2468,
      "肺": 2469,
      "肿": 2470,
      "胀": 2471,
      "胁": 2472,
      "胃": 2473,
      "胆": 2474,
      "背": 2475,
      "胎": 2476,
      "胖": 2477,
      "胚": 2478,
      "胜": 2479,
      "胞": 2480,
      "胡": 2481,
      "胧": 2482,
      "胯": 2483,
      "胳": 2484,
      "胴": 2485,
      "胶": 2486,
      "胸": 2487,
      "能": 2488,
      "脂": 2489,
      "脆": 2490,
      "脉": 2491,
      "脊": 2492,
      "脏": 2493,
      "脑": 2494,
      "脖": 2495,
      "脚": 2496,
      "脯": 2497,
      "脱": 2498,
      "脸": 2499,
      "脾": 2500,
      "腊": 2501,
      "腋": 2502,
      "腐": 2503,
      "腑": 2504,
      "腔": 2505,
      "腕": 2506,
      "腥": 2507,
      "腰": 2508,
      "腹": 2509,
      "腻": 2510,
      "腾": 2511,
      "腿": 2512,
      "膀": 2513,
      "膊": 2514,
      "膏": 2515,
      "膛": 2516,
      "膜": 2517,
      "膝": 2518,
      "膨": 2519,
      "膺": 2520,
      "臀": 2521,
      "臂": 2522,
      "臣": 2523,
      "自": 2524,
      "臭": 2525,
      "至": 2526,
      "致": 2527,
      "臼": 2528,
      "舅": 2529,
      "舆": 2530,
      "舌": 2531,
      "舍": 2532,
      "舒": 2533,
      "舔": 2534,
      "舞": 2535,
      "舟": 2536,
      "航": 2537,
      "般": 2538,
      "舱": 2539,
      "舵": 2540,
      "舷": 2541,
      "船": 2542,
      "艘": 2543,
      "良": 2544,
      "艰": 2545,
      "色": 2546,
      "艳": 2547,
      "艺": 2548,
      "节": 2549,
      "芋": 2550,
      "芒": 2551,
      "芜": 2552,
      "芝": 2553,
      "芥": 2554,
      "芦": 2555,
      "芨": 2556,
      "芬": 2557,
      "花": 2558,
      "芳": 2559,
      "芽": 2560,
      "苍": 2561,
      "苏": 2562,
      "苔": 2563,
      "苗": 2564,
      "苞": 2565,
      "苟": 2566,
      "若": 2567,
      "苦": 2568,
      "英": 2569,
      "苹": 2570,
      "茂": 2571,
      "范": 2572,
      "茅": 2573,
      "茉": 2574,
      "茎": 2575,
      "茧": 2576,
      "茫": 2577,
      "茵": 2578,
      "茶": 2579,
      "草": 2580,
      "荐": 2581,
      "荑": 2582,
      "荒": 2583,
      "荡": 2584,
      "荣": 2585,
      "荫": 2586,
      "药": 2587,
      "荷": 2588,
      "莉": 2589,
      "莎": 2590,
      "莫": 2591,
      "莱": 2592,
      "莲": 2593,
      "获": 2594,
      "莹": 2595,
      "莽": 2596,
      "菇": 2597,
      "菊": 2598,
      "菌": 2599,
      "菜": 2600,
      "菩": 2601,
      "菱": 2602,
      "菲": 2603,
      "萃": 2604,
      "萄": 2605,
      "萌": 2606,
      "萎": 2607,
      "营": 2608,
      "萨": 2609,
      "落": 2610,
      "著": 2611,
      "葛": 2612,
      "葡": 2613,
      "葫": 2614,
      "葬": 2615,
      "葱": 2616,
      "蒙": 2617,
      "蒜": 2618,
      "蒸": 2619,
      "蓄": 2620,
      "蓝": 2621,
      "蓬": 2622,
      "蔑": 2623,
      "蔓": 2624,
      "蔚": 2625,
      "蔼": 2626,
      "蔽": 2627,
      "蕉": 2628,
      "蕴": 2629,
      "蕾": 2630,
      "薄": 2631,
      "薇": 2632,
      "薪": 2633,
      "薰": 2634,
      "藏": 2635,
      "藤": 2636,
      "蘑": 2637,
      "虎": 2638,
      "虏": 2639,
      "虐": 2640,
      "虑": 2641,
      "虚": 2642,
      "虫": 2643,
      "虬": 2644,
      "虹": 2645,
      "虻": 2646,
      "虽": 2647,
      "蚀": 2648,
      "蚁": 2649,
      "蚂": 2650,
      "蚊": 2651,
      "蛇": 2652,
      "蛊": 2653,
      "蛋": 2654,
      "蛔": 2655,
      "蛙": 2656,
      "蛛": 2657,
      "蛤": 2658,
      "蛮": 2659,
      "蜂": 2660,
      "蜃": 2661,
      "蜇": 2662,
      "蜒": 2663,
      "蜗": 2664,
      "蜘": 2665,
      "蜜": 2666,
      "蜷": 2667,
      "蜿": 2668,
      "蝇": 2669,
      "蝉": 2670,
      "蝗": 2671,
      "蝙": 2672,
      "蝠": 2673,
      "蝴": 2674,
      "蝶": 2675,
      "螂": 2676,
      "融": 2677,
      "螳": 2678,
      "螺": 2679,
      "蟑": 2680,
      "蠕": 2681,
      "蠢": 2682,
      "血": 2683,
      "衅": 2684,
      "行": 2685,
      "衍": 2686,
      "衔": 2687,
      "街": 2688,
      "衡": 2689,
      "衣": 2690,
      "补": 2691,
      "表": 2692,
      "衫": 2693,
      "衬": 2694,
      "衰": 2695,
      "衷": 2696,
      "袁": 2697,
      "袋": 2698,
      "袍": 2699,
      "袖": 2700,
      "被": 2701,
      "袭": 2702,
      "袱": 2703,
      "裁": 2704,
      "裂": 2705,
      "装": 2706,
      "裔": 2707,
      "裙": 2708,
      "裤": 2709,
      "裳": 2710,
      "裸": 2711,
      "裹": 2712,
      "褂": 2713,
      "褐": 2714,
      "褛": 2715,
      "褪": 2716,
      "褴": 2717,
      "襟": 2718,
      "西": 2719,
      "要": 2720,
      "覆": 2721,
      "见": 2722,
      "观": 2723,
      "规": 2724,
      "觅": 2725,
      "视": 2726,
      "览": 2727,
      "觉": 2728,
      "觊": 2729,
      "觎": 2730,
      "觑": 2731,
      "角": 2732,
      "解": 2733,
      "触": 2734,
      "言": 2735,
      "誉": 2736,
      "誓": 2737,
      "警": 2738,
      "计": 2739,
      "订": 2740,
      "认": 2741,
      "讥": 2742,
      "讨": 2743,
      "让": 2744,
      "讪": 2745,
      "训": 2746,
      "议": 2747,
      "讯": 2748,
      "记": 2749,
      "讲": 2750,
      "讶": 2751,
      "许": 2752,
      "论": 2753,
      "讽": 2754,
      "设": 2755,
      "访": 2756,
      "诀": 2757,
      "证": 2758,
      "评": 2759,
      "诅": 2760,
      "识": 2761,
      "诈": 2762,
      "诉": 2763,
      "诊": 2764,
      "诋": 2765,
      "词": 2766,
      "试": 2767,
      "诗": 2768,
      "诚": 2769,
      "诛": 2770,
      "话": 2771,
      "诞": 2772,
      "诡": 2773,
      "询": 2774,
      "诣": 2775,
      "该": 2776,
      "详": 2777,
      "诧": 2778,
      "诫": 2779,
      "诬": 2780,
      "语": 2781,
      "误": 2782,
      "诱": 2783,
      "说": 2784,
      "诵": 2785,
      "请": 2786,
      "诸": 2787,
      "诺": 2788,
      "读": 2789,
      "诽": 2790,
      "课": 2791,
      "谁": 2792,
      "调": 2793,
      "谅": 2794,
      "谈": 2795,
      "谊": 2796,
      "谋": 2797,
      "谍": 2798,
      "谎": 2799,
      "谐": 2800,
      "谑": 2801,
      "谓": 2802,
      "谙": 2803,
      "谛": 2804,
      "谜": 2805,
      "谢": 2806,
      "谣": 2807,
      "谤": 2808,
      "谦": 2809,
      "谧": 2810,
      "谨": 2811,
      "谬": 2812,
      "谱": 2813,
      "谲": 2814,
      "谴": 2815,
      "谷": 2816,
      "豁": 2817,
      "豆": 2818,
      "象": 2819,
      "豪": 2820,
      "豫": 2821,
      "豹": 2822,
      "豺": 2823,
      "貌": 2824,
      "贝": 2825,
      "贞": 2826,
      "负": 2827,
      "财": 2828,
      "责": 2829,
      "贤": 2830,
      "败": 2831,
      "账": 2832,
      "货": 2833,
      "质": 2834,
      "贩": 2835,
      "贪": 2836,
      "贫": 2837,
      "购": 2838,
      "贯": 2839,
      "贱": 2840,
      "贲": 2841,
      "贴": 2842,
      "贵": 2843,
      "贷": 2844,
      "贸": 2845,
      "费": 2846,
      "贺": 2847,
      "贼": 2848,
      "贾": 2849,
      "资": 2850,
      "赋": 2851,
      "赌": 2852,
      "赎": 2853,
      "赏": 2854,
      "赐": 2855,
      "赔": 2856,
      "赖": 2857,
      "赘": 2858,
      "赚": 2859,
      "赛": 2860,
      "赝": 2861,
      "赞": 2862,
      "赠": 2863,
      "赢": 2864,
      "赤": 2865,
      "赦": 2866,
      "赫": 2867,
      "走": 2868,
      "赴": 2869,
      "赵": 2870,
      "赶": 2871,
      "起": 2872,
      "趁": 2873,
      "超": 2874,
      "越": 2875,
      "趋": 2876,
      "趟": 2877,
      "趣": 2878,
      "足": 2879,
      "趴": 2880,
      "趾": 2881,
      "跃": 2882,
      "跄": 2883,
      "跋": 2884,
      "跌": 2885,
      "跑": 2886,
      "跚": 2887,
      "距": 2888,
      "跟": 2889,
      "跤": 2890,
      "跨": 2891,
      "跪": 2892,
      "路": 2893,
      "跳": 2894,
      "跷": 2895,
      "跺": 2896,
      "踉": 2897,
      "踏": 2898,
      "踝": 2899,
      "踞": 2900,
      "踢": 2901,
      "踩": 2902,
      "踪": 2903,
      "踮": 2904,
      "踱": 2905,
      "踹": 2906,
      "蹂": 2907,
      "蹄": 2908,
      "蹈": 2909,
      "蹊": 2910,
      "蹋": 2911,
      "蹑": 2912,
      "蹒": 2913,
      "蹙": 2914,
      "蹦": 2915,
      "蹩": 2916,
      "蹬": 2917,
      "蹭": 2918,
      "蹲": 2919,
      "躁": 2920,
      "躏": 2921,
      "身": 2922,
      "躬": 2923,
      "躯": 2924,
      "躲": 2925,
      "躺": 2926,
      "车": 2927,
      "轨": 2928,
      "转": 2929,
      "轮": 2930,
      "软": 2931,
      "轰": 2932,
      "轴": 2933,
      "轶": 2934,
      "轻": 2935,
      "载": 2936,
      "较": 2937,
      "辆": 2938,
      "辈": 2939,
      "辉": 2940,
      "辑": 2941,
      "输": 2942,
      "辕": 2943,
      "辗": 2944,
      "辙": 2945,
      "辛": 2946,
      "辜": 2947,
      "辞": 2948,
      "辣": 2949,
      "辨": 2950,
      "辩": 2951,
      "辰": 2952,
      "辱": 2953,
      "边": 2954,
      "辽": 2955,
      "达": 2956,
      "迁": 2957,
      "迂": 2958,
      "迄": 2959,
      "迅": 2960,
      "过": 2961,
      "迈": 2962,
      "迎": 2963,
      "运": 2964,
      "近": 2965,
      "返": 2966,
      "还": 2967,
      "这": 2968,
      "进": 2969,
      "远": 2970,
      "违": 2971,
      "连": 2972,
      "迟": 2973,
      "迢": 2974,
      "迫": 2975,
      "迭": 2976,
      "述": 2977,
      "迷": 2978,
      "迸": 2979,
      "迹": 2980,
      "追": 2981,
      "退": 2982,
      "送": 2983,
      "适": 2984,
      "逃": 2985,
      "逅": 2986,
      "逆": 2987,
      "选": 2988,
      "逊": 2989,
      "透": 2990,
      "逐": 2991,
      "递": 2992,
      "途": 2993,
      "逗": 2994,
      "通": 2995,
      "逛": 2996,
      "逝": 2997,
      "逞": 2998,
      "速": 2999,
      "造": 3000,
      "逢": 3001,
      "逮": 3002,
      "逸": 3003,
      "逻": 3004,
      "逼": 3005,
      "遁": 3006,
      "遂": 3007,
      "遇": 3008,
      "遍": 3009,
      "道": 3010,
      "遗": 3011,
      "遣": 3012,
      "遥": 3013,
      "遨": 3014,
      "遭": 3015,
      "遮": 3016,
      "遵": 3017,
      "避": 3018,
      "邀": 3019,
      "邂": 3020,
      "邃": 3021,
      "那": 3022,
      "邪": 3023,
      "邻": 3024,
      "郁": 3025,
      "郊": 3026,
      "郎": 3027,
      "郑": 3028,
      "部": 3029,
      "都": 3030,
      "鄙": 3031,
      "配": 3032,
      "酒": 3033,
      "酗": 3034,
      "酣": 3035,
      "酥": 3036,
      "酬": 3037,
      "酱": 3038,
      "酷": 3039,
      "酸": 3040,
      "醉": 3041,
      "醋": 3042,
      "醒": 3043,
      "醮": 3044,
      "采": 3045,
      "释": 3046,
      "里": 3047,
      "重": 3048,
      "野": 3049,
      "量": 3050,
      "金": 3051,
      "鉴": 3052,
      "针": 3053,
      "钉": 3054,
      "钓": 3055,
      "钝": 3056,
      "钟": 3057,
      "钢": 3058,
      "钥": 3059,
      "钦": 3060,
      "钧": 3061,
      "钩": 3062,
      "钪": 3063,
      "钱": 3064,
      "钳": 3065,
      "钻": 3066,
      "铁": 3067,
      "铃": 3068,
      "铅": 3069,
      "铗": 3070,
      "铜": 3071,
      "铠": 3072,
      "铭": 3073,
      "铮": 3074,
      "铲": 3075,
      "银": 3076,
      "铸": 3077,
      "铺": 3078,
      "链": 3079,
      "销": 3080,
      "锁": 3081,
      "锅": 3082,
      "锈": 3083,
      "锋": 3084,
      "锏": 3085,
      "锐": 3086,
      "错": 3087,
      "锚": 3088,
      "锢": 3089,
      "锥": 3090,
      "锦": 3091,
      "键": 3092,
      "锲": 3093,
      "锵": 3094,
      "锺": 3095,
      "镇": 3096,
      "镖": 3097,
      "镜": 3098,
      "镰": 3099,
      "镶": 3100,
      "长": 3101,
      "门": 3102,
      "闪": 3103,
      "闭": 3104,
      "问": 3105,
      "闯": 3106,
      "闲": 3107,
      "间": 3108,
      "闷": 3109,
      "闹": 3110,
      "闺": 3111,
      "闻": 3112,
      "阀": 3113,
      "阁": 3114,
      "阅": 3115,
      "阉": 3116,
      "阔": 3117,
      "队": 3118,
      "阮": 3119,
      "防": 3120,
      "阳": 3121,
      "阴": 3122,
      "阵": 3123,
      "阶": 3124,
      "阻": 3125,
      "阿": 3126,
      "附": 3127,
      "际": 3128,
      "陆": 3129,
      "陈": 3130,
      "陋": 3131,
      "陌": 3132,
      "降": 3133,
      "限": 3134,
      "陡": 3135,
      "院": 3136,
      "除": 3137,
      "陨": 3138,
      "险": 3139,
      "陪": 3140,
      "陵": 3141,
      "陶": 3142,
      "陷": 3143,
      "隆": 3144,
      "隋": 3145,
      "随": 3146,
      "隐": 3147,
      "隔": 3148,
      "隙": 3149,
      "障": 3150,
      "隶": 3151,
      "难": 3152,
      "雀": 3153,
      "雁": 3154,
      "雄": 3155,
      "雅": 3156,
      "集": 3157,
      "雇": 3158,
      "雌": 3159,
      "雕": 3160,
      "雨": 3161,
      "雪": 3162,
      "零": 3163,
      "雷": 3164,
      "雹": 3165,
      "雾": 3166,
      "需": 3167,
      "霆": 3168,
      "震": 3169,
      "霉": 3170,
      "霍": 3171,
      "霎": 3172,
      "霜": 3173,
      "霞": 3174,
      "露": 3175,
      "霸": 3176,
      "霾": 3177,
      "青": 3178,
      "静": 3179,
      "非": 3180,
      "靠": 3181,
      "靡": 3182,
      "面": 3183,
      "靥": 3184,
      "革": 3185,
      "靴": 3186,
      "鞋": 3187,
      "鞍": 3188,
      "鞘": 3189,
      "鞠": 3190,
      "鞭": 3191,
      "韦": 3192,
      "韧": 3193,
      "韬": 3194,
      "音": 3195,
      "韵": 3196,
      "页": 3197,
      "顶": 3198,
      "项": 3199,
      "顺": 3200,
      "须": 3201,
      "顽": 3202,
      "顾": 3203,
      "顿": 3204,
      "颀": 3205,
      "颁": 3206,
      "颂": 3207,
      "预": 3208,
      "颅": 3209,
      "领": 3210,
      "颇": 3211,
      "颈": 3212,
      "颊": 3213,
      "颐": 3214,
      "频": 3215,
      "颖": 3216,
      "颗": 3217,
      "题": 3218,
      "颜": 3219,
      "额": 3220,
      "颠": 3221,
      "颤": 3222,
      "风": 3223,
      "飓": 3224,
      "飘": 3225,
      "飙": 3226,
      "飚": 3227,
      "飞": 3228,
      "食": 3229,
      "餐": 3230,
      "饥": 3231,
      "饨": 3232,
      "饭": 3233,
      "饮": 3234,
      "饰": 3235,
      "饱": 3236,
      "饲": 3237,
      "饵": 3238,
      "饶": 3239,
      "饷": 3240,
      "饼": 3241,
      "饿": 3242,
      "馆": 3243,
      "首": 3244,
      "香": 3245,
      "马": 3246,
      "驭": 3247,
      "驯": 3248,
      "驰": 3249,
      "驱": 3250,
      "驳": 3251,
      "驴": 3252,
      "驶": 3253,
      "驹": 3254,
      "驻": 3255,
      "驼": 3256,
      "驾": 3257,
      "驿": 3258,
      "骂": 3259,
      "骄": 3260,
      "骆": 3261,
      "骇": 3262,
      "骋": 3263,
      "验": 3264,
      "骏": 3265,
      "骑": 3266,
      "骗": 3267,
      "骚": 3268,
      "骠": 3269,
      "骤": 3270,
      "骨": 3271,
      "骷": 3272,
      "骸": 3273,
      "骼": 3274,
      "髅": 3275,
      "髓": 3276,
      "高": 3277,
      "髯": 3278,
      "鬼": 3279,
      "魁": 3280,
      "魂": 3281,
      "魄": 3282,
      "魅": 3283,
      "魇": 3284,
      "魔": 3285,
      "鱼": 3286,
      "鲁": 3287,
      "鲜": 3288,
      "鲤": 3289,
      "鲸": 3290,
      "鳞": 3291,
      "鸟": 3292,
      "鸡": 3293,
      "鸢": 3294,
      "鸣": 3295,
      "鸦": 3296,
      "鸭": 3297,
      "鸯": 3298,
      "鸽": 3299,
      "鸿": 3300,
      "鹅": 3301,
      "鹤": 3302,
      "鹰": 3303,
      "鹿": 3304,
      "麒": 3305,
      "麟": 3306,
      "麻": 3307,
      "麾": 3308,
      "黄": 3309,
      "黎": 3310,
      "黏": 3311,
      "黑": 3312,
      "默": 3313,
      "黝": 3314,
      "黠": 3315,
      "黯": 3316,
      "鼎": 3317,
      "鼓": 3318,
      "鼠": 3319,
      "鼻": 3320,
      "鼾": 3321,
      "齐": 3322,
      "齑": 3323,
      "齿": 3324,
      "龃": 3325,
      "龄": 3326,
      "龉": 3327,
      "龙": 3328,
      "龟": 3329,
      "�": 3330,
      "..": 3331,
      "。”": 3332,
      ",我": 3333,
      "....": 3334,
      "!”": 3335,
      "?”": 3336,
      "道。": 3337,
      "了,": 3338,
      "我们": 3339,
      "什么": 3340,
      ":“": 3341,
      "......": 3342,
      "一个": 3343,
      ",你": 3344,
      "这个": 3345,
      "没有": 3346,
      "袁茵": 3347,
      "我的": 3348,
      "已经": 3349,
      ",但": 3350,
      "现在": 3351,
      "自己": 3352,
      ",他": 3353,
      "知道": 3354,
      "齐琳": 3355,
      "小书": 3356,
      "“我": 3357,
      "的人": 3358,
      "不是": 3359,
      "......”": 3360,
      "突然": 3361,
      "“你": 3362,
      "就是": 3363,
      "了。”": 3364,
      "冯德": 3365,
      ",这": 3366,
      "怎么": 3367,
      "可以": 3368,
      "他们": 3369,
      "如果": 3370,
      "到了": 3371,
      "中的": 3372,
      "不会": 3373,
      "老大": 3374,
      ",她": 3375,
      "你们": 3376,
      ",一": 3377,
      ",我们": 3378,
      "南宫": 3379,
      "道:“": 3380,
      "南宫北": 3381,
      ",那": 3382,
      ",不": 3383,
      "身体": 3384,
      "了一": 3385,
      "因为": 3386,
      "的,": 3387,
      "的话": 3388,
      "吗?”": 3389,
      "的。”": 3390,
      "起来": 3391,
      "这样": 3392,
      "世界": 3393,
      "一定": 3394,
      "了。": 3395,
      "他的": 3396,
      "虽然": 3397,
      ",而": 3398,
      "出来": 3399,
      "她的": 3400,
      "黑衣": 3401,
      "你的": 3402,
      "地道。": 3403,
      "还是": 3404,
      "人的": 3405,
      ",就": 3406,
      "“不": 3407,
      "所以": 3408,
      "那个": 3409,
      "。”我": 3410,
      "了!”": 3411,
      "不能": 3412,
      "吧!”": 3413,
      "可能": 3414,
      "看着": 3415,
      "声音": 3416,
      "在了": 3417,
      "都是": 3418,
      ",只": 3419,
      "剑玄": 3420,
      "不要": 3421,
      "这么": 3422,
      "一般": 3423,
      "的我": 3424,
      "邪牙": 3425,
      "一下": 3426,
      "吧!": 3427,
      ",如果": 3428,
      "?”我": 3429,
      "开始": 3430,
      "少女": 3431,
      "自己的": 3432,
      "“那": 3433,
      "一直": 3434,
      "在这": 3435,
      "吗?": 3436,
      "魔族": 3437,
      "色的": 3438,
      ",也": 3439,
      "西门": 3440,
      "“老大": 3441,
      "离开": 3442,
      "还有": 3443,
      "的道。": 3444,
      "上的": 3445,
      "下来": 3446,
      "了,我": 3447,
      "一点": 3448,
      "了!": 3449,
      "应该": 3450,
      "为什么": 3451,
      "时候": 3452,
      "中,": 3453,
      "小茵": 3454,
      "断天": 3455,
      "西门断天": 3456,
      "了起来": 3457,
      "魔法": 3458,
      ",所以": 3459,
      "非常": 3460,
      "后,": 3461,
      "立即": 3462,
      "夏怒": 3463,
      "竟然": 3464,
      "只是": 3465,
      "的声音": 3466,
      "为了": 3467,
      "黑暗": 3468,
      "真的": 3469,
      "二号": 3470,
      "眼睛": 3471,
      "战斗": 3472,
      "超级": 3473,
      "一面": 3474,
      "真是": 3475,
      "不到": 3476,
      "的一": 3477,
      "也是": 3478,
      "失落": 3479,
      "只有": 3480,
      "带着": 3481,
      "不过": 3482,
      "不知道": 3483,
      "超梦": 3484,
      "发现": 3485,
      "身上": 3486,
      "岚妍": 3487,
      "这种": 3488,
      "商岚妍": 3489,
      "可是": 3490,
      "无法": 3491,
      "其实": 3492,
      ",他们": 3493,
      ",在": 3494,
      "两个": 3495,
      "的是": 3496,
      "大的": 3497,
      "笑道。": 3498,
      "“这": 3499,
      "东西": 3500,
      "失落之": 3501,
      "瞬间": 3502,
      "黑雷": 3503,
      "难道": 3504,
      "消失": 3505,
      "人,": 3506,
      "时间": 3507,
      "希望": 3508,
      "绿莹": 3509,
      "完全": 3510,
      "当然": 3511,
      "自然": 3512,
      "不住": 3513,
      "头。": 3514,
      ",不过": 3515,
      "时,": 3516,
      "!”我": 3517,
      "起了": 3518,
      "似乎": 3519,
      "地方": 3520,
      "失落之都": 3521,
      "感觉": 3522,
      "让我": 3523,
      "人家": 3524,
      "手中": 3525,
      "看来": 3526,
      "任何": 3527,
      "去,": 3528,
      "陈鱼": 3529,
      "告诉": 3530,
      "男子": 3531,
      "我们的": 3532,
      "对我": 3533,
      "成了": 3534,
      "住了": 3535,
      "一声": 3536,
      "声道。": 3537,
      "心中": 3538,
      "的事": 3539,
      "一个人": 3540,
      "第一": 3541,
      "男人": 3542,
      "在一": 3543,
      "剑玄录": 3544,
      "这一": 3545,
      "出了": 3546,
      "终于": 3547,
      "说话": 3548,
      "邪都": 3549,
      "出手": 3550,
      "是我": 3551,
      "玲玲": 3552,
      "着我": 3553,
      "地上": 3554,
      "是什么": 3555,
      "原来": 3556,
      "进入": 3557,
      "也不": 3558,
      "仁鲜": 3559,
      "在我": 3560,
      "大家": 3561,
      "所有": 3562,
      "刚才": 3563,
      "孩子": 3564,
      "洗仁鲜": 3565,
      "给我": 3566,
      "这个世界": 3567,
      "来,": 3568,
      "战斗力": 3569,
      "觉得": 3570,
      "之间": 3571,
      "准备": 3572,
      ",因为": 3573,
      "了下来": 3574,
      "头,": 3575,
      "气息": 3576,
      "吧?”": 3577,
      "能量": 3578,
      ",而且": 3579,
      ",现在": 3580,
      "我就": 3581,
      "有一": 3582,
      "体内": 3583,
      "吸血": 3584,
      "来说": 3585,
      "去。": 3586,
      "最后": 3587,
      "脸上": 3588,
      "出现": 3589,
      ",我就": 3590,
      "’的": 3591,
      "关系": 3592,
      "喜欢": 3593,
      "死之": 3594,
      "究竟": 3595,
      "马上": 3596,
      "**": 3597,
      "一样": 3598,
      "有什么": 3599,
      "安杰": 3600,
      "安杰尔": 3601,
      "了我": 3602,
      ",但我": 3603,
      "了点": 3604,
      "帝国": 3605,
      "淡淡": 3606,
      "神秘": 3607,
      "变得": 3608,
      "水晶": 3609,
      "身后": 3610,
      "身边": 3611,
      "来的": 3612,
      "“是": 3613,
      "发生": 3614,
      "目光": 3615,
      "?我": 3616,
      "了出来": 3617,
      "点了点": 3618,
      "少年": 3619,
      "就会": 3620,
      ",你们": 3621,
      "上了": 3622,
      "个人": 3623,
      "清楚": 3624,
      "紫电": 3625,
      "之前": 3626,
      "女人": 3627,
      "控制": 3628,
      "缓缓": 3629,
      "花火": 3630,
      "无论": 3631,
      "绝对": 3632,
      "“我”": 3633,
      "头:“": 3634,
      "有些": 3635,
      "相信": 3636,
      "幻水": 3637,
      "都不": 3638,
      "咬着": 3639,
      "微笑": 3640,
      "看到": 3641,
      "入了": 3642,
      "啊!": 3643,
      "第二": 3644,
      "袁茵的": 3645,
      "就算": 3646,
      "山藏": 3647,
      "是一": 3648,
      "“这个": 3649,
      "既然": 3650,
      "死亡": 3651,
      "之后": 3652,
      "力量": 3653,
      "望着": 3654,
      "然后": 3655,
      "起,": 3656,
      "这样的": 3657,
      "中。": 3658,
      "表情": 3659,
      "意思": 3660,
      "的时候": 3661,
      "死之炉": 3662,
      "此刻": 3663,
      "一切": 3664,
      "春喜": 3665,
      "罗雁": 3666,
      "我不": 3667,
      "手中的": 3668,
      "问题": 3669,
      "魔王": 3670,
      "以后": 3671,
      ",我的": 3672,
      "下,": 3673,
      "下的": 3674,
      "说不": 3675,
      "那一": 3676,
      "圣晶": 3677,
      "老公": 3678,
      "恐怕": 3679,
      "啊!”": 3680,
      "生命": 3681,
      "让你": 3682,
      "咬着牙": 3683,
      "的小": 3684,
      "童子": 3685,
      "。”齐琳": 3686,
      "的‘": 3687,
      "的大": 3688,
      "眼中": 3689,
      "西域": 3690,
      "这些": 3691,
      "佣兵": 3692,
      "姐姐": 3693,
      "是不": 3694,
      "的剑": 3695,
      "那些": 3696,
      "除了": 3697,
      "答应": 3698,
      "齐虎": 3699,
      "了,你": 3700,
      "下去": 3701,
      "只要": 3702,
      "孙幻水": 3703,
      "杨光": 3704,
      "此时": 3705,
      "永远": 3706,
      "“小": 3707,
      "口气": 3708,
      "真气": 3709,
      "那么": 3710,
      "随着": 3711,
      "黑暗中": 3712,
      "上,": 3713,
      "我是": 3714,
      "诸葛": 3715,
      "出一": 3716,
      "站在": 3717,
      "闪电": 3718,
      "了起来。": 3719,
      "别人": 3720,
      "双手": 3721,
      "大人": 3722,
      "得到": 3723,
      "想不到": 3724,
      "传说": 3725,
      "变成": 3726,
      "的袁茵": 3727,
      "不得": 3728,
      "同伴": 3729,
      "如此": 3730,
      "很快": 3731,
      "我和": 3732,
      "的笑": 3733,
      "的地方": 3734,
      ",是": 3735,
      "同时": 3736,
      "我也": 3737,
      "一定会": 3738,
      "一定要": 3739,
      "只能": 3740,
      "吸血族": 3741,
      "对不": 3742,
      "的身体": 3743,
      "周宁": 3744,
      "命悬": 3745,
      "江南": 3746,
      "高手": 3747,
      "西域江南": 3748,
      ",虽然": 3749,
      "显然": 3750,
      "给你": 3751,
      "了?”": 3752,
      "件事": 3753,
      "来。": 3754,
      "状态": 3755,
      "王八": 3756,
      "。”袁茵": 3757,
      "“不错": 3758,
      "以为": 3759,
      "厉害": 3760,
      "几乎": 3761,
      "姑娘": 3762,
      "张伯": 3763,
      "痛苦": 3764,
      "越来": 3765,
      "王八蛋": 3766,
      "下了": 3767,
      "公主": 3768,
      "周兄": 3769,
      "正在": 3770,
      "的话,": 3771,
      "越来越": 3772,
      "兹无": 3773,
      "办法": 3774,
      "哈兹无": 3775,
      "失去": 3776,
      "死幻": 3777,
      "能力": 3778,
      ",就算": 3779,
      "哈兹无尔": 3780,
      "“他": 3781,
      "不了": 3782,
      "不知": 3783,
      "了?": 3784,
      "六杀": 3785,
      "的手": 3786,
      "超梦六杀": 3787,
      " 第": 3788,
      "头道。": 3789,
      "是一个": 3790,
      "空气": 3791,
      "说的": 3792,
      "皇子": 3793,
      "在这里": 3794,
      "动,": 3795,
      "是在": 3796,
      "暗黑": 3797,
      "空中": 3798,
      "“好": 3799,
      "用力": 3800,
      "白家": 3801,
      ",我不": 3802,
      ",要": 3803,
      "全身": 3804,
      "当时": 3805,
      "模样": 3806,
      "普竹": 3807,
      "这里": 3808,
      "就要": 3809,
      "根本": 3810,
      "疯狂": 3811,
      "都会": 3812,
      "这个世界上": 3813,
      "之后,": 3814,
      "几个": 3815,
      "吧?": 3816,
      "大公主": 3817,
      "小姐": 3818,
      "机会": 3819,
      "轻道。": 3820,
      "“老大,": 3821,
      "死幻之": 3822,
      "样子": 3823,
      "“什么": 3824,
      "白衣": 3825,
      "的“": 3826,
      "了一口气": 3827,
      "之一": 3828,
      "危险": 3829,
      "果然": 3830,
      "渐渐": 3831,
      "犬奴": 3832,
      "结界": 3833,
      "轻轻": 3834,
      "怎么样": 3835,
      ",再": 3836,
      "师弟": 3837,
      "找到": 3838,
      "杀了": 3839,
      "王白": 3840,
      "王白帝": 3841,
      "今天": 3842,
      "如何": 3843,
      "我一": 3844,
      ",我也": 3845,
      ",只要": 3846,
      "暗黑经": 3847,
      "之气": 3848,
      "修花": 3849,
      "千万": 3850,
      "妹妹": 3851,
      "的道:“": 3852,
      "阳光": 3853,
      ",这个": 3854,
      "估计": 3855,
      "出的": 3856,
      "重要": 3857,
      "......我": 3858,
      "暗黑经纪": 3859,
      "整个": 3860,
      "最强": 3861,
      "章 ": 3862,
      "鬼面": 3863,
      "“小茵": 3864,
      "也许": 3865,
      "决定": 3866,
      "右手": 3867,
      "弃者": 3868,
      "情况": 3869,
      "说着": 3870,
      "跟着": 3871,
      "黑色": 3872,
      "了一个": 3873,
      "温柔": 3874,
      "很多": 3875,
      "的。": 3876,
      "说,": 3877,
      "速度": 3878,
      "。”冯德": 3879,
      "了。”我": 3880,
      "天空": 3881,
      "就不": 3882,
      "幸福": 3883,
      "笑道:“": 3884,
      "美人": 3885,
      "身前": 3886,
      ",将": 3887,
      "不断": 3888,
      "之中": 3889,
      "云儿": 3890,
      "原因": 3891,
      "师傅": 3892,
      "满了": 3893,
      "的他": 3894,
      "计划": 3895,
      ",让": 3896,
      "出,": 3897,
      "地道:“": 3898,
      "成员": 3899,
      "抱着": 3900,
      "拥有": 3901,
      "方法": 3902,
      "的她": 3903,
      "记忆": 3904,
      ",然后": 3905,
      "事情": 3906,
      "狐狸": 3907,
      "都没有": 3908,
      "雷娜": 3909,
      "吗?”我": 3910,
      "弃者帮": 3911,
      "三十": 3912,
      "听到": 3913,
      "据说": 3914,
      "的,我": 3915,
      "精神": 3916,
      "说过": 3917,
      ",她的": 3918,
      "双眼": 3919,
      "干什么": 3920,
      "笑:“": 3921,
      "说了": 3922,
      "S级": 3923,
      "一起": 3924,
      "和你": 3925,
      "着一": 3926,
      "身形": 3927,
      "道,": 3928,
      "面的": 3929,
      "为什么要": 3930,
      "暗黑经纪人": 3931,
      "“可是": 3932,
      "仍然": 3933,
      "传来": 3934,
      "出现在": 3935,
      "发出": 3936,
      "向我": 3937,
      "大声": 3938,
      "尸体": 3939,
      "快要": 3940,
      "撼野": 3941,
      "面色": 3942,
      "一定是": 3943,
      "所有的": 3944,
      "诸葛撼野": 3945,
      "”的": 3946,
      "丧尸": 3947,
      "残龙": 3948,
      "篇 第": 3949,
      "重重": 3950,
      "长老": 3951,
      "阳童子": 3952,
      ",他的": 3953,
      "黑衣少女": 3954,
      "~~": 3955,
      "“我们": 3956,
      "三个": 3957,
      "。”小书": 3958,
      ",对": 3959,
      "“......”": 3960,
      "一次": 3961,
      "一道": 3962,
      "保护": 3963,
      "就好": 3964,
      "脸色": 3965,
      "这是": 3966,
      "“你们": 3967,
      "不好": 3968,
      "不敢": 3969,
      "必须": 3970,
      "这儿": 3971,
      "部 ": 3972,
      "?”袁茵": 3973,
      "他们的": 3974,
      "了起来,": 3975,
      "三人": 3976,
      "你不": 3977,
      "否则": 3978,
      "放心": 3979,
      "术士": 3980,
      "杀死": 3981,
      "没事": 3982,
      "猎人": 3983,
      "进了": 3984,
      "却是": 3985,
      "这时": 3986,
      "骷髅": 3987,
      "黑衣鬼面": 3988,
      "一直在": 3989,
      ",从": 3990,
      "丫头": 3991,
      "你是": 3992,
      "所谓": 3993,
      "灭魔": 3994,
      "怎么会": 3995,
      ",也许": 3996,
      "不同": 3997,
      "先生": 3998,
      "前方": 3999,
      "回来": 4000,
      "担心": 4001,
      "拼命": 4002,
      "无数": 4003,
      "沉声道。": 4004,
      "目前": 4005,
      "秘密": 4006,
      "****": 4007,
      "“如果": 4008,
      "十二": 4009,
      "十六": 4010,
      "变成了": 4011,
      "吸收": 4012,
      "小北": 4013,
      "左右": 4014,
      "康云儿": 4015,
      "本来": 4016,
      "的。”我": 4017,
      "唯一": 4018,
      "天下": 4019,
      "就在": 4020,
      "的目光": 4021,
      "神龙": 4022,
      "简单": 4023,
      "过来": 4024,
      "了,但": 4025,
      ",这样": 4026,
      "的事情": 4027,
      "你就": 4028,
      "句话": 4029,
      "存在": 4030,
      "想到": 4031,
      "活着": 4032,
      "的东西": 4033,
      "的表情": 4034,
      "被他": 4035,
      "被我": 4036,
      "不可": 4037,
      "和我": 4038,
      "小心": 4039,
      "巨大的": 4040,
      "方向": 4041,
      "的女": 4042,
      "的心": 4043,
      "移动": 4044,
      "魔宫": 4045,
      "说不定": 4046,
      ",却": 4047,
      "之时": 4048,
      "令人": 4049,
      "师命悬": 4050,
      "成为": 4051,
      "攻击": 4052,
      "杀手": 4053,
      "游戏": 4054,
      "程度": 4055,
      "美女": 4056,
      "还没": 4057,
      "一条": 4058,
      "分钟": 4059,
      "合体": 4060,
      "堂主": 4061,
      "子,": 4062,
      "开了": 4063,
      "恢复": 4064,
      "把我": 4065,
      "指着": 4066,
      "特殊": 4067,
      "的看着": 4068,
      ",没有": 4069,
      "“她": 4070,
      "你。”": 4071,
      "出去": 4072,
      "在我的": 4073,
      "恐怖": 4074,
      "消息": 4075,
      "白龙": 4076,
      "的时间": 4077,
      "而且": 4078,
      ":“你": 4079,
      "在了地上": 4080,
      ",就是": 4081,
      "剑光": 4082,
      "头顶": 4083,
      "封印": 4084,
      "年前": 4085,
      "急忙": 4086,
      "的老": 4087,
      "还要": 4088,
      "魔族的": 4089,
      ",看来": 4090,
      "?你": 4091,
      "暂时": 4092,
      "父亲": 4093,
      "瓦岗": 4094,
      "的南宫北": 4095,
      "选择": 4096,
      ",其实": 4097,
      "冷冷": 4098,
      "她们": 4099,
      "左手": 4100,
      "房间": 4101,
      "早就": 4102,
      "眼前": 4103,
      "碧月": 4104,
      "说什么": 4105,
      "轻易": 4106,
      "魔剑": 4107,
      ",我想": 4108,
      "剑玄之气": 4109,
      "告诉我": 4110,
      "闪电一般": 4111,
      "瓦岗堡": 4112,
      "之下": 4113,
      "兄弟": 4114,
      "始终": 4115,
      "接近": 4116,
      "是因为": 4117,
      "最好": 4118,
      "的血": 4119,
      "算是": 4120,
      "见到": 4121,
      "还能": 4122,
      "进行": 4123,
      "是什么人": 4124,
      "对不起": 4125,
      ",袁茵": 4126,
      "周围": 4127,
      "的确": 4128,
      "都在": 4129,
      "都要": 4130,
      "我的身体": 4131,
      "咬着牙道。": 4132,
      "!我": 4133,
      "一些": 4134,
      "再说": 4135,
      "初庐": 4136,
      "呢?”": 4137,
      "四大": 4138,
      "团长": 4139,
      "士团": 4140,
      "好好": 4141,
      "的齐琳": 4142,
      "长城": 4143,
      "龙族": 4144,
      "!”袁茵": 4145,
      "第一部 ": 4146,
      "第一部 初庐": 4147,
      ",齐琳": 4148,
      "哈特": 4149,
      "替我": 4150,
      "比较": 4151,
      "的关系": 4152,
      "眼神": 4153,
      "面对": 4154,
      ",也就是": 4155,
      "哈特雷": 4156,
      ",当然": 4157,
      "“别": 4158,
      "回头": 4159,
      "天杀": 4160,
      "安全": 4161,
      "家伙": 4162,
      "属于": 4163,
      "是不是": 4164,
      "纷纷": 4165,
      "行动": 4166,
      "哈特雷斯": 4167,
      ",每": 4168,
      "之处": 4169,
      "了,我们": 4170,
      "再次": 4171,
      "口中": 4172,
      "害怕": 4173,
      "的气": 4174,
      "的感觉": 4175,
      "身上的": 4176,
      "颤抖": 4177,
      "小书的": 4178,
      "非常的": 4179,
      "告诉你": 4180,
      "停了下来": 4181,
      "光芒": 4182,
      "利用": 4183,
      "向前": 4184,
      "地狱": 4185,
      "我才": 4186,
      "的模样": 4187,
      "神情": 4188,
      "说得": 4189,
      "这次": 4190,
      "上。": 4191,
      "了个": 4192,
      "兵团": 4193,
      "凶手": 4194,
      "反应": 4195,
      "变身": 4196,
      "杀气": 4197,
      "的气息": 4198,
      "皇家": 4199,
      "财阀": 4200,
      "过了": 4201,
      "狐狸精": 4202,
      ",否则": 4203,
      "了......”": 4204,
      "好像": 4205,
      "容易": 4206,
      "就像": 4207,
      "并不": 4208,
      "惨叫": 4209,
      "才能": 4210,
      "是你": 4211,
      "死去": 4212,
      "爆炸": 4213,
      "着的": 4214,
      "身份": 4215,
      "转身": 4216,
      "阴阳童子": 4217,
      "“老大,你": 4218,
      "不见": 4219,
      "小时": 4220,
      "心的": 4221,
      "旋转": 4222,
      "毁灭": 4223,
      "的黑": 4224,
      "“不要": 4225,
      "一面说着": 4226,
      "起了眉": 4227,
      "十六姐": 4228,
      ",以": 4229,
      "‘弃者帮": 4230,
      "之内": 4231,
      "叹了一口气": 4232,
      "向了": 4233,
      "呢?": 4234,
      "坐在": 4235,
      "奇怪": 4236,
      "我想": 4237,
      "我已经": 4238,
      "活下去": 4239,
      "看你": 4240,
      "什么事": 4241,
      "没有任何": 4242,
      "世界上": 4243,
      "从来": 4244,
      "只手": 4245,
      "地面": 4246,
      "对着": 4247,
      "成功": 4248,
      "的女人": 4249,
      "联手": 4250,
      "见过": 4251,
      "白衣少女": 4252,
      "偷袭": 4253,
      "可怕": 4254,
      "四个": 4255,
      "战士": 4256,
      "把你": 4257,
      "未必": 4258,
      "毕竟": 4259,
      "混蛋": 4260,
      "都被": 4261,
      "黑色的": 4262,
      "了,他": 4263,
      "出来的": 4264,
      "黑衣人": 4265,
      "魔王哈特雷斯": 4266,
      "西域江南国": 4267,
      "黑衣鬼面男子": 4268,
      "与我": 4269,
      "了上": 4270,
      "哈哈": 4271,
      "回事": 4272,
      "就可以": 4273,
      "开口": 4274,
      "我。": 4275,
      "数十": 4276,
      "替你": 4277,
      "有人": 4278,
      "死在": 4279,
      "死的": 4280,
      "生的": 4281,
      "白问": 4282,
      "的一下": 4283,
      "的力量": 4284,
      "着头": 4285,
      "讨厌": 4286,
      "说是": 4287,
      "都不会": 4288,
      "鲜血": 4289,
      ":“老大": 4290,
      "有一种": 4291,
      "与他": 4292,
      "也不会": 4293,
      "城中": 4294,
      "改变": 4295,
      "美丽": 4296,
      "。”她": 4297,
      ",不要": 4298,
      "男人婆": 4299,
      "的笑容": 4300,
      "失去了": 4301,
      "长城帝国": 4302,
      "“但": 4303,
      "“现在": 4304,
      "“老公": 4305,
      "了过": 4306,
      "双掌": 4307,
      "可怜": 4308,
      "好,": 4309,
      "目的": 4310,
      "般的": 4311,
      "里面": 4312,
      "......你": 4313,
      ",但却": 4314,
      ",那个": 4315,
      "了出来。": 4316,
      "死幻之森": 4317,
      "第一部 初庐篇 第": 4318,
      ",难道": 4319,
      "‘超梦": 4320,
      "“谁": 4321,
      "之力": 4322,
      "二十": 4323,
      "令我": 4324,
      "关于": 4325,
      "呼吸": 4326,
      "商全": 4327,
      "大师": 4328,
      "得很": 4329,
      "惊道。": 4330,
      "意识": 4331,
      "朋友": 4332,
      "看到了": 4333,
      "脑中": 4334,
      "迷惑": 4335,
      "长发": 4336,
      ",我是": 4337,
      ",那些": 4338,
      "黑衣兵团": 4339,
      ",别": 4340,
      ",无论": 4341,
      "“没有": 4342,
      "以前": 4343,
      "可不": 4344,
      "四处": 4345,
      "好象": 4346,
      "对方": 4347,
      "明白": 4348,
      "样的": 4349,
      "灭绝": 4350,
      "笑。": 4351,
      "还不": 4352,
      "需要": 4353,
      ",我已经": 4354,
      ":“我": 4355,
      "这么多": 4356,
      "一片": 4357,
      "也没有": 4358,
      "各位": 4359,
      "在下": 4360,
      "外公": 4361,
      "头一": 4362,
      "小子": 4363,
      "挣扎": 4364,
      "由于": 4365,
      "白的": 4366,
      "脚步": 4367,
      "让人": 4368,
      "跟我": 4369,
      "遇到": 4370,
      "现在的": 4371,
      ",只有": 4372,
      "在一起": 4373,
      "所有的人": 4374,
      "杀手组": 4375,
      "一变": 4376,
      "一头": 4377,
      "一种": 4378,
      "不安": 4379,
      "到达": 4380,
      "反正": 4381,
      "向后": 4382,
      "回去": 4383,
      "复活": 4384,
      "心,": 4385,
      "武技": 4386,
      "生之": 4387,
      "的,你": 4388,
      "皱起了眉": 4389,
      "紧紧": 4390,
      "能源": 4391,
      "认为": 4392,
      "让她": 4393,
      "面孔": 4394,
      "......”我": 4395,
      ",一面": 4396,
      "的话,我": 4397,
      "“那你": 4398,
      "点了点头。": 4399,
      "点了点头:“": 4400,
      "所谓的": 4401,
      "三天": 4402,
      "不但": 4403,
      "了开": 4404,
      "二人": 4405,
      "就在这": 4406,
      "帅哥": 4407,
      "并没有": 4408,
      "慢慢": 4409,
      "搜索": 4410,
      "暴走": 4411,
      "森林": 4412,
      "气魔剑": 4413,
      "生物": 4414,
      "百分": 4415,
      ",大": 4416,
      ",还有": 4417,
      "号码": 4418,
      "在他": 4419,
      "太多": 4420,
      "对你": 4421,
      "将我": 4422,
      "我,": 4423,
      "昆仑": 4424,
      "立时": 4425,
      "通过": 4426,
      "邪帝": 4427,
      "金发": 4428,
      "面前": 4429,
      "我的心": 4430,
      ",当": 4431,
      "“怎么": 4432,
      "一句": 4433,
      "主人": 4434,
      "之中,": 4435,
      "你,": 4436,
      "兴奋": 4437,
      "十邪帝": 4438,
      "吧?”我": 4439,
      "愿意": 4440,
      "有所": 4441,
      "洗冷": 4442,
      "的白": 4443,
      "真正": 4444,
      "笼罩": 4445,
      "老头": 4446,
      "顿时": 4447,
      "应该是": 4448,
      "不住地": 4449,
      "最后的": 4450,
      "白问心": 4451,
      ",天": 4452,
      ",想": 4453,
      ",有": 4454,
      "“大": 4455,
      "不少": 4456,
      "不错": 4457,
      "丧失": 4458,
      "从我": 4459,
      "分别": 4460,
      "剑士团": 4461,
      "周静": 4462,
      "彼此": 4463,
      "手,": 4464,
      "的超级": 4465,
      "话音": 4466,
      "这件事": 4467,
      "风中": 4468,
      "什么都": 4469,
      ",你的": 4470,
      ",只是": 4471,
      "不住的": 4472,
      "微笑着": 4473,
      "也要": 4474,
      "制造": 4475,
      "受到": 4476,
      "四奴": 4477,
      "宋冯德": 4478,
      "将手": 4479,
      "平静": 4480,
      "未落": 4481,
      "神族": 4482,
      "笑容": 4483,
      "身旁": 4484,
      "都有": 4485,
      "随时": 4486,
      ",我和": 4487,
      ",我知道": 4488,
      "了,她": 4489,
      "齐琳的": 4490,
      "到了极": 4491,
      ",所以我": 4492,
      "不出": 4493,
      "也就": 4494,
      "兴趣": 4495,
      "剩下": 4496,
      "外,": 4497,
      "幽幽": 4498,
      "待卫": 4499,
      "总是": 4500,
      "我心中": 4501,
      "普通": 4502,
      "死,": 4503,
      "母亲": 4504,
      "的样子": 4505,
      "秋杀": 4506,
      "蓝星": 4507,
      "迅速": 4508,
      "长剑": 4509,
      "已经被": 4510,
      ",这是": 4511,
      "怎么能": 4512,
      "第一次": 4513,
      "号码牌": 4514,
      ",一个": 4515,
      "“没": 4516,
      "“难道": 4517,
      "之下,": 4518,
      "别人的": 4519,
      "动的": 4520,
      "十七": 4521,
      "喃喃": 4522,
      "国家": 4523,
      "我。”": 4524,
      "打开": 4525,
      "棺材": 4526,
      "的对": 4527,
      "盯着": 4528,
      "等一": 4529,
      "红衣": 4530,
      "脸上的": 4531,
      "你们的": 4532,
      "淡淡地道。": 4533,
      "蓝星圣晶": 4534,
      ",用": 4535,
      "不行": 4536,
      "也不是": 4537,
      "从他": 4538,
      "伤害": 4539,
      "你能": 4540,
      "回答": 4541,
      "地看着": 4542,
      "寂寞": 4543,
      "小声": 4544,
      "我所": 4545,
      "掌握": 4546,
      "接触": 4547,
      "的情": 4548,
      "结果": 4549,
      "绝不会": 4550,
      "胸口": 4551,
      "被她": 4552,
      "贤者": 4553,
      "都城": 4554,
      ",我要": 4555,
      "了,不过": 4556,
      "“不过": 4557,
      "‘弃者帮’": 4558,
      "生之扇": 4559,
      "百分之": 4560,
      ",两": 4561,
      "“其实": 4562,
      "一笑:“": 4563,
      "不再": 4564,
      "不可能": 4565,
      "另一": 4566,
      "嘴巴": 4567,
      "回到": 4568,
      "多少": 4569,
      "妈妈": 4570,
      "我在": 4571,
      "我心": 4572,
      "放过": 4573,
      "片刻": 4574,
      "白色的": 4575,
      "空间": 4576,
      "空中的": 4577,
      "说了,": 4578,
      "门前": 4579,
      "韦伯": 4580,
      "的人,": 4581,
      "传说中的": 4582,
      "根本就": 4583,
      "A级": 4584,
      "一剑": 4585,
      "一颗": 4586,
      "不想": 4587,
      "之巅": 4588,
      "之色": 4589,
      "他是": 4590,
      "会有": 4591,
      "使用": 4592,
      "偷偷": 4593,
      "冰冷": 4594,
      "冷道。": 4595,
      "动作": 4596,
      "哪儿": 4597,
      "在空中": 4598,
      "声道:“": 4599,
      "并不是": 4600,
      "忘了": 4601,
      "把他": 4602,
      "清晰": 4603,
      "爱情": 4604,
      "白痴": 4605,
      "的速度": 4606,
      "目标": 4607,
      "红发": 4608,
      "解药": 4609,
      "躺在": 4610,
      ",但是": 4611,
      "消失在了": 4612,
      "体内的": 4613,
      "“小北": 4614,
      "传说中": 4615,
      "灭绝剑士团": 4616,
      "“小书": 4617,
      "倒是": 4618,
      "全都": 4619,
      "十八": 4620,
      "四周": 4621,
      "声,": 4622,
      "小的": 4623,
      "明天": 4624,
      "是谁": 4625,
      "最多": 4626,
      "月光": 4627,
      "沉鱼": 4628,
      "的小书": 4629,
      "眼泪": 4630,
      "着,": 4631,
      "让他": 4632,
      "还在": 4633,
      "!”小书": 4634,
      "吧!”我": 4635,
      "吧!我": 4636,
      "魔法师": 4637,
      "发生了": 4638,
      "缓缓的": 4639,
      "空气中": 4640,
      "等一等": 4641,
      "“行": 4642,
      "“看来": 4643,
      "不及": 4644,
      "之中。": 4645,
      "也就是": 4646,
      "人类": 4647,
      "似的": 4648,
      "你这个": 4649,
      "做出": 4650,
      "全力": 4651,
      "别的": 4652,
      "剑气": 4653,
      "在黑暗中": 4654,
      "大了": 4655,
      "大宅": 4656,
      "失踪": 4657,
      "带走": 4658,
      "当中": 4659,
      "形成": 4660,
      "摇头。": 4661,
      "摇头:“": 4662,
      "松堂主": 4663,
      "皇宫": 4664,
      "皇帝": 4665,
      "绿寺": 4666,
      "而已": 4667,
      "都已经": 4668,
      "飓飙": 4669,
      ",我却": 4670,
      "什么?": 4671,
      ",你就": 4672,
      "感觉到": 4673,
      "是不可能": 4674,
      "千万不要": 4675,
      "一面说着一面": 4676,
      "话音未落": 4677,
      "沉鱼池": 4678,
      ",还": 4679,
      "‘失落之都": 4680,
      "一步": 4681,
      "上一": 4682,
      "了解": 4683,
      "了吗?”": 4684,
      "其中": 4685,
      "冷静": 4686,
      "咬牙": 4687,
      "在她": 4688,
      "地上的": 4689,
      "好了,": 4690,
      "对付": 4691,
      "帮主": 4692,
      "幻天": 4693,
      "强烈": 4694,
      "怪物": 4695,
      "握着": 4696,
      "摇了": 4697,
      "故意": 4698,
      "施出": 4699,
      "残酷": 4700,
      "的地": 4701,
      "的家伙": 4702,
      "紧张": 4703,
      "红色的": 4704,
      "组的": 4705,
      "罢了,": 4706,
      "老者": 4707,
      "考虑": 4708,
      "飞快": 4709,
      "魔晶": 4710,
      "了。”齐琳": 4711,
      "怎么办": 4712,
      "怎么可能": 4713,
      "不会有": 4714,
      "马上就要": 4715,
      "叹了一口气。": 4716,
      ",真是": 4717,
      ",恐怕": 4718,
      "一副": 4719,
      "一天": 4720,
      "以来": 4721,
      "剑圣": 4722,
      "十个": 4723,
      "可惜": 4724,
      "大哥": 4725,
      "它们": 4726,
      "宝物": 4727,
      "干掉": 4728,
      "幻国": 4729,
      "废话": 4730,
      "性命": 4731,
      "想要": 4732,
      "摇头道。": 4733,
      "是我的": 4734,
      "是怎么": 4735,
      "气海": 4736,
      "洪幻国": 4737,
      "流星": 4738,
      "的少女": 4739,
      "盈盈": 4740,
      "看看": 4741,
      "笑盈盈": 4742,
      "藏在": 4743,
      "距离": 4744,
      "还没有": 4745,
      "长的": 4746,
      "阻止": 4747,
      "风化": 4748,
      "了!”我": 4749,
      "超梦四奴": 4750,
      ",除了": 4751,
      "“因为": 4752,
      "一动": 4753,
      "不明": 4754,
      "之时,": 4755,
      "了我的": 4756,
      "以后,": 4757,
      "低下了": 4758,
      "判断": 4759,
      "势力": 4760,
      "千年": 4761,
      "听到了": 4762,
      "外面": 4763,
      "威力": 4764,
      "字一句": 4765,
      "客栈": 4766,
      "怀中": 4767,
      "我这个": 4768,
      "我没有": 4769,
      "我知道": 4770,
      "无奈": 4771,
      "是为了": 4772,
      "有没有": 4773,
      "生死": 4774,
      "相互": 4775,
      "看见": 4776,
      "睁开": 4777,
      "贱人": 4778,
      "过去": 4779,
      "鬼刀": 4780,
      "黑杀": 4781,
      ",一道": 4782,
      "用力的": 4783,
      "四大美人": 4784,
      ",被": 4785,
      ",谁": 4786,
      "“不是": 4787,
      "一旦": 4788,
      "下。": 4789,
      "了他": 4790,
      "凌空": 4791,
      "双臂": 4792,
      "右掌": 4793,
      "大概": 4794,
      "女儿": 4795,
      "射向": 4796,
      "晚上": 4797,
      "曾经": 4798,
      "甚至": 4799,
      "石门": 4800,
      "笑着": 4801,
      "等待": 4802,
      "绝世": 4803,
      "身子": 4804,
      "马车": 4805,
      "麻烦": 4806,
      "什么时候": 4807,
      ",一定": 4808,
      "“不行": 4809,
      "自然是": 4810,
      "很快就": 4811,
      "骷髅兵": 4812,
      "昆仑之巅": 4813,
      "到了极点": 4814,
      "飓飙帝国": 4815,
      ",老大": 4816,
      "一瞬间": 4817,
      "了她": 4818,
      "五个": 4819,
      "休息": 4820,
      "几天": 4821,
      "名字": 4822,
      "吼道。": 4823,
      "和他": 4824,
      "在空中的": 4825,
      "将她": 4826,
      "微笑道。": 4827,
      "我却": 4828,
      "无形": 4829,
      "死了": 4830,
      "没用": 4831,
      "漫天": 4832,
      "灵魂": 4833,
      "猛地": 4834,
      "的机会": 4835,
      "看起来": 4836,
      "继续": 4837,
      "让我们": 4838,
      "阶段": 4839,
      "黄河": 4840,
      "。”绿莹": 4841,
      "?”南宫北": 4842,
      "重重的": 4843,
      ",并": 4844,
      ",原来": 4845,
      "一把": 4846,
      "之人": 4847,
      "五行": 4848,
      "八个": 4849,
      "卷 ": 4850,
      "受伤": 4851,
      "在我们": 4852,
      "声。": 4853,
      "太过": 4854,
      "师兄": 4855,
      "幽灵": 4856,
      "开启": 4857,
      "开心": 4858,
      "掠过": 4859,
      "每一个": 4860,
      "波动": 4861,
      "现身": 4862,
      "的二号": 4863,
      "肯定": 4864,
      "谢谢": 4865,
      "透明": 4866,
      "银发": 4867,
      "门外": 4868,
      "闭上了": 4869,
      ",我只是": 4870,
      ",这时": 4871,
      "不能再": 4872,
      "的一切": 4873,
      "点了点头,": 4874,
      "********": 4875,
      "神龙财阀": 4876,
      "皇家灭绝剑士团": 4877,
      ",又": 4878,
      ",据说": 4879,
      "“嗯": 4880,
      "“这样": 4881,
      "“既然": 4882,
      "也会": 4883,
      "了进": 4884,
      "会被": 4885,
      "傻瓜": 4886,
      "半年": 4887,
      "半截": 4888,
      "和南宫北": 4889,
      "哥哥": 4890,
      "女孩子": 4891,
      "完成": 4892,
      "我能": 4893,
      "我要": 4894,
      "早已": 4895,
      "模糊": 4896,
      "猛的": 4897,
      "王巅": 4898,
      "的男人": 4899,
      "的孩子": 4900,
      "的高手": 4901,
      "的原因": 4902,
      "简直": 4903,
      "而出": 4904,
      "说完": 4905,
      "逼近": 4906,
      "释放": 4907,
      "到了我的": 4908,
      "传来了": 4909,
      "面色一变": 4910,
      ",好": 4911,
      ",南宫北": 4912,
      "“为什么": 4913,
      "“周兄": 4914,
      "※※": 4915,
      "一字一句": 4916,
      "不用": 4917,
      "乖乖": 4918,
      "你要": 4919,
      "充满了": 4920,
      "光之": 4921,
      "其他": 4922,
      "哪里": 4923,
      "对他": 4924,
      "将军": 4925,
      "尽的": 4926,
      "干吗": 4927,
      "很清楚": 4928,
      "得到了": 4929,
      "恐惧": 4930,
      "我看": 4931,
      "打算": 4932,
      "承受": 4933,
      "操纵": 4934,
      "方式": 4935,
      "有一个": 4936,
      "正是": 4937,
      "海青": 4938,
      "的冯德": 4939,
      "的方法": 4940,
      "着他": 4941,
      "短发": 4942,
      "破坏": 4943,
      "碧海青": 4944,
      "绝望": 4945,
      "耀眼": 4946,
      "被你": 4947,
      "辈子": 4948,
      "进攻": 4949,
      "部分": 4950,
      "靠近": 4951,
      ",你要": 4952,
      "身体的": 4953,
      "的话,那": 4954,
      "吸血丧尸": 4955,
      "白家大宅": 4956,
      "死幻之城": 4957,
      "三十八": 4958,
      "干什么?”": 4959,
      "红衣少年": 4960,
      "王巅土": 4961,
      ",人": 4962,
      ",小书": 4963,
      "“有": 4964,
      "“他们": 4965,
      "“当然": 4966,
      "“周宁": 4967,
      "为难": 4968,
      "也有": 4969,
      "也知道": 4970,
      "位置": 4971,
      "倒在了地上": 4972,
      "出了一": 4973,
      "分之一": 4974,
      "功夫": 4975,
      "合作": 4976,
      "天丹": 4977,
      "守护": 4978,
      "实在": 4979,
      "怀疑": 4980,
      "拜托": 4981,
      "梦想": 4982,
      "水术士": 4983,
      "沙漠": 4984,
      "的世界": 4985,
      "的黑衣": 4986,
      "真相": 4987,
      "着脸": 4988,
      "知不知道": 4989,
      "落到": 4990,
      "说到": 4991,
      "达到": 4992,
      "追杀": 4993,
      "逃走": 4994,
      "风吹": 4995,
      "!”齐琳": 4996,
      "什么?”": 4997,
      ",这一": 4998,
      "一般,": 4999,
      "小茵姐": 5000,
      "任何人": 5001,
      "最强战士": 5002,
      "风化城": 5003,
      "碧海青天丹": 5004,
      ",为了": 5005,
      ",当时": 5006,
      "一丝": 5007,
      "一挥": 5008,
      "一族": 5009,
      "不太": 5010,
      "主意": 5011,
      "之地": 5012,
      "了我们": 5013,
      "伤口": 5014,
      "前进": 5015,
      "化作": 5016,
      "听说": 5017,
      "喜儿": 5018,
      "在地上": 5019,
      "外表": 5020,
      "她是": 5021,
      "安慰": 5022,
      "安静": 5023,
      "实力": 5024,
      "崩溃": 5025,
      "平时": 5026,
      "惊慌": 5027,
      "我现在": 5028,
      "手里": 5029,
      "才是": 5030,
      "整个人": 5031,
      "昏迷": 5032,
      "春杀": 5033,
      "李虚": 5034,
      "死了,": 5035,
      "毁杀": 5036,
      "求你": 5037,
      "焚毁杀": 5038,
      "玩笑": 5039,
      "理由": 5040,
      "的那": 5041,
      "的,但": 5042,
      "的就是": 5043,
      "着她": 5044,
      "窗外": 5045,
      "第三": 5046,
      "背心": 5047,
      "袭击": 5048,
      "要求": 5049,
      "见识": 5050,
      "超魔": 5051,
      "转眼": 5052,
      "银豺": 5053,
      "魔焚毁杀": 5054,
      "已经没有": 5055,
      "离开这儿": 5056,
      "的声音。": 5057,
      "了下来,": 5058,
      "来说,": 5059,
      "轻轻的": 5060,
      "的确是": 5061,
      "李虚焰": 5062,
      ",连": 5063,
      ",大家": 5064,
      ",刚才": 5065,
      "’,": 5066,
      "一分": 5067,
      "人物": 5068,
      "众人": 5069,
      "几分": 5070,
      "出城": 5071,
      "出去,": 5072,
      "则是": 5073,
      "医生": 5074,
      "后的": 5075,
      "向下": 5076,
      "响,": 5077,
      "因此": 5078,
      "在这个": 5079,
      "奇迹": 5080,
      "就被": 5081,
      "徐命悬": 5082,
      "怒吼": 5083,
      "愤怒": 5084,
      "才会": 5085,
      "无力": 5086,
      "是她": 5087,
      "燕都城": 5088,
      "牺牲": 5089,
      "生活": 5090,
      "留下": 5091,
      "的!”": 5092,
      "的邪牙": 5093,
      "的眼神": 5094,
      "着我的": 5095,
      "艰难": 5096,
      "衣服": 5097,
      "解开": 5098,
      "身为": 5099,
      "轻松": 5100,
      "青魔": 5101,
      "鲜儿": 5102,
      ",我可以": 5103,
      "南宫北的": 5104,
      "可能是": 5105,
      "一直都": 5106,
      "了下来。": 5107,
      "对不对": 5108,
      ",要知道": 5109,
      "十二贤者": 5110,
      "魔宫之": 5111,
      ",也就是说": 5112,
      ",快": 5113,
      ",人家": 5114,
      "“冯德": 5115,
      "“原来": 5116,
      "不堪": 5117,
      "不由": 5118,
      "不禁": 5119,
      "与她": 5120,
      "也没": 5121,
      "了:“": 5122,
      "从她": 5123,
      "修习": 5124,
      "到时": 5125,
      "动手": 5126,
      "勉强": 5127,
      "叔叔": 5128,
      "只剩下": 5129,
      "叫我": 5130,
      "可知道": 5131,
      "后面": 5132,
      "场面": 5133,
      "女子": 5134,
      "对准": 5135,
      "就走": 5136,
      "放弃": 5137,
      "散发": 5138,
      "无声": 5139,
      "无峰": 5140,
      "时刻": 5141,
      "是不会": 5142,
      "暴雨": 5143,
      "来自": 5144,
      "死灵": 5145,
      "猛虎": 5146,
      "电流": 5147,
      "白水": 5148,
      "的天": 5149,
      "着我们": 5150,
      "红牙": 5151,
      "经过": 5152,
      "翼翼": 5153,
      "获得": 5154,
      "蓝色的": 5155,
      "诸位": 5156,
      "资格": 5157,
      "隐隐": 5158,
      "飞鸟": 5159,
      "“我知道": 5160,
      ",就连": 5161,
      "在一瞬间": 5162,
      "神秘的": 5163,
      "无论如何": 5164,
      "小心翼翼": 5165,
      "幻天大师": 5166,
      ",还是": 5167,
      ",显然": 5168,
      "一击": 5169,
      "一同": 5170,
      "一股": 5171,
      "不对": 5172,
      "之剑": 5173,
      "住的": 5174,
      "你自己": 5175,
      "修练": 5176,
      "大叔": 5177,
      "射出": 5178,
      "将他": 5179,
      "张开": 5180,
      "心脏": 5181,
      "感应": 5182,
      "我,我": 5183,
      "手。": 5184,
      "把我们": 5185,
      "无限": 5186,
      "是个": 5187,
      "最重要": 5188,
      "望着我": 5189,
      "液体": 5190,
      "特别": 5191,
      "琳娜": 5192,
      "白色": 5193,
      "的尸体": 5194,
      "直接": 5195,
      "等着": 5196,
      "老人": 5197,
      "菲琳娜": 5198,
      "记住": 5199,
      "过,": 5200,
      "阴童子": 5201,
      "除非": 5202,
      "面目": 5203,
      "突然从": 5204,
      "了。”袁茵": 5205,
      ",这种": 5206,
      "眼睛。": 5207,
      "在一旁": 5208,
      "之间,": 5209,
      "整个世界": 5210,
      "的女儿": 5211,
      "未必能": 5212,
      "洗冷隋": 5213,
      "碧海青天丹’": 5214,
      "无峰岭": 5215,
      "白水镰": 5216,
      "飞鸟巢": 5217,
      ",能": 5218,
      ",可是": 5219,
      "一人": 5220,
      "一动,": 5221,
      "下去,": 5222,
      "中了": 5223,
      "中心": 5224,
      "会不会": 5225,
      "作为": 5226,
      "到我": 5227,
      "发誓": 5228,
      "国的": 5229,
      "多谢": 5230,
      "失败": 5231,
      "寻找": 5232,
      "小蝶": 5233,
      "就如": 5234,
      "异常": 5235,
      "得意": 5236,
      "怒道。": 5237,
      "想法": 5238,
      "方面": 5239,
      "漂亮": 5240,
      "照顾": 5241,
      "猎杀": 5242,
      "的脸": 5243,
      "竟是": 5244,
      "紫色": 5245,
      "结束": 5246,
      "耳中": 5247,
      "聪明": 5248,
      "起。": 5249,
      "转瞬间": 5250,
      "那种": 5251,
      "都可以": 5252,
      "魔结界": 5253,
      "。”南宫北": 5254,
      "已经是": 5255,
      "的人。”": 5256,
      "了。”冯德": 5257,
      ",一直": 5258,
      "不要再": 5259,
      "真的很": 5260,
      "失落之都的": 5261,
      "脸上带着": 5262,
      "果然是": 5263,
      "灭魔猎人": 5264,
      "拼命地": 5265,
      "能源体": 5266,
      "!你": 5267,
      ",小": 5268,
      "‘碧海青天丹’": 5269,
      "一脸": 5270,
      "世间": 5271,
      "两道": 5272,
      "交给": 5273,
      "人。": 5274,
      "光明": 5275,
      "刚刚": 5276,
      "剑心": 5277,
      "动弹": 5278,
      "后来": 5279,
      "后果": 5280,
      "命的": 5281,
      "圣物": 5282,
      "实话": 5283,
      "对着我": 5284,
      "弥漫": 5285,
      "心头": 5286,
      "战场": 5287,
      "手段": 5288,
      "打断": 5289,
      "最大的": 5290,
      "比我": 5291,
      "汹涌": 5292,
      "滞魔结界": 5293,
      "漆黑": 5294,
      "猛然": 5295,
      "真实": 5296,
      "着头道。": 5297,
      "突破": 5298,
      "红日": 5299,
      "置身": 5300,
      "而死": 5301,
      "而出,": 5302,
      "自觉": 5303,
      "薇思": 5304,
      "说出": 5305,
      "金色": 5306,
      "马二": 5307,
      "魔吸": 5308,
      "!”冯德": 5309,
      "了,这": 5310,
      ",但现在": 5311,
      "突然道。": 5312,
      "“你这个": 5313,
      "冯德的": 5314,
      ",她们": 5315,
      ",而是": 5316,
      "黑衣少年": 5317,
      "邪都的": 5318,
      "~~~~": 5319,
      "的表情。": 5320,
      "超魔杀": 5321,
      "“对": 5322,
      "“轰": 5323,
      "“等一等": 5324,
      "一件": 5325,
      "一闪": 5326,
      "三长老": 5327,
      "不在": 5328,
      "不清": 5329,
      "了?”我": 5330,
      "他,": 5331,
      "保持": 5332,
      "发挥": 5333,
      "向他": 5334,
      "处于": 5335,
      "威胁": 5336,
      "庵主": 5337,
      "强大": 5338,
      "形容": 5339,
      "怀中的": 5340,
      "想到了": 5341,
      "我会": 5342,
      "提供": 5343,
      "提升": 5344,
      "杀人": 5345,
      "条件": 5346,
      "沉默": 5347,
      "狂奔": 5348,
      "玄剑": 5349,
      "的意思": 5350,
      "的方向": 5351,
      "等一下": 5352,
      "而活": 5353,
      "苦笑道。": 5354,
      "霍维": 5355,
      "高高": 5356,
      "龙珠": 5357,
      "。”他": 5358,
      ",我突然": 5359,
      "!”她": 5360,
      "?”齐琳": 5361,
      "我的话": 5362,
      ",这次": 5363,
      "在了我的": 5364,
      "的一声": 5365,
      "对我来说": 5366,
      "了出来,": 5367,
      "就算是": 5368,
      "“不错,": 5369,
      "根本就不": 5370,
      "皱起了眉头。": 5371,
      ",既然": 5372,
      "一身": 5373,
      "不多": 5374,
      "不管": 5375,
      "两条": 5376,
      "为止": 5377,
      "也很": 5378,
      "了很多": 5379,
      "从容": 5380,
      "从小": 5381,
      "依靠": 5382,
      "前的": 5383,
      "半个": 5384,
      "去找": 5385,
      "和她": 5386,
      "喘着": 5387,
      "在此": 5388,
      "地的": 5389,
      "多久": 5390,
      "大树": 5391,
      "天涯": 5392,
      "契约": 5393,
      "她,": 5394,
      "委屈": 5395,
      "对她": 5396,
      "快,": 5397,
      "感兴趣": 5398,
      "慕荣": 5399,
      "我自己": 5400,
      "手指": 5401,
      "手腕": 5402,
      "把她": 5403,
      "抓住": 5404,
      "有了": 5405,
      "望大": 5406,
      "的神情": 5407,
      "着一个": 5408,
      "笑,": 5409,
      "组织": 5410,
      "美的": 5411,
      "至于": 5412,
      "融化": 5413,
      "解决": 5414,
      "认识": 5415,
      "这群": 5416,
      "追踪": 5417,
      "配合": 5418,
      "里的": 5419,
      "金色的": 5420,
      "随之": 5421,
      "难以": 5422,
      "首领": 5423,
      "魔女": 5424,
      "黄色": 5425,
      ",我现在": 5426,
      "了,你们": 5427,
      "我们就": 5428,
      ",但你": 5429,
      ",但她": 5430,
      "了。”小书": 5431,
      ",那就是": 5432,
      "的。”袁茵": 5433,
      "真的是": 5434,
      "淡淡的道。": 5435,
      "缓缓地": 5436,
      "死亡暴走": 5437,
      "春喜姑娘": 5438,
      "用力地": 5439,
      "‘失落之都’": 5440,
      "三十八皇子": 5441,
      "红日圣晶": 5442,
      ",小茵": 5443,
      "SS级": 5444,
      "一半": 5445,
      "一件事": 5446,
      "不可以": 5447,
      "与冯德": 5448,
      "丛林": 5449,
      "两位": 5450,
      "价值": 5451,
      "你想": 5452,
      "你的。”": 5453,
      "停止": 5454,
      "公子": 5455,
      "六个": 5456,
      "关心": 5457,
      "具体": 5458,
      "刀疤": 5459,
      "剑魔吸": 5460,
      "医皇": 5461,
      "十多": 5462,
      "发动": 5463,
      "向我们": 5464,
      "多了": 5465,
      "好不好": 5466,
      "妖皇": 5467,
      "对于": 5468,
      "对我们": 5469,
      "就行": 5470,
      "就已经": 5471,
      "年来": 5472,
      "年纪": 5473,
      "强大的": 5474,
      "必要": 5475,
      "悲伤": 5476,
      "手中,": 5477,
      "放在": 5478,
      "数百": 5479,
      "日子": 5480,
      "是有": 5481,
      "来历": 5482,
      "欧阳": 5483,
      "的我们": 5484,
      "笑了。": 5485,
      "老哥": 5486,
      "老板": 5487,
      "而来": 5488,
      "肉体": 5489,
      "胡说": 5490,
      "范围": 5491,
      "重剑": 5492,
      "重的": 5493,
      "野望大": 5494,
      "难受": 5495,
      "黄衫": 5496,
      "。”二号": 5497,
      ",我只": 5498,
      ",我看": 5499,
      "了,现在": 5500,
      "了,如果": 5501,
      ",但他": 5502,
      "“我不": 5503,
      "可以说是": 5504,
      "可能会": 5505,
      "剑玄能源体": 5506,
      "为什么不": 5507,
      "真是太": 5508,
      "两个人": 5509,
      ",但我却": 5510,
      "身后的": 5511,
      "“他”": 5512,
      "摇了摇头:“": 5513,
      "魔宫之匙": 5514,
      "野望大陆": 5515,
      ",心": 5516,
      ",血": 5517,
      ",请": 5518,
      ",想不到": 5519,
      "一出": 5520,
      "一只": 5521,
      "一眼": 5522,
      "下次": 5523,
      "中年": 5524,
      "之声": 5525,
      "之际": 5526,
      "交换": 5527,
      "别说": 5528,
      "到现在": 5529,
      "又是": 5530,
      "可爱": 5531,
      "名的": 5532,
      "圣妖": 5533,
      "在了一": 5534,
      "天而": 5535,
      "察觉": 5536,
      "对手": 5537,
      "小小的": 5538,
      "强行": 5539,
      "微微": 5540,
      "惊叫": 5541,
      "折磨": 5542,
      "拍了": 5543,
      "支持": 5544,
      "文剑圣": 5545,
      "本剑玄录": 5546,
      "来不及": 5547,
      "气势": 5548,
      "潜入": 5549,
      "种族": 5550,
      "绝不": 5551,
      "罢了。”": 5552,
      "蓝色": 5553,
      "被人": 5554,
      "造成": 5555,
      "醒来": 5556,
      "重新": 5557,
      "陌生": 5558,
      "首先": 5559,
      ",一切": 5560,
      "的,如果": 5561,
      "他的身体": 5562,
      "“不用": 5563,
      "在这儿": 5564,
      "吗?我": 5565,
      "水晶门": 5566,
      "“是吗?”": 5567,
      "意思?”": 5568,
      "了过来。": 5569,
      "发生了什么事": 5570,
      ",‘": 5571,
      ",更": 5572,
      "?那": 5573,
      "“所以": 5574,
      "“放心": 5575,
      "一张": 5576,
      "三百": 5577,
      "上床": 5578,
      "不妙": 5579,
      "不必": 5580,
      "丝毫": 5581,
      "产生": 5582,
      "借着": 5583,
      "冷笑道。": 5584,
      "协会": 5585,
      "卧虎": 5586,
      "变化": 5587,
      "另一个": 5588,
      "周大哥": 5589,
      "哪有": 5590,
      "商队": 5591,
      "回到了": 5592,
      "声中": 5593,
      "失措": 5594,
      "它的": 5595,
      "当中,": 5596,
      "影子": 5597,
      "忙道。": 5598,
      "急道。": 5599,
      "意见": 5600,
      "我还是": 5601,
      "扇门": 5602,
      "施展": 5603,
      "无息": 5604,
      "明明": 5605,
      "是他": 5606,
      "是没有": 5607,
      "武器": 5608,
      "气。": 5609,
      "满脸": 5610,
      "的味": 5611,
      "的巨": 5612,
      "的佣兵": 5613,
      "的黑色": 5614,
      "眼中的": 5615,
      "着那": 5616,
      "神色": 5617,
      "耳朵": 5618,
      "脖子": 5619,
      "船上": 5620,
      "血液": 5621,
      "行宫": 5622,
      "身材": 5623,
      "边的": 5624,
      "锁链": 5625,
      "闪烁": 5626,
      "魔力": 5627,
      "黑影": 5628,
      ",我会": 5629,
      ",我不能": 5630,
      ",我心中": 5631,
      "!”他": 5632,
      "不是我": 5633,
      "老大的": 5634,
      "黑衣佣兵": 5635,
      "那个人": 5636,
      "眼睛,": 5637,
      "瞬间,": 5638,
      "住了我的": 5639,
      "进入了": 5640,
      "进入失落之都": 5641,
      "洗仁鲜的": 5642,
      "之前,": 5643,
      "不断的": 5644,
      "重重地": 5645,
      "的心情": 5646,
      "紧紧地": 5647,
      "十八岁": 5648,
      "无声无息": 5649,
      "马二先生": 5650,
      "拍了拍": 5651,
      ",让我": 5652,
      "一阵": 5653,
      "三大": 5654,
      "不如": 5655,
      "也在": 5656,
      "也好": 5657,
      "也不能": 5658,
      "了你": 5659,
      "你在": 5660,
      "你,你": 5661,
      "再度": 5662,
      "剑珠": 5663,
      "咱们": 5664,
      "在想": 5665,
      "在地上的": 5666,
      "地底": 5667,
      "天地": 5668,
      "头道:“": 5669,
      "如今": 5670,
      "实现": 5671,
      "家小姐": 5672,
      "将会": 5673,
      "开玩笑": 5674,
      "心底": 5675,
      "惊人的": 5676,
      "成为了": 5677,
      "把握": 5678,
      "掌心": 5679,
      "放开": 5680,
      "昨天": 5681,
      "本能": 5682,
      "杀掉": 5683,
      "林间": 5684,
      "柔声道。": 5685,
      "深深": 5686,
      "火焰": 5687,
      "爆发": 5688,
      "玄铁": 5689,
      "的!": 5690,
      "的一个": 5691,
      "的战斗力": 5692,
      "的问题": 5693,
      "的情况": 5694,
      "相当": 5695,
      "证明": 5696,
      "起的": 5697,
      "跟你": 5698,
      "身后,": 5699,
      "这小": 5700,
      "远处": 5701,
      "送死": 5702,
      "逐渐": 5703,
      "镇定": 5704,
      "面纱": 5705,
      "高兴": 5706,
      "了,因为": 5707,
      ",我们就": 5708,
      "看着我": 5709,
      "大家都": 5710,
      "觉得自己": 5711,
      "特殊的": 5712,
      "可不可以": 5713,
      "生物波动": 5714,
      "真正的": 5715,
      "沉鱼池’": 5716,
      "不会有事": 5717,
      ",与": 5718,
      ",自己": 5719,
      ",冯德": 5720,
      ",怎么": 5721,
      ",身体": 5722,
      "“还有": 5723,
      "不停": 5724,
      "之事": 5725,
      "之上,": 5726,
      "乱的": 5727,
      "了吧?”": 5728,
      "了吧?": 5729,
      "代表": 5730,
      "值得": 5731,
      "做到": 5732,
      "光,": 5733,
      "同时,": 5734,
      "和尚": 5735,
      "咏唱": 5736,
      "士兵": 5737,
      "大多": 5738,
      "大惊": 5739,
      "太阳": 5740,
      "她。": 5741,
      "将我们": 5742,
      "年的": 5743,
      "得出": 5744,
      "心情": 5745,
      "想象": 5746,
      "意味": 5747,
      "所说的": 5748,
      "提醒": 5749,
      "放出": 5750,
      "故作": 5751,
      "星星": 5752,
      "是否": 5753,
      "是这样": 5754,
      "植物": 5755,
      "炎剑": 5756,
      "炸了开": 5757,
      "熟悉": 5758,
      "的?": 5759,
      "相对": 5760,
      "眸子": 5761,
      "空中,": 5762,
      "约定": 5763,
      "自由": 5764,
      "若有所": 5765,
      "英雄": 5766,
      "茫然": 5767,
      "藏剑": 5768,
      "螺旋": 5769,
      "要知道": 5770,
      "过程": 5771,
      "这句话": 5772,
      "露出": 5773,
      "静止": 5774,
      "飞速": 5775,
      ",我一": 5776,
      "了,所以": 5777,
      "这个时候": 5778,
      "没有人": 5779,
      "......”袁茵": 5780,
      "突然出现在": 5781,
      "可以说": 5782,
      "不会是": 5783,
      ",一旦": 5784,
      ",不知": 5785,
      "的话,你": 5786,
      "吗?”袁茵": 5787,
      ",只见": 5788,
      "一下子": 5789,
      "吧!你": 5790,
      "魔族三长老": 5791,
      "了起来:“": 5792,
      "商岚妍的": 5793,
      "有什么事": 5794,
      "身边的": 5795,
      "这时我才": 5796,
      "冷冷地道。": 5797,
      "超魔杀空间": 5798,
      "若有所思": 5799,
      "“齐琳": 5800,
      "”!": 5801,
      "一亮": 5802,
      "一块": 5803,
      "一并": 5804,
      "三圣晶": 5805,
      "不怕": 5806,
      "为何": 5807,
      "之心": 5808,
      "了......": 5809,
      "事件": 5810,
      "事到": 5811,
      "人群": 5812,
      "代价": 5813,
      "以外": 5814,
      "使命": 5815,
      "倒霉": 5816,
      "全灭": 5817,
      "关键": 5818,
      "前面": 5819,
      "卑鄙": 5820,
      "即将": 5821,
      "去做": 5822,
      "变态": 5823,
      "同情": 5824,
      "吸引": 5825,
      "嘻嘻": 5826,
      "在你": 5827,
      "在心中": 5828,
      "复杂": 5829,
      "小命": 5830,
      "影行宫": 5831,
      "想办法": 5832,
      "意义": 5833,
      "我还": 5834,
      "找到了": 5835,
      "报仇": 5836,
      "抬起了": 5837,
      "星空": 5838,
      "是‘": 5839,
      "暗杀": 5840,
      "月影行宫": 5841,
      "松了一口气": 5842,
      "林易": 5843,
      "横飞": 5844,
      "正常": 5845,
      "死路": 5846,
      "求求你": 5847,
      "汉子": 5848,
      "浑身": 5849,
      "深处": 5850,
      "温暖": 5851,
      "满面": 5852,
      "狠狠": 5853,
      "生下来": 5854,
      "的那一": 5855,
      "眉头一": 5856,
      "瞎子": 5857,
      "练功": 5858,
      "表现": 5859,
      "让他们": 5860,
      "让你们": 5861,
      "记得": 5862,
      "说的是": 5863,
      "身之处": 5864,
      "进去": 5865,
      "进来": 5866,
      "追上": 5867,
      "部 第": 5868,
      "附近": 5869,
      "降临": 5870,
      "黄沙": 5871,
      ":“......”": 5872,
      "这个样子": 5873,
      ",这就是": 5874,
      "了一般": 5875,
      "邪牙的": 5876,
      "吗?你": 5877,
      "这种事情": 5878,
      "这一切": 5879,
      "之间的": 5880,
      "究竟是什么人": 5881,
      "第二部 第": 5882,
      "所有的人都": 5883,
      "慢慢的": 5884,
      "“没关系": 5885,
      "冰冷的": 5886,
      "惊慌失措": 5887,
      "霍维依": 5888,
      "圣妖一族": 5889,
      "事到如今": 5890,
      ",突然": 5891,
      ",竟然": 5892,
      "?难道": 5893,
      "“说": 5894,
      "“人家": 5895,
      "一时": 5896,
      "一脚": 5897,
      "不定": 5898,
      "两天": 5899,
      "之体": 5900,
      "也被": 5901,
      "了不少": 5902,
      "他。”": 5903,
      "冒险": 5904,
      "冷笑": 5905,
      "分析": 5906,
      "刹那": 5907,
      "加上": 5908,
      "化为": 5909,
      "十五": 5910,
      "千年前": 5911,
      "可不是": 5912,
      "叹道。": 5913,
      "吧,": 5914,
      "吩咐": 5915,
      "听着": 5916,
      "吸精": 5917,
      "命运": 5918,
      "地带": 5919,
      "地望着": 5920,
      "她那": 5921,
      "婚礼": 5922,
      "就能": 5923,
      "工作": 5924,
      "建筑": 5925,
      "开,": 5926,
      "很有": 5927,
      "很难": 5928,
      "悲哀": 5929,
      "想来": 5930,
      "所为": 5931,
      "手上": 5932,
      "手下": 5933,
      "才发现": 5934,
      "救我": 5935,
      "无疑": 5936,
      "明显": 5937,
      "明月": 5938,
      "最近": 5939,
      "林中": 5940,
      "某种": 5941,
      "注意": 5942,
      "的?”": 5943,
      "的天空": 5944,
      "看我": 5945,
      "看清": 5946,
      "紧闭": 5947,
      "红色": 5948,
      "走吧!”": 5949,
      "身着": 5950,
      "轻声道。": 5951,
      "这座": 5952,
      "都没": 5953,
      "重伤": 5954,
      "隐藏": 5955,
      "齐家": 5956,
      "。”张伯": 5957,
      ",这些": 5958,
      ",不但": 5959,
      ",不知道": 5960,
      ",就会": 5961,
      "一般的": 5962,
      "“老大,我": 5963,
      "西门断天的": 5964,
      "黑暗中的": 5965,
      "“这......": 5966,
      "希望能": 5967,
      "手中的剑": 5968,
      "轻轻地": 5969,
      "怎么样?": 5970,
      "不断地": 5971,
      "脸色而活": 5972,
      "猎人协会": 5973,
      "拼命的": 5974,
      "无数的": 5975,
      "‘超梦’": 5976,
      "强烈的": 5977,
      "喜儿妹妹": 5978,
      "猎杀计划": 5979,
      "死路一条": 5980,
      ",为什么": 5981,
      "“就是": 5982,
      "三个人": 5983,
      "上面": 5984,
      "两只": 5985,
      "为你": 5986,
      "交给我": 5987,
      "亮的": 5988,
      "他。": 5989,
      "内的": 5990,
      "出声": 5991,
      "前,": 5992,
      "努力": 5993,
      "厉声道。": 5994,
      "原谅": 5995,
      "去,我": 5996,
      "受到了": 5997,
      "只不过": 5998,
      "启动": 5999,
      "嘴角": 6000,
      "四人": 6001,
      "在‘": 6002,
      "在那": 6003,
      "多了一": 6004,
      "大,": 6005,
      "大法": 6006,
      "大漠": 6007,
      "好气": 6008,
      "宝贝": 6009,
      "就这样": 6010,
      "当中。": 6011,
      "快一点": 6012,
      "急了。": 6013,
      "感情": 6014,
      "所在": 6015,
      "挠着头道。": 6016,
      "是被": 6017,
      "是我们": 6018,
      "有缘": 6019,
      "残忍": 6020,
      "段时间": 6021,
      "每次": 6022,
      "灼热": 6023,
      "犹豫": 6024,
      "的黑雷": 6025,
      "皇室": 6026,
      "直到": 6027,
      "看了": 6028,
      "着什么": 6029,
      "终极": 6030,
      "罗英": 6031,
      "聚集": 6032,
      "肩头": 6033,
      "背上": 6034,
      "袭向": 6035,
      "裂天": 6036,
      "误会": 6037,
      "身影": 6038,
      "转过": 6039,
      "连续": 6040,
      "陷入": 6041,
      "随便": 6042,
      "?”小书": 6043,
      "我们三人": 6044,
      "我的剑": 6045,
      "已经开始": 6046,
      "“我想": 6047,
      "不是太": 6048,
      "不是说": 6049,
      ",这里": 6050,
      ",我们的": 6051,
      "的,所以": 6052,
      ",而我": 6053,
      "一般。": 6054,
      "的声音道。": 6055,
      "战斗能力": 6056,
      "消失了,": 6057,
      "这一招": 6058,
      "身边,": 6059,
      "一切都": 6060,
      "说不出的": 6061,
      "那么多": 6062,
      "诸葛先生": 6063,
      "残龙党": 6064,
      "停了下来。": 6065,
      "就在这时": 6066,
      "红发男子": 6067,
      "飞快地": 6068,
      "一字一句地道。": 6069,
      "玄铁锁链": 6070,
      ",可": 6071,
      ",说": 6072,
      ",应该": 6073,
      "“砰": 6074,
      "“我的": 6075,
      "“真的": 6076,
      "一年": 6077,
      "上了一": 6078,
      "不动": 6079,
      "不成": 6080,
      "不说": 6081,
      "严重": 6082,
      "举行": 6083,
      "之上。": 6084,
      "也别": 6085,
      "也得": 6086,
      "些什么": 6087,
      "亲自": 6088,
      "们的": 6089,
      "信赖": 6090,
      "停住了": 6091,
      "冲天而": 6092,
      "包围": 6093,
      "却不": 6094,
      "却没有": 6095,
      "各国": 6096,
      "各族": 6097,
      "各种": 6098,
      "吞噬": 6099,
      "吧?我": 6100,
      "命令": 6101,
      "嘴唇": 6102,
      "在你的": 6103,
      "地,": 6104,
      "增殖": 6105,
      "处理": 6106,
      "大开": 6107,
      "天绝": 6108,
      "好吗?”": 6109,
      "弄到": 6110,
      "强的": 6111,
      "得多": 6112,
      "心里": 6113,
      "忍不住": 6114,
      "快乐": 6115,
      "惊恐": 6116,
      "憧憬": 6117,
      "我都": 6118,
      "我一个人": 6119,
      "房中": 6120,
      "招式": 6121,
      "敌人": 6122,
      "无名": 6123,
      "无尽的": 6124,
      "望去,": 6125,
      "来得": 6126,
      "没错": 6127,
      "没好气": 6128,
      "狰狞": 6129,
      "眨眼": 6130,
      "着。": 6131,
      "篇 ": 6132,
      "紫色的": 6133,
      "纵横": 6134,
      "绿色的": 6135,
      "肚子": 6136,
      "背上的": 6137,
      "舞的": 6138,
      "解除": 6139,
      "语气": 6140,
      "身处": 6141,
      "躲在": 6142,
      "还真": 6143,
      "还可以": 6144,
      "这两个": 6145,
      "追求": 6146,
      "那样": 6147,
      "邪魔": 6148,
      "降生": 6149,
      "陪着": 6150,
      "额头": 6151,
      "黑莲": 6152,
      ",我真的": 6153,
      "这个人": 6154,
      "“你是": 6155,
      "不会再": 6156,
      "的话,就": 6157,
      "离开了": 6158,
      "下来的": 6159,
      "身上。": 6160,
      ",在下": 6161,
      "消失在": 6162,
      "完全的": 6163,
      "对我说": 6164,
      "死亡气息": 6165,
      "疯狂的": 6166,
      "怎么样?”": 6167,
      "最强的": 6168,
      "干什么?": 6169,
      "恐怖的": 6170,
      "‘超梦杀手组": 6171,
      "一颗星星": 6172,
      "“行了,": 6173,
      "魔晶石": 6174,
      "因此而": 6175,
      "置身于": 6176,
      "妖皇安杰尔": 6177,
      "林易国": 6178,
      ",老": 6179,
      ",已经": 6180,
      ",此时": 6181,
      ",随着": 6182,
      "“要": 6183,
      "“皇子": 6184,
      "“对不起": 6185,
      "一想": 6186,
      "一战": 6187,
      "一手": 6188,
      "一看": 6189,
      "不起": 6190,
      "举起了": 6191,
      "之所以": 6192,
      "也太": 6193,
      "了指": 6194,
      "了什么": 6195,
      "了出去,": 6196,
      "五官": 6197,
      "他在": 6198,
      "会死": 6199,
      "住了,": 6200,
      "儿子": 6201,
      "充满": 6202,
      "先走": 6203,
      "冲击": 6204,
      "凌晨": 6205,
      "动。": 6206,
      "包裹": 6207,
      "去见": 6208,
      "发抖": 6209,
      "后悔": 6210,
      "后退": 6211,
      "吧。”": 6212,
      "呼啸": 6213,
      "啊?": 6214,
      "嗓子": 6215,
      "回忆": 6216,
      "地道": 6217,
      "天的": 6218,
      "头发": 6219,
      "年轻": 6220,
      "年青": 6221,
      "当我": 6222,
      "心中的": 6223,
      "意料": 6224,
      "成长": 6225,
      "或者": 6226,
      "抬头": 6227,
      "指了指": 6228,
      "挠着头": 6229,
      "方便": 6230,
      "替他": 6231,
      "有点": 6232,
      "每一": 6233,
      "气线": 6234,
      "照明": 6235,
      "父皇": 6236,
      "状况": 6237,
      "环境": 6238,
      "的光": 6239,
      "的夜": 6240,
      "的风": 6241,
      "的绿莹": 6242,
      "的少年": 6243,
      "的生命": 6244,
      "的消息": 6245,
      "的光芒": 6246,
      "的面孔": 6247,
      "眼睁": 6248,
      "着想": 6249,
      "第一个": 6250,
      "等等": 6251,
      "米的": 6252,
      "米左右": 6253,
      "给了": 6254,
      "给他": 6255,
      "美男": 6256,
      "而来的": 6257,
      "色,": 6258,
      "苍白": 6259,
      "虫子": 6260,
      "街上": 6261,
      "见面": 6262,
      "誓言": 6263,
      "负责": 6264,
      "赤裸": 6265,
      "运气": 6266,
      "这三": 6267,
      "这条": 6268,
      "连累": 6269,
      "道的": 6270,
      "那两个": 6271,
      "都能": 6272,
      "钟楼": 6273,
      "长长的": 6274,
      "问你": 6275,
      "间,": 6276,
      "难看": 6277,
      "集团": 6278,
      "面具": 6279,
      "面面": 6280,
      "顾一切": 6281,
      "黄色的": 6282,
      "。”普竹": 6283,
      ",我一定会": 6284,
      "!”南宫北": 6285,
      ",你一定要": 6286,
      "我的。”": 6287,
      "知道你": 6288,
      "知道我": 6289,
      "了。”她": 6290,
      ",一股": 6291,
      "道:“你": 6292,
      ",不管": 6293,
      "身体中": 6294,
      "了一点": 6295,
      "吧!”袁茵": 6296,
      ",只是一": 6297,
      "一下,": 6298,
      "“那就": 6299,
      "超级猎杀计划": 6300,
      "有一天": 6301,
      "淡淡地道:“": 6302,
      "佣兵团": 6303,
      "的剑光": 6304,
      "得到幸福": 6305,
      "变成一颗星星": 6306,
      "显然是": 6307,
      "痛苦的": 6308,
      "的感觉。": 6309,
      "向前一": 6310,
      "的模样。": 6311,
      "金发少女": 6312,
      "的样子。": 6313,
      "拜托你": 6314,
      "喘着气": 6315,
      ",剑": 6316,
      ",如": 6317,
      ",才": 6318,
      ",没": 6319,
      ",在这": 6320,
      ",结果": 6321,
      "A组": 6322,
      "’中": 6323,
      "“不会": 6324,
      "一共": 6325,
      "七彩": 6326,
      "下,我": 6327,
      "与我们": 6328,
      "为我": 6329,
      "之势": 6330,
      "之外": 6331,
      "之路": 6332,
      "九十": 6333,
      "于是": 6334,
      "交手": 6335,
      "亲切": 6336,
      "人心": 6337,
      "从黑暗中": 6338,
      "以及": 6339,
      "何时": 6340,
      "便宜": 6341,
      "保重": 6342,
      "做为": 6343,
      "光的": 6344,
      "全部": 6345,
      "内容": 6346,
      "净化": 6347,
      "几个人": 6348,
      "出生": 6349,
      "出一个": 6350,
      "击杀": 6351,
      "前来": 6352,
      "区域": 6353,
      "十分": 6354,
      "卡眠": 6355,
      "厉叱": 6356,
      "去死": 6357,
      "参加": 6358,
      "双腿": 6359,
      "同样": 6360,
      "听听": 6361,
      "咆哮": 6362,
      "回了": 6363,
      "圣魔": 6364,
      "大变": 6365,
      "天真": 6366,
      "好事": 6367,
      "好处": 6368,
      "完蛋": 6369,
      "寒气": 6370,
      "小腹": 6371,
      "就把": 6372,
      "得以": 6373,
      "惊讶": 6374,
      "意外": 6375,
      "所说": 6376,
      "打量": 6377,
      "扭曲": 6378,
      "承认": 6379,
      "承诺": 6380,
      "抛弃": 6381,
      "拒绝": 6382,
      "无聊": 6383,
      "枫林": 6384,
      "树叶": 6385,
      "歌声": 6386,
      "气,": 6387,
      "气囊": 6388,
      "泪流": 6389,
      "洗澡": 6390,
      "流沙": 6391,
      "消耗": 6392,
      "点头道。": 6393,
      "爷爷": 6394,
      "狂风": 6395,
      "生存": 6396,
      "生机": 6397,
      "甲板": 6398,
      "白骨": 6399,
      "的战": 6400,
      "的青": 6401,
      "的......”": 6402,
      "的那个": 6403,
      "的同伴": 6404,
      "的程度": 6405,
      "相觑": 6406,
      "笑了,": 6407,
      "等我": 6408,
      "红的": 6409,
      "经常": 6410,
      "结婚": 6411,
      "者的": 6412,
      "色。": 6413,
      "落到了": 6414,
      "说。”": 6415,
      "赶到": 6416,
      "身的": 6417,
      "过来,": 6418,
      "远远": 6419,
      "遗憾": 6420,
      "那就": 6421,
      "黯然": 6422,
      ",我才": 6423,
      ",我还是": 6424,
      "没有办法": 6425,
      "袁茵和南宫北": 6426,
      ",但这": 6427,
      "“我看": 6428,
      "的人们": 6429,
      "突然出现": 6430,
      "怎么这么": 6431,
      ",她就": 6432,
      ",一头": 6433,
      "的。”齐琳": 6434,
      "世界的": 6435,
      "吧!变成一颗星星": 6436,
      ",如果我": 6437,
      "失落之门": 6438,
      "黑雷的": 6439,
      "希望你能": 6440,
      "绝对不会": 6441,
      "幻水大人": 6442,
      "永远都": 6443,
      "以为然": 6444,
      "千万别": 6445,
      "大声的": 6446,
      "在了地上。": 6447,
      "地面上": 6448,
      "洗冷谷": 6449,
      "“嗯。”": 6450,
      "天涯猎人协会": 6451,
      "齐家镇": 6452,
      "眼睁睁": 6453,
      "卡眠莎": 6454,
      "圣魔经": 6455,
      "!我们": 6456,
      ",看": 6457,
      ",今天": 6458,
      "“老": 6459,
      "“虽然": 6460,
      "“周大哥": 6461,
      "一事": 6462,
      "一口": 6463,
      "一招": 6464,
      "一只手": 6465,
      "一咬牙": 6466,
      "上来": 6467,
      "不解": 6468,
      "之上": 6469,
      "也变得": 6470,
      "习惯": 6471,
      "交叉": 6472,
      "人族": 6473,
      "任务": 6474,
      "住了。": 6475,
      "体质": 6476,
      "入侵": 6477,
      "再也": 6478,
      "勇敢": 6479,
      "十天": 6480,
      "升起": 6481,
      "又不是": 6482,
      "只会": 6483,
      "叫你": 6484,
      "后方": 6485,
      "向她": 6486,
      "吓得": 6487,
      "吼道:“": 6488,
      "呀!”": 6489,
      "和袁茵": 6490,
      "咔咔": 6491,
      "四天": 6492,
      "在一个": 6493,
      "在她的": 6494,
      "地从": 6495,
      "坚持": 6496,
      "多了一个": 6497,
      "天际": 6498,
      "好的": 6499,
      "妇人": 6500,
      "威风": 6501,
      "完美": 6502,
      "客人": 6503,
      "小妍": 6504,
      "尖锐": 6505,
      "就象": 6506,
      "属下": 6507,
      "忍心": 6508,
      "念力": 6509,
      "怎样": 6510,
      "想像": 6511,
      "想起": 6512,
      "我突然": 6513,
      "截铁": 6514,
      "打造": 6515,
      "担忧": 6516,
      "拿着": 6517,
      "挣脱": 6518,
      "提高": 6519,
      "救命": 6520,
      "斩钉": 6521,
      "无关": 6522,
      "无比": 6523,
      "是要": 6524,
      "晚儿": 6525,
      "有关": 6526,
      "期待": 6527,
      "本书": 6528,
      "本姑娘": 6529,
      "杀我": 6530,
      "来到": 6531,
      "水中": 6532,
      "满头": 6533,
      "火球": 6534,
      "灿烂": 6535,
      "疯子": 6536,
      "的男子": 6537,
      "的攻击": 6538,
      "眼光": 6539,
      "眼镜": 6540,
      "睁大了": 6541,
      "破神": 6542,
      "笑得": 6543,
      "答案": 6544,
      "给我们": 6545,
      "绿色": 6546,
      "自行": 6547,
      "落入": 6548,
      "落在": 6549,
      "血的": 6550,
      "血统": 6551,
      "要做": 6552,
      "说谎": 6553,
      "超过": 6554,
      "这死之炉": 6555,
      "迷宫": 6556,
      "道理": 6557,
      "郑北": 6558,
      "都快": 6559,
      "锐利": 6560,
      "错了,": 6561,
      "间的": 6562,
      "陷入了": 6563,
      "骑士团": 6564,
      "魔念力": 6565,
      "黑发": 6566,
      ",我估计": 6567,
      "了,他们": 6568,
      "没有什么": 6569,
      "已经完全": 6570,
      "现在就": 6571,
      "了一下": 6572,
      "起来了。": 6573,
      "这样说": 6574,
      ",只听": 6575,
      ",如果不是": 6576,
      "“那我们": 6577,
      "一直都在": 6578,
      ",在我": 6579,
      "“这是": 6580,
      "消失了。": 6581,
      "成了一个": 6582,
      "“这个......": 6583,
      "很快就会": 6584,
      "超梦六杀的": 6585,
      "这个世界上最": 6586,
      "渐渐的": 6587,
      "黑衣鬼面男": 6588,
      "恢复了": 6589,
      "轻易地": 6590,
      "始终都": 6591,
      "停了下来,": 6592,
      "转身就走": 6593,
      "飞快的": 6594,
      "睁开眼睛": 6595,
      "※※※": 6596,
      "实在是": 6597,
      "文剑圣诸葛撼野": 6598,
      "卧虎之心": 6599,
      "裂天之剑": 6600,
      "邪魔增殖": 6601,
      "面面相觑": 6602,
      "吧!变成一颗星星吧!变成一颗星星": 6603,
      "斩钉截铁": 6604,
      "破神裂": 6605,
      ",先": 6606,
      ",最": 6607,
      ",由": 6608,
      ",真": 6609,
      ",不是": 6610,
      ",最后": 6611,
      "‘沉鱼池’": 6612,
      "“天": 6613,
      "上千": 6614,
      "下手": 6615,
      "不肯": 6616,
      "不觉": 6617,
      "不说话": 6618,
      "不自觉": 6619,
      "不以为然": 6620,
      "与南宫北": 6621,
      "举起": 6622,
      "乌云": 6623,
      "也不知道": 6624,
      "了几": 6625,
      "了吗?": 6626,
      "人妖": 6627,
      "你和": 6628,
      "保住": 6629,
      "借助": 6630,
      "允许": 6631,
      "六脉": 6632,
      "兴致": 6633,
      "创世": 6634,
      "创造": 6635,
      "剑士": 6636,
      "剑的": 6637,
      "包括": 6638,
      "又道。": 6639,
      "双拳": 6640,
      "双目": 6641,
      "只觉": 6642,
      "听我": 6643,
      "嘛!": 6644,
      "困难": 6645,
      "基因": 6646,
      "奇的": 6647,
      "女人的": 6648,
      "好了!”": 6649,
      "如同": 6650,
      "将目光": 6651,
      "局面": 6652,
      "左臂": 6653,
      "应付": 6654,
      "弄得": 6655,
      "弱的": 6656,
      "很大": 6657,
      "快点": 6658,
      "性的": 6659,
      "惊喜": 6660,
      "成了一": 6661,
      "我将": 6662,
      "我有": 6663,
      "我只是": 6664,
      "我也不": 6665,
      "或是": 6666,
      "所欲": 6667,
      "把自己的": 6668,
      "抓住了": 6669,
      "抱住": 6670,
      "无光": 6671,
      "无辜": 6672,
      "暗暗": 6673,
      "最爱": 6674,
      "杀机": 6675,
      "根手指": 6676,
      "每一个人": 6677,
      "气虎": 6678,
      "法师": 6679,
      "测试": 6680,
      "深长": 6681,
      "游走": 6682,
      "的份": 6683,
      "的银": 6684,
      "的不是": 6685,
      "的脸上": 6686,
      "的花火": 6687,
      "的阳光": 6688,
      "皮肤": 6689,
      "看一下": 6690,
      "着眉": 6691,
      "睡觉": 6692,
      "砰的一下": 6693,
      "礼物": 6694,
      "站了起来。": 6695,
      "站在一旁": 6696,
      "维持": 6697,
      "耳边": 6698,
      "职业": 6699,
      "自信": 6700,
      "自动": 6701,
      "自我": 6702,
      "至少": 6703,
      "舒服": 6704,
      "色佣兵团": 6705,
      "落在了": 6706,
      "被发现": 6707,
      "言语": 6708,
      "诡异": 6709,
      "说你": 6710,
      "说她": 6711,
      "说我": 6712,
      "责任": 6713,
      "足以": 6714,
      "跃起,": 6715,
      "路上": 6716,
      "踏着": 6717,
      "违背": 6718,
      "适合": 6719,
      "逃避": 6720,
      "邪破神裂": 6721,
      "郑西": 6722,
      "闪过": 6723,
      "闭上": 6724,
      "问道。": 6725,
      "闯入": 6726,
      "防护": 6727,
      "阴谋": 6728,
      "雪白的": 6729,
      "露出了": 6730,
      "靠在": 6731,
      "面无": 6732,
      "骗我": 6733,
      "黑夜": 6734,
      "黑龙": 6735,
      "。”夏怒": 6736,
      "。”黑衣鬼面男子": 6737,
      ",我又": 6738,
      "我们。": 6739,
      "我们是": 6740,
      "什么东西": 6741,
      "什么样的": 6742,
      "这个小": 6743,
      ",但我们": 6744,
      "“你的": 6745,
      "“你......你": 6746,
      "道:“我": 6747,
      ",不然": 6748,
      "一定能": 6749,
      "出来吧!": 6750,
      "黑衣红发男子": 6751,
      "你的身体": 6752,
      "看着她": 6753,
      "这么简单": 6754,
      ",如果没有": 6755,
      "?”我惊道。": 6756,
      "自己的身体": 6757,
      "西门家": 6758,
      "还有一个": 6759,
      "竟然会": 6760,
      ",不过我": 6761,
      "一声,": 6762,
      "进入邪都": 6763,
      "究竟发生了什么事": 6764,
      "“是吗?": 6765,
      "啊!我": 6766,
      "的剑气": 6767,
      "真气’": 6768,
      "出一道": 6769,
      "身形一动,": 6770,
      "不同的": 6771,
      "是什么人?”": 6772,
      "从来没有": 6773,
      "西域江南国的": 6774,
      "就在这时,": 6775,
      "幽幽地道。": 6776,
      "红发美男": 6777,
      "是怎么回事": 6778,
      "低下了头。": 6779,
      "****************": 6780,
      "半截剑玄录": 6781,
      "异常的": 6782,
      "意味深长": 6783,
      "邪魔增殖大法": 6784,
      ",便": 6785,
      ",把": 6786,
      ",夏怒": 6787,
      ",希望": 6788,
      ",“我”": 6789,
      ",右手": 6790,
      "10": 6791,
      "?这": 6792,
      "‘吸精": 6793,
      "“一": 6794,
      "“唉": 6795,
      "“算": 6796,
      "“姐姐": 6797,
      "“也许": 6798,
      "“傻瓜": 6799,
      "“飞鸟巢": 6800,
      "一女": 6801,
      "一拳": 6802,
      "一百": 6803,
      "上前": 6804,
      "不上": 6805,
      "不懂": 6806,
      "不死": 6807,
      "不通": 6808,
      "与他们": 6809,
      "丫头,": 6810,
      "之王": 6811,
      "了两": 6812,
      "仅仅": 6813,
      "他那": 6814,
      "以来,": 6815,
      "低着头": 6816,
      "你会": 6817,
      "你的,": 6818,
      "你这么": 6819,
      "你这种": 6820,
      "做梦": 6821,
      "八面": 6822,
      "六十": 6823,
      "其他的": 6824,
      "准确": 6825,
      "出招": 6826,
      "剑鬼": 6827,
      "剩下的": 6828,
      "力气": 6829,
      "动物": 6830,
      "却始终": 6831,
      "叛乱": 6832,
      "古城": 6833,
      "另外": 6834,
      "叫声": 6835,
      "向你": 6836,
      "吧,我": 6837,
      "喊了起来。": 6838,
      "四个人": 6839,
      "在他的": 6840,
      "地点": 6841,
      "地道,": 6842,
      "头颅": 6843,
      "好玩": 6844,
      "妓女": 6845,
      "尽力": 6846,
      "底下": 6847,
      "当年": 6848,
      "影响": 6849,
      "想过": 6850,
      "感谢": 6851,
      "打得": 6852,
      "打了个": 6853,
      "找不到": 6854,
      "抢先": 6855,
      "抬起": 6856,
      "摇摇": 6857,
      "收拾": 6858,
      "星光": 6859,
      "更是": 6860,
      "未来": 6861,
      "杀你": 6862,
      "极为": 6863,
      "极度": 6864,
      "欣慰": 6865,
      "死人": 6866,
      "死!”": 6867,
      "死在了": 6868,
      "毫不": 6869,
      "沙化": 6870,
      "流动": 6871,
      "流的": 6872,
      "淡道。": 6873,
      "理会": 6874,
      "由得": 6875,
      "男孩": 6876,
      "男一女": 6877,
      "的在": 6878,
      "的好": 6879,
      "的水": 6880,
      "的灯": 6881,
      "的魔族": 6882,
      "的黑暗": 6883,
      "的紫电": 6884,
      "的记忆": 6885,
      "的同时,": 6886,
      "看得": 6887,
      "看不到": 6888,
      "眼里": 6889,
      "码头": 6890,
      "碰到": 6891,
      "红光": 6892,
      "能不能": 6893,
      "脸少女": 6894,
      "自杀": 6895,
      "蔓延": 6896,
      "行走": 6897,
      "要比": 6898,
      "贴身": 6899,
      "资料": 6900,
      "走了,": 6901,
      "走吧!": 6902,
      "跃起": 6903,
      "身而": 6904,
      "还会": 6905,
      "还不是": 6906,
      "这位": 6907,
      "连连": 6908,
      "逃离": 6909,
      "邪阵": 6910,
      "长得": 6911,
      "食物": 6912,
      "马贼": 6913,
      "高的": 6914,
      "。”玲玲": 6915,
      "。”杨光": 6916,
      "。”师命悬": 6917,
      ",我有": 6918,
      ",我只有": 6919,
      "!”二号": 6920,
      "!”玲玲": 6921,
      "?”冯德": 6922,
      ":“你们": 6923,
      "“我是": 6924,
      "“我......我": 6925,
      "突然传来": 6926,
      "到了一": 6927,
      ",不能": 6928,
      "了一眼": 6929,
      "这样做": 6930,
      "人的目光": 6931,
      ",只能": 6932,
      "一点都不": 6933,
      "西门断天的女儿": 6934,
      "魔法阵": 6935,
      "真是个": 6936,
      "的一瞬间": 6937,
      "身上,": 6938,
      "着我。": 6939,
      "能量炮": 6940,
      "’的‘": 6941,
      "一样,": 6942,
      "必须要": 6943,
      "灭魔者": 6944,
      ",没有人": 6945,
      "颤抖着": 6946,
      "脚步声": 6947,
      "普通人": 6948,
      "的情景": 6949,
      "根本就没有": 6950,
      "冷静一点": 6951,
      "玄剑阁": 6952,
      "八面威风": 6953,
      "!他": 6954,
      ",都是": 6955,
      ",似乎": 6956,
      ",双手": 6957,
      ",小北": 6958,
      ",反正": 6959,
      ",甚至": 6960,
      "?他": 6961,
      "“很": 6962,
      "“想不到": 6963,
      "一场": 6964,
      "一惊": 6965,
      "一掌": 6966,
      "一句话": 6967,
      "一辈子": 6968,
      "三年": 6969,
      "上次": 6970,
      "上路": 6971,
      "不远处": 6972,
      "两片": 6973,
      "中最": 6974,
      "乌龟": 6975,
      "也可以": 6976,
      "也不要": 6977,
      "乱舞": 6978,
      "了片刻": 6979,
      "今夜": 6980,
      "从他的": 6981,
      "会是": 6982,
      "你一": 6983,
      "你还是": 6984,
      "便会": 6985,
      "冲到": 6986,
      "分明": 6987,
      "到她": 6988,
      "到我们": 6989,
      "刺客": 6990,
      "剑客": 6991,
      "十数": 6992,
      "十来": 6993,
      "千人": 6994,
      "半本剑玄录": 6995,
      "变强": 6996,
      "口,": 6997,
      "召唤": 6998,
      "听过": 6999,
      "呀!": 7000,
      "四肢": 7001,
      "圣躯": 7002,
      "地。": 7003,
      "外界": 7004,
      "大人,": 7005,
      "她已经": 7006,
      "客气": 7007,
      "尖叫": 7008,
      "就连": 7009,
      "尽头": 7010,
      "已是": 7011,
      "幸好": 7012,
      "床上": 7013,
      "强力": 7014,
      "归于": 7015,
      "念头": 7016,
      "性格": 7017,
      "悬在空中的": 7018,
      "想想": 7019,
      "想知道": 7020,
      "我又": 7021,
      "我忙": 7022,
      "手术": 7023,
      "打倒": 7024,
      "打扰": 7025,
      "扩散": 7026,
      "把你的": 7027,
      "按照": 7028,
      "接受": 7029,
      "接着": 7030,
      "改造": 7031,
      "放下": 7032,
      "数千年": 7033,
      "新月": 7034,
      "方程": 7035,
      "是,": 7036,
      "替她": 7037,
      "有一点": 7038,
      "有很多": 7039,
      "来,我": 7040,
      "树顶": 7041,
      "毒的": 7042,
      "沙蛇": 7043,
      "海市": 7044,
      "海牙": 7045,
      "滋味": 7046,
      "理解": 7047,
      "生日": 7048,
      "生气": 7049,
      "用尽": 7050,
      "白发": 7051,
      "的剑玄录": 7052,
      "盲眼": 7053,
      "看不见": 7054,
      "着这": 7055,
      "着他的": 7056,
      "知,": 7057,
      "砰砰": 7058,
      "神殿": 7059,
      "窗户": 7060,
      "笑得很": 7061,
      "第四": 7062,
      "索性": 7063,
      "练习": 7064,
      "给你们": 7065,
      "绝不能": 7066,
      "老爸": 7067,
      "老虎": 7068,
      "而不": 7069,
      "耗尽": 7070,
      "能否": 7071,
      "能够": 7072,
      "脚下": 7073,
      "视野": 7074,
      "走火": 7075,
      "起眉": 7076,
      "超邪": 7077,
      "足够": 7078,
      "还算": 7079,
      "进化": 7080,
      "退,": 7081,
      "逆转": 7082,
      "透过": 7083,
      "钥匙": 7084,
      "闻言": 7085,
      "防御": 7086,
      "雾水": 7087,
      "震得": 7088,
      "鼻子": 7089,
      "龙卷": 7090,
      "。”陈鱼": 7091,
      "。”诸葛撼野": 7092,
      "!”绿莹": 7093,
      ":“好": 7094,
      "一个人的": 7095,
      "没有一点": 7096,
      "已经到了": 7097,
      "已经变成了": 7098,
      "现在我": 7099,
      "知道他": 7100,
      "“你要": 7101,
      ",这么": 7102,
      "老大,你": 7103,
      ",一副": 7104,
      ",那是": 7105,
      ",那我就": 7106,
      ",不用": 7107,
      "因为我": 7108,
      "起来了,": 7109,
      "你的意思": 7110,
      ",就在": 7111,
      "了!”冯德": 7112,
      "可能性": 7113,
      ",也是": 7114,
      "夏怒的": 7115,
      "难道你": 7116,
      "自然不会": 7117,
      "手中。": 7118,
      "说话,": 7119,
      "也不敢": 7120,
      "马上就": 7121,
      "身后。": 7122,
      "缓缓的道。": 7123,
      "的时候,": 7124,
      ",我的心": 7125,
      "吸血族的": 7126,
      "对不起,": 7127,
      "说的也是": 7128,
      "疯狂地": 7129,
      "如何?”": 7130,
      "“小茵,你": 7131,
      "大声的道。": 7132,
      "唯一的": 7133,
      "的血液": 7134,
      "的气氛": 7135,
      "了上来": 7136,
      "的笑容。": 7137,
      "皱起了眉头:“": 7138,
      "话音未落,": 7139,
      "闭上了眼睛": 7140,
      "倒在了地上。": 7141,
      "不由得": 7142,
      "死灵法师": 7143,
      "来历不明": 7144,
      "‘超梦杀手组’": 7145,
      "邪破神裂弹": 7146,
      "防护罩": 7147,
      "叛乱军": 7148,
      "方程式": 7149,
      "超邪圣躯": 7150,
      ",竟": 7151,
      ",估计": 7152,
      "B组的": 7153,
      "——": 7154,
      "’!”": 7155,
      "“就": 7156,
      "“真": 7157,
      "“臭": 7158,
      "“......": 7159,
      "“那个": 7160,
      "“邪牙": 7161,
      "“山藏": 7162,
      "“多谢": 7163,
      "一扬": 7164,
      "一试": 7165,
      "一转": 7166,
      "一遍": 7167,
      "三界": 7168,
      "上去": 7169,
      "不受": 7170,
      "不算": 7171,
      "不耐": 7172,
      "不应该": 7173,
      "与你": 7174,
      "主要": 7175,
      "也跟着": 7176,
      "也算是": 7177,
      "事后": 7178,
      "事。”": 7179,
      "人潮": 7180,
      "付出": 7181,
      "伤心": 7182,
      "你已经": 7183,
      "你怎么": 7184,
      "保镖": 7185,
      "信心": 7186,
      "做了个": 7187,
      "八九": 7188,
      "共同": 7189,
      "再来": 7190,
      "凝固": 7191,
      "到你": 7192,
      "前往": 7193,
      "剧烈": 7194,
      "加入": 7195,
      "十年": 7196,
      "卫队": 7197,
      "双足": 7198,
      "受了": 7199,
      "呢!”": 7200,
      "呢?”我": 7201,
      "和冯德": 7202,
      "啊!”我": 7203,
      "四道": 7204,
      "城门": 7205,
      "声中,": 7206,
      "大伙": 7207,
      "天才": 7208,
      "夺取": 7209,
      "她在": 7210,
      "妮子": 7211,
      "封闭": 7212,
      "展开": 7213,
      "岩石": 7214,
      "巨大": 7215,
      "师妹": 7216,
      "干净": 7217,
      "建议": 7218,
      "形的": 7219,
      "往往": 7220,
      "得上": 7221,
      "心所欲": 7222,
      "忘记": 7223,
      "急促": 7224,
      "总算": 7225,
      "想起了": 7226,
      "意志": 7227,
      "感染": 7228,
      "成的": 7229,
      "我来": 7230,
      "我吗?”": 7231,
      "战争": 7232,
      "护体": 7233,
      "提前": 7234,
      "撕裂": 7235,
      "新的": 7236,
      "无情": 7237,
      "无能": 7238,
      "早已经": 7239,
      "时机": 7240,
      "时而": 7241,
      "昏睡": 7242,
      "是最": 7243,
      "最少": 7244,
      "朦胧": 7245,
      "杀戮": 7246,
      "杀了我": 7247,
      "树木": 7248,
      "樱花": 7249,
      "欲坠": 7250,
      "步走": 7251,
      "武功": 7252,
      "死寂": 7253,
      "死丫头": 7254,
      "毁掉": 7255,
      "沙哑": 7256,
      "没什么": 7257,
      "深渊": 7258,
      "潘阳": 7259,
      "火海": 7260,
      "炼兵": 7261,
      "父母": 7262,
      "用手": 7263,
      "男孩子": 7264,
      "的上": 7265,
      "的你": 7266,
      "的道": 7267,
      "的眼睛": 7268,
      "的商岚妍": 7269,
      "的神秘": 7270,
      "的犬奴": 7271,
      "的脸色": 7272,
      "的惨叫": 7273,
      "的身份": 7274,
      "的短发": 7275,
      "相关": 7276,
      "眸美": 7277,
      "着眼睛": 7278,
      "着双眼": 7279,
      "竟敢": 7280,
      "笑了起来。": 7281,
      "笑了:“": 7282,
      "笛子": 7283,
      "精血": 7284,
      "紫衣": 7285,
      "结局": 7286,
      "给她": 7287,
      "给了我": 7288,
      "绝技": 7289,
      "绝色": 7290,
      "置信": 7291,
      "老妈": 7292,
      "而知": 7293,
      "联系": 7294,
      "肩膀": 7295,
      "背着": 7296,
      "胜利": 7297,
      "脑死": 7298,
      "脑袋": 7299,
      "自会": 7300,
      "致命": 7301,
      "花丛": 7302,
      "落地": 7303,
      "落空": 7304,
      "蓝发": 7305,
      "被吸": 7306,
      "被困": 7307,
      "规则": 7308,
      "让开": 7309,
      "诅咒": 7310,
      "走了": 7311,
      "超越": 7312,
      "跟踪": 7313,
      "踏上": 7314,
      "身在": 7315,
      "身在空中的": 7316,
      "还好": 7317,
      "那块": 7318,
      "里,": 7319,
      "银光": 7320,
      "长鞭": 7321,
      "随心所欲": 7322,
      "飞向": 7323,
      "飞射": 7324,
      "骄傲": 7325,
      "骗你": 7326,
      "魔炼兵": 7327,
      "鹰骑士团": 7328,
      ",我都": 7329,
      ",我终于": 7330,
      "了,而且": 7331,
      "什么叫": 7332,
      "什么好": 7333,
      "我的‘": 7334,
      "我的手": 7335,
      ",但如果": 7336,
      ",但他的": 7337,
      ",他就": 7338,
      "突然又": 7339,
      "突然被": 7340,
      "突然传来了": 7341,
      "“你在": 7342,
      "老大你": 7343,
      "起来。": 7344,
      "剑玄之": 7345,
      "剑玄感应": 7346,
      ",如果他": 7347,
      ",如果你": 7348,
      "“那我就": 7349,
      "竟然能": 7350,
      "一声轻": 7351,
      "这一辈子": 7352,
      "说话之间": 7353,
      "出手,": 7354,
      "有一些": 7355,
      "最后一": 7356,
      "相信你": 7357,
      "第二次": 7358,
      "第二部 ": 7359,
      "那一刻": 7360,
      "那一瞬间": 7361,
      "只要你": 7362,
      "出一副": 7363,
      ",就算是": 7364,
      "不知何时": 7365,
      "白家的": 7366,
      "杀了他": 7367,
      "杀了你": 7368,
      "温柔的": 7369,
      "“可是......”": 7370,
      "前方的": 7371,
      "天下无": 7372,
      "天下第一": 7373,
      "神龙帝国": 7374,
      "周围的": 7375,
      "旋转着": 7376,
      "‘弃者帮’的": 7377,
      "二十四": 7378,
      "幽幽的": 7379,
      "之色。": 7380,
      "乖乖的": 7381,
      "光之卵": 7382,
      "将军府": 7383,
      "一挥,": 7384,
      "散发着": 7385,
      "慕荣淼": 7386,
      "深深地": 7387,
      "黑莲魔女": 7388,
      "摇摇欲坠": 7389,
      "龙卷风": 7390,
      "潘阳湖": 7391,
      "!但": 7392,
      ",五": 7393,
      ",象": 7394,
      ",邪牙": 7395,
      ",自然": 7396,
      ",让你": 7397,
      ",齐虎": 7398,
      ",很快": 7399,
      ",说不定": 7400,
      ",可惜": 7401,
      "‘天": 7402,
      "‘风化城": 7403,
      "“哥": 7404,
      "“少": 7405,
      "“快": 7406,
      "“看": 7407,
      "“这样的": 7408,
      "“没事": 7409,
      "“狐狸精": 7410,
      "”,": 7411,
      "一千": 7412,
      "一团": 7413,
      "一滴": 7414,
      "上船": 7415,
      "不像": 7416,
      "不喜欢": 7417,
      "与邪牙": 7418,
      "中间": 7419,
      "为此": 7420,
      "之夜": 7421,
      "也好,": 7422,
      "了下": 7423,
      "交给你": 7424,
      "人。”": 7425,
      "他会": 7426,
      "他的话": 7427,
      "仗着": 7428,
      "低头": 7429,
      "体的": 7430,
      "何方": 7431,
      "作战": 7432,
      "你不要": 7433,
      "你最好": 7434,
      "佩服": 7435,
      "做了": 7436,
      "偶像": 7437,
      "元素": 7438,
      "入魔": 7439,
      "冷宫": 7440,
      "冷笑道:“": 7441,
      "冷笑。": 7442,
      "到底": 7443,
      "到晚": 7444,
      "刺激": 7445,
      "十一": 7446,
      "十有": 7447,
      "十分钟": 7448,
      "升龙": 7449,
      "危机": 7450,
      "去!": 7451,
      "参天": 7452,
      "又开始": 7453,
      "发展": 7454,
      "句实话": 7455,
      "同小": 7456,
      "名成员": 7457,
      "向上": 7458,
      "啊......”": 7459,
      "善良": 7460,
      "围绕": 7461,
      "在袁茵": 7462,
      "在哪儿": 7463,
      "地下": 7464,
      "地笑道。": 7465,
      "地站在": 7466,
      "城市": 7467,
      "外面的": 7468,
      "大吃": 7469,
      "大地": 7470,
      "大计": 7471,
      "大小姐": 7472,
      "奇道。": 7473,
      "奴隶": 7474,
      "如幽灵": 7475,
      "妖族": 7476,
      "对望": 7477,
      "对我的": 7478,
      "将你": 7479,
      "将剑": 7480,
      "小组": 7481,
      "就有": 7482,
      "就越": 7483,
      "屁股": 7484,
      "山庄": 7485,
      "带来": 7486,
      "帮助": 7487,
      "幽梅": 7488,
      "张大了": 7489,
      "很简单": 7490,
      "心痛": 7491,
      "心语": 7492,
      "必死": 7493,
      "思索": 7494,
      "思议": 7495,
      "情形": 7496,
      "情愿": 7497,
      "想干什么?”": 7498,
      "我?": 7499,
      "我很": 7500,
      "我估计": 7501,
      "戴着": 7502,
      "才好": 7503,
      "扑向": 7504,
      "抓着": 7505,
      "护住": 7506,
      "抱歉": 7507,
      "抵抗": 7508,
      "拿到": 7509,
      "擅长": 7510,
      "救他": 7511,
      "旅店": 7512,
      "无所": 7513,
      "日夜": 7514,
      "是想": 7515,
      "智慧": 7516,
      "有多": 7517,
      "柔软": 7518,
      "欲望": 7519,
      "死前": 7520,
      "死士": 7521,
      "气的": 7522,
      "水儿": 7523,
      "注入": 7524,
      "泪水": 7525,
      "活下来": 7526,
      "浓浓": 7527,
      "火龙": 7528,
      "物体": 7529,
      "用的": 7530,
      "男女": 7531,
      "留在": 7532,
      "的最": 7533,
      "的行": 7534,
      "的走": 7535,
      "的只是": 7536,
      "的点了点头。": 7537,
      "真神": 7538,
      "着她的": 7539,
      "破绽": 7540,
      "硬生": 7541,
      "粉碎": 7542,
      "美少女": 7543,
      "翅膀": 7544,
      "老婆": 7545,
      "联盟": 7546,
      "胸前": 7547,
      "脑子": 7548,
      "茶楼": 7549,
      "落叶": 7550,
      "蒙着": 7551,
      "蜃楼": 7552,
      "血雨": 7553,
      "让自己": 7554,
      "设计": 7555,
      "语。": 7556,
      "贝特": 7557,
      "趁着": 7558,
      "过敏": 7559,
      "这话": 7560,
      "造型": 7561,
      "都很": 7562,
      "里面的": 7563,
      "银眸美": 7564,
      "长街": 7565,
      "阴森": 7566,
      "隔离": 7567,
      "难逃": 7568,
      "非同小": 7569,
      "面包": 7570,
      "食沙蛇": 7571,
      "高大": 7572,
      "。”花火": 7573,
      ",我立即": 7574,
      "了,那": 7575,
      ",你怎么": 7576,
      "这个地方": 7577,
      "这个王八蛋": 7578,
      "的人生": 7579,
      "的人群": 7580,
      "......”她": 7581,
      "了。”南宫北": 7582,
      "怎么可以": 7583,
      "不会死": 7584,
      ",一般": 7585,
      "了一些": 7586,
      "的,因为": 7587,
      ",而现在": 7588,
      "还是先": 7589,
      "看着自己": 7590,
      "的我,": 7591,
      "“老大,我们": 7592,
      "了!我": 7593,
      "二号的": 7594,
      "陈鱼的": 7595,
      "成了两": 7596,
      "一声清": 7597,
      "出了一个": 7598,
      "淡淡的道:“": 7599,
      "发生什么事": 7600,
      "“我”的": 7601,
      "入了黑暗": 7602,
      "死亡的": 7603,
      "此刻已经": 7604,
      "我不禁": 7605,
      "我和袁茵": 7606,
      "我和小书": 7607,
      "吸血族的女人": 7608,
      ",我不想": 7609,
      "身前,": 7610,
      "身前。": 7611,
      "S级的高手": 7612,
      "仍然在": 7613,
      "不可思议": 7614,
      "的关系,": 7615,
      "世界上最": 7616,
      "哈哈大": 7617,
      "的白色": 7618,
      "“大叔": 7619,
      "的对手": 7620,
      ",这时我才": 7621,
      "了进来。": 7622,
      "真实身份": 7623,
      "冲天而起,": 7624,
      "篇 第二": 7625,
      "面无表情": 7626,
      "海市蜃楼": 7627,
      "不耐烦": 7628,
      "十有八九": 7629,
      "银眸美少年": 7630,
      "非同小可": 7631,
      "!这": 7632,
      ",它": 7633,
      ",总": 7634,
      ",据": 7635,
      ",来": 7636,
      ",除非": 7637,
      "?不过": 7638,
      "B组": 7639,
      "‘燕都城": 7640,
      "’、": 7641,
      "“死": 7642,
      "“大家": 7643,
      "“混蛋": 7644,
      "“男人婆": 7645,
      "“各位": 7646,
      "一发": 7647,
      "一笑": 7648,
      "万丈": 7649,
      "下毒": 7650,
      "不屑": 7651,
      "不相信": 7652,
      "不容易": 7653,
      "不动的": 7654,
      "不顾一切": 7655,
      "与袁茵": 7656,
      "与安杰尔": 7657,
      "两百": 7658,
      "两边": 7659,
      "中的人": 7660,
      "为之": 7661,
      "之日": 7662,
      "乘客": 7663,
      "也无法": 7664,
      "了三": 7665,
      "了她的": 7666,
      "了吧?”我": 7667,
      "事,": 7668,
      "事?”": 7669,
      "五天": 7670,
      "五岁": 7671,
      "人之": 7672,
      "从未": 7673,
      "他妈": 7674,
      "他现在": 7675,
      "以上": 7676,
      "仰天": 7677,
      "伸手": 7678,
      "你说": 7679,
      "你还": 7680,
      "你,我": 7681,
      "做不到": 7682,
      "六星": 7683,
      "关健": 7684,
      "凝重": 7685,
      "出。": 7686,
      "出乎": 7687,
      "分开": 7688,
      "剑,": 7689,
      "剑核": 7690,
      "剑窝": 7691,
      "力的": 7692,
      "匕首": 7693,
      "匹马": 7694,
      "医家": 7695,
      "十分之一": 7696,
      "印象": 7697,
      "却在": 7698,
      "又会": 7699,
      "又被": 7700,
      "右腕": 7701,
      "同归于": 7702,
      "呵呵": 7703,
      "和我们": 7704,
      "和他们": 7705,
      "哀求": 7706,
      "哈拉": 7707,
      "嘛!”": 7708,
      "在这个世界上": 7709,
      "坚定": 7710,
      "坟窟": 7711,
      "处的": 7712,
      "大将军": 7713,
      "好了": 7714,
      "妙的": 7715,
      "宁静": 7716,
      "定的": 7717,
      "密道": 7718,
      "对袁茵": 7719,
      "将那": 7720,
      "小嘴": 7721,
      "小桃": 7722,
      "小和尚": 7723,
      "就得": 7724,
      "就此": 7725,
      "帮你": 7726,
      "幻月": 7727,
      "弄清楚": 7728,
      "引发": 7729,
      "当我们": 7730,
      "待员": 7731,
      "得可怕": 7732,
      "怕我": 7733,
      "怕死": 7734,
      "急速": 7735,
      "怪不得": 7736,
      "惊呼": 7737,
      "想着": 7738,
      "意。": 7739,
      "感受": 7740,
      "我与": 7741,
      "我曾": 7742,
      "我只有": 7743,
      "所能": 7744,
      "手足": 7745,
      "把这": 7746,
      "把他们": 7747,
      "护法": 7748,
      "拉着": 7749,
      "招术": 7750,
      "挂着": 7751,
      "指点": 7752,
      "接下来": 7753,
      "推开": 7754,
      "提出": 7755,
      "效果": 7756,
      "救你": 7757,
      "整座": 7758,
      "斩断": 7759,
      "方圆": 7760,
      "时光": 7761,
      "更加": 7762,
      "有的": 7763,
      "有两个": 7764,
      "本身": 7765,
      "果实": 7766,
      "步。": 7767,
      "死去,": 7768,
      "气流": 7769,
      "沙暴": 7770,
      "没想到": 7771,
      "活腻": 7772,
      "漠然": 7773,
      "牙齿": 7774,
      "牢牢": 7775,
      "狡猾": 7776,
      "猎坟窟": 7777,
      "用这": 7778,
      "电击": 7779,
      "留着": 7780,
      "留下的": 7781,
      "疲惫": 7782,
      "的说": 7783,
      "的门": 7784,
      "的,这": 7785,
      "的瞬间": 7786,
      "的齐虎": 7787,
      "的黑衣少女": 7788,
      "的功夫": 7789,
      "的过程": 7790,
      "皱起眉": 7791,
      "看不": 7792,
      "真面目": 7793,
      "睁开了": 7794,
      "知觉": 7795,
      "离去。": 7796,
      "笨蛋": 7797,
      "精气": 7798,
      "紧了": 7799,
      "结实": 7800,
      "绽放": 7801,
      "美得": 7802,
      "老狐狸": 7803,
      "肩头,": 7804,
      "能将": 7805,
      "能感觉到": 7806,
      "脱手": 7807,
      "脸。": 7808,
      "自有": 7809,
      "舞着": 7810,
      "花园": 7811,
      "苍白的": 7812,
      "落下": 7813,
      "融合": 7814,
      "要将": 7815,
      "要杀": 7816,
      "要用": 7817,
      "解心语": 7818,
      "贵的": 7819,
      "走到": 7820,
      "赶快": 7821,
      "赶车": 7822,
      "趁机": 7823,
      "边缘": 7824,
      "还给我": 7825,
      "这把": 7826,
      "这边": 7827,
      "这小子": 7828,
      "连忙": 7829,
      "迷途": 7830,
      "道歉": 7831,
      "雪亮": 7832,
      "青年": 7833,
      "预料": 7834,
      "颗心": 7835,
      "颜色": 7836,
      "飞掠": 7837,
      "马尾": 7838,
      "魔解心语": 7839,
      ",我先": 7840,
      ",我很": 7841,
      ",我最": 7842,
      ",我没有": 7843,
      ",我一定要": 7844,
      ",我只能": 7845,
      "?”二号": 7846,
      "?”洗仁鲜": 7847,
      "了,而": 7848,
      "一个月": 7849,
      ",你也": 7850,
      ",你会": 7851,
      ",你在": 7852,
      ",但在": 7853,
      ",但是我": 7854,
      "现在是": 7855,
      "知道自己": 7856,
      "齐琳。": 7857,
      "“我只是": 7858,
      "......”小书": 7859,
      "了。”绿莹": 7860,
      "可以将": 7861,
      ",一身": 7862,
      "的话,他": 7863,
      ",就像": 7864,
      "“不知道": 7865,
      "。”我轻道。": 7866,
      "魔族的人": 7867,
      "眼睛一亮": 7868,
      "发现了": 7869,
      ",他们的": 7870,
      "当然不会": 7871,
      "剑玄录的": 7872,
      "出现了": 7873,
      "神秘人": 7874,
      "“是啊!": 7875,
      "缓缓地道。": 7876,
      "微笑。": 7877,
      "西域猛虎": 7878,
      "以为我": 7879,
      "几乎是": 7880,
      "的手式": 7881,
      "用力一": 7882,
      ",我不禁": 7883,
      "“什么意思?”": 7884,
      "之一的": 7885,
      "抱着剑": 7886,
      "面色大变": 7887,
      "三人组": 7888,
      "灭魔联盟": 7889,
      "目前为止": 7890,
      "存在的": 7891,
      "程度的": 7892,
      "坐在地上": 7893,
      "了上来。": 7894,
      "数十个": 7895,
      ":“老大,你": 7896,
      "了过来,": 7897,
      "一头雾水": 7898,
      "森林中": 7899,
      "丧失了": 7900,
      "喃喃地道。": 7901,
      "小声地道。": 7902,
      "月光下": 7903,
      "四大美人’": 7904,
      "漫天的": 7905,
      "每一个人的": 7906,
      "谢谢你": 7907,
      "透明的": 7908,
      "转眼间": 7909,
      "无力的": 7910,
      "对不对?”": 7911,
      "在此之前": 7912,
      "黄衫童子": 7913,
      "的味道。": 7914,
      "无声无息地": 7915,
      "看了看": 7916,
      "天绝六脉": 7917,
      "无光集团": 7918,
      "走火入魔": 7919,
      "大吃一惊": 7920,
      "日夜过敏": 7921,
      "’、‘": 7922,
      "六星幻月": 7923,
      "日夜过敏虫": 7924,
      "!!": 7925,
      "!她": 7926,
      "!不过": 7927,
      ",二": 7928,
      ",哪": 7929,
      ",很": 7930,
      ",您": 7931,
      ",等": 7932,
      ",自": 7933,
      ",西门断天": 7934,
      ",立即": 7935,
      ",商岚妍": 7936,
      ",眼中": 7937,
      ",全身": 7938,
      ",到时": 7939,
      "’的人": 7940,
      "“听": 7941,
      "“够": 7942,
      "“西门断天": 7943,
      "“绿莹": 7944,
      "“有什么": 7945,
      "“啊!”": 7946,
      "“鲜儿": 7947,
      "“说的也是": 7948,
      "”的一声": 7949,
      "一命": 7950,
      "一生": 7951,
      "一言": 7952,
      "一笑。": 7953,
      "七八": 7954,
      "三分钟": 7955,
      "上方": 7956,
      "上百": 7957,
      "不舍": 7958,
      "与我一": 7959,
      "两掌": 7960,
      "个性": 7961,
      "主的": 7962,
      "了这个": 7963,
      "了吧!": 7964,
      "了过来": 7965,
      "二字": 7966,
      "交出来": 7967,
      "从此": 7968,
      "从地上": 7969,
      "他又": 7970,
      "伤势": 7971,
      "伤痕": 7972,
      "似的,": 7973,
      "位于": 7974,
      "作出": 7975,
      "作梦": 7976,
      "作用": 7977,
      "你也": 7978,
      "俏丽": 7979,
      "保证": 7980,
      "信任": 7981,
      "公平": 7982,
      "关切": 7983,
      "冥月": 7984,
      "冯公子": 7985,
      "冲动": 7986,
      "凝血": 7987,
      "出去。": 7988,
      "到我的": 7989,
      "到目前为止": 7990,
      "动着": 7991,
      "化成": 7992,
      "医术": 7993,
      "压低": 7994,
      "压抑": 7995,
      "又在": 7996,
      "反击": 7997,
      "反而": 7998,
      "取得": 7999,
      "口诀": 8000,
      "只听": 8001,
      "可不能": 8002,
      "和齐琳": 8003,
      "哭泣": 8004,
      "商人": 8005,
      "商量": 8006,
      "回家": 8007,
      "回过": 8008,
      "城中的": 8009,
      "墙角": 8010,
      "多年": 8011,
      "大乱": 8012,
      "大叫": 8013,
      "大量": 8014,
      "头部": 8015,
      "女孩": 8016,
      "她。”": 8017,
      "她现在": 8018,
      "好了。”": 8019,
      "如雨": 8020,
      "学会": 8021,
      "害死": 8022,
      "寂静": 8023,
      "小孩子": 8024,
      "尴尬": 8025,
      "建立": 8026,
      "得要": 8027,
      "得起": 8028,
      "必杀": 8029,
      "快些": 8030,
      "快速": 8031,
      "怜悯": 8032,
      "想见": 8033,
      "我可以": 8034,
      "我师傅": 8035,
      "我点了点头:“": 8036,
      "扬声道。": 8037,
      "把自己": 8038,
      "抚着": 8039,
      "指着我": 8040,
      "捕捉": 8041,
      "损失": 8042,
      "摧毁": 8043,
      "撒谎": 8044,
      "撒哈拉": 8045,
      "救她": 8046,
      "时,她": 8047,
      "有着": 8048,
      "有几分": 8049,
      "朝着": 8050,
      "本小姐": 8051,
      "来看": 8052,
      "树林": 8053,
      "死不": 8054,
      "每个": 8055,
      "比如": 8056,
      "毫无": 8057,
      "沉睡": 8058,
      "沉声道:“": 8059,
      "激射": 8060,
      "灭口": 8061,
      "点头": 8062,
      "然大": 8063,
      "然而": 8064,
      "犯罪": 8065,
      "现实": 8066,
      "玻璃": 8067,
      "理智": 8068,
      "生地": 8069,
      "用剑": 8070,
      "痛快": 8071,
      "痛楚": 8072,
      "的下": 8073,
      "的向": 8074,
      "的,我们": 8075,
      "的同时": 8076,
      "的王八蛋": 8077,
      "的房间": 8078,
      "的中心": 8079,
      "皱着眉": 8080,
      "盘算": 8081,
      "看著": 8082,
      "破了": 8083,
      "示意": 8084,
      "神功": 8085,
      "科比": 8086,
      "穿着": 8087,
      "立刻": 8088,
      "站着": 8089,
      "站了起来,": 8090,
      "笑嘻嘻": 8091,
      "精华": 8092,
      "精英": 8093,
      "红着脸": 8094,
      "纯阳": 8095,
      "细细": 8096,
      "经脉": 8097,
      "绝不是": 8098,
      "老伯": 8099,
      "而亡": 8100,
      "而来,": 8101,
      "而去。": 8102,
      "而来。": 8103,
      "舍不得": 8104,
      "船上的": 8105,
      "莫名的": 8106,
      "血肉": 8107,
      "衣衫": 8108,
      "表面": 8109,
      "要想": 8110,
      "见到了": 8111,
      "角色": 8112,
      "解释": 8113,
      "警告": 8114,
      "设想": 8115,
      "试试": 8116,
      "诱惑": 8117,
      "说要": 8118,
      "说,我": 8119,
      "调查": 8120,
      "贵宾": 8121,
      "走出": 8122,
      "走!”": 8123,
      "起一": 8124,
      "跟我们": 8125,
      "轮椅": 8126,
      "辛苦": 8127,
      "过。": 8128,
      "过我": 8129,
      "还想": 8130,
      "这片": 8131,
      "这就是": 8132,
      "通往": 8133,
      "遥远": 8134,
      "重创": 8135,
      "金币": 8136,
      "银色": 8137,
      "锐风": 8138,
      "门,": 8139,
      "随后": 8140,
      "静静": 8141,
      "顾自": 8142,
      "领域": 8143,
      "飞鹰": 8144,
      "首都": 8145,
      "魅力": 8146,
      "鱼儿": 8147,
      "黑芒": 8148,
      "。”邪牙": 8149,
      "。”修花": 8150,
      ",我虽然": 8151,
      "?”他": 8152,
      "了,虽然": 8153,
      "了,当然": 8154,
      "我们都": 8155,
      "我们三个": 8156,
      "什么地方": 8157,
      ":“那": 8158,
      "......他": 8159,
      ",你先": 8160,
      ",你快": 8161,
      ",你是": 8162,
      ",你现在": 8163,
      ",你不要": 8164,
      "没有出": 8165,
      "袁茵。": 8166,
      "已经在": 8167,
      ",但由于": 8168,
      "现在起": 8169,
      "现在正在": 8170,
      "知道了": 8171,
      "的人。": 8172,
      "的人流": 8173,
      "突然将": 8174,
      "“你不": 8175,
      "如果不是": 8176,
      ",一声": 8177,
      ",一时": 8178,
      "了一种": 8179,
      "吗?”齐琳": 8180,
      "的。”她": 8181,
      "的。”冯德": 8182,
      "世界各": 8183,
      "她的身体": 8184,
      "那个时候": 8185,
      "。”我沉声道。": 8186,
      "看着他": 8187,
      "一下。”": 8188,
      "一直沉默": 8189,
      "魔族最强战士": 8190,
      "魔族大计": 8191,
      "“老大你": 8192,
      "应该可以": 8193,
      "魔法,": 8194,
      "非常清楚": 8195,
      "只是为了": 8196,
      "超级气囊": 8197,
      "发现自己": 8198,
      "无法再": 8199,
      "无法动弹": 8200,
      "消失了!": 8201,
      "似乎已经": 8202,
      "让我来": 8203,
      "告诉你们": 8204,
      "原来是": 8205,
      "也不想": 8206,
      "也不知": 8207,
      "刚才的": 8208,
      ",因为我": 8209,
      ",现在我": 8210,
      "安杰尔的": 8211,
      ",但我还是": 8212,
      "淡淡的": 8213,
      "神秘男子": 8214,
      "变得越来越": 8215,
      "水晶鱼": 8216,
      "控制的": 8217,
      "缓缓的道:“": 8218,
      "魔王降生": 8219,
      "生命力": 8220,
      "出一丝": 8221,
      ",是因为": 8222,
      "西域江南的": 8223,
      "西域江南帝国": 8224,
      "“不错,我": 8225,
      "是一个很": 8226,
      "师弟你": 8227,
      "记忆中": 8228,
      "发出一声": 8229,
      "就好了,": 8230,
      "怎么会有": 8231,
      "存在着": 8232,
      "的女人,": 8233,
      "是什么人?": 8234,
      "颤抖。": 8235,
      ",否则我": 8236,
      "回事?”": 8237,
      "美丽的": 8238,
      "长城帝国’": 8239,
      "“老公,你": 8240,
      "迷惑地道。": 8241,
      "这么多年": 8242,
      "挣扎着": 8243,
      "对你来说": 8244,
      "喃喃的道。": 8245,
      "小声的道。": 8246,
      "的情形": 8247,
      "怎么办?": 8248,
      "五行术士": 8249,
      "乖乖地": 8250,
      "光之球": 8251,
      "说到一半": 8252,
      "对准了": 8253,
      "望着我。": 8254,
      "特别是": 8255,
      "剑心逆转": 8256,
      "契约果实": 8257,
      "欧阳忘": 8258,
      "闪烁不定": 8259,
      "炸了开来,": 8260,
      "藏剑室": 8261,
      "流沙地狱": 8262,
      "意味深长地道。": 8263,
      "‘吸精邪阵": 8264,
      "剑鬼三人组": 8265,
      "必死无疑": 8266,
      "真神教": 8267,
      "凝血真气": 8268,
      ",无": 8269,
      ",越": 8270,
      ",黑雷": 8271,
      ",绝对": 8272,
      ",此刻": 8273,
      ",同时": 8274,
      ",周兄": 8275,
      ",整个": 8276,
      ",本来": 8277,
      ",对不起": 8278,
      ",毕竟": 8279,
      ",哈哈": 8280,
      ";而": 8281,
      "‘超梦六杀": 8282,
      "‘魔焚毁杀": 8283,
      "“先": 8284,
      "“可以": 8285,
      "“真是": 8286,
      "“废话": 8287,
      "一模": 8288,
      "一行": 8289,
      "一间": 8290,
      "七十": 8291,
      "三千年前": 8292,
      "不去": 8293,
      "与之": 8294,
      "与此": 8295,
      "丢下": 8296,
      "中竟": 8297,
      "中,我": 8298,
      "之类": 8299,
      "之血": 8300,
      "之龙": 8301,
      "之人,": 8302,
      "也未必能": 8303,
      "了自己的": 8304,
      "五百": 8305,
      "交叠": 8306,
      "他能": 8307,
      "伙伴": 8308,
      "伴随着": 8309,
      "伸出了一": 8310,
      "低垂": 8311,
      "你把": 8312,
      "你现在": 8313,
      "你了。”": 8314,
      "你这样": 8315,
      "停在了": 8316,
      "停下了": 8317,
      "元气": 8318,
      "光线": 8319,
      "兵器": 8320,
      "冒了出来": 8321,
      "凝结": 8322,
      "几次": 8323,
      "凤都城": 8324,
      "凭着": 8325,
      "凶险": 8326,
      "刷的一下": 8327,
      "力道": 8328,
      "十指": 8329,
      "单纯": 8330,
      "厉声": 8331,
      "反复": 8332,
      "反对": 8333,
      "发着": 8334,
      "受损": 8335,
      "口舌": 8336,
      "可没有": 8337,
      "可不敢": 8338,
      "叱道。": 8339,
      "向来": 8340,
      "吧......”": 8341,
      "呵欠": 8342,
      "和这个": 8343,
      "围攻": 8344,
      "坠落": 8345,
      "基本": 8346,
      "夕阳": 8347,
      "外人": 8348,
      "多个": 8349,
      "多大": 8350,
      "天,": 8351,
      "太高": 8352,
      "头脑": 8353,
      "夸张": 8354,
      "好听": 8355,
      "好戏": 8356,
      "嫣然": 8357,
      "宁愿": 8358,
      "宫女": 8359,
      "对了,": 8360,
      "对自己": 8361,
      "将我的": 8362,
      "将她的": 8363,
      "小妹": 8364,
      "少许": 8365,
      "布满了": 8366,
      "师门": 8367,
      "废物": 8368,
      "弟子": 8369,
      "强到": 8370,
      "形态": 8371,
      "得不": 8372,
      "得太": 8373,
      "得更": 8374,
      "心。": 8375,
      "快到": 8376,
      "快的速度": 8377,
      "怀中。": 8378,
      "态度": 8379,
      "悄悄": 8380,
      "惊道:“": 8381,
      "慎重": 8382,
      "我再": 8383,
      "我急忙": 8384,
      "我回头": 8385,
      "手无": 8386,
      "扭头": 8387,
      "找个": 8388,
      "找我": 8389,
      "抢到": 8390,
      "拖着": 8391,
      "拳头": 8392,
      "挑战": 8393,
      "换了": 8394,
      "携着": 8395,
      "摇头,": 8396,
      "放肆": 8397,
      "放在了": 8398,
      "是不能": 8399,
      "晚风": 8400,
      "景物": 8401,
      "最有": 8402,
      "月圣晶": 8403,
      "望去": 8404,
      "本事": 8405,
      "杀戒": 8406,
      "极端": 8407,
      "某人": 8408,
      "样的人": 8409,
      "棵大树": 8410,
      "模仿": 8411,
      "欺负": 8412,
      "正确": 8413,
      "气氛": 8414,
      "水面": 8415,
      "汹汹": 8416,
      "法子": 8417,
      "深入": 8418,
      "混乱": 8419,
      "清水": 8420,
      "滚滚": 8421,
      "灵活": 8422,
      "点头。": 8423,
      "热闹": 8424,
      "燃烧": 8425,
      "犹在": 8426,
      "猜测": 8427,
      "生路": 8428,
      "痕迹": 8429,
      "白爷爷": 8430,
      "的特": 8431,
      "的身": 8432,
      "的野": 8433,
      "的雨": 8434,
      "的,她": 8435,
      "的夏怒": 8436,
      "的陈鱼": 8437,
      "的能量": 8438,
      "的望着": 8439,
      "的选择": 8440,
      "的主意": 8441,
      "的实力": 8442,
      "看似": 8443,
      "睡着": 8444,
      "神器": 8445,
      "穷追": 8446,
      "空洞": 8447,
      "窒息": 8448,
      "等级": 8449,
      "糊涂": 8450,
      "紫鞭": 8451,
      "纠缠": 8452,
      "红了": 8453,
      "约会": 8454,
      "约而": 8455,
      "细胞": 8456,
      "经济": 8457,
      "给我的": 8458,
      "绝无": 8459,
      "肌肉": 8460,
      "肩头。": 8461,
      "能得到": 8462,
      "般地": 8463,
      "色狼": 8464,
      "花样": 8465,
      "苍茫": 8466,
      "苦笑道:“": 8467,
      "藏着": 8468,
      "虫使": 8469,
      "虫小": 8470,
      "表示": 8471,
      "被别人": 8472,
      "视为": 8473,
      "角落": 8474,
      "评价": 8475,
      "说服": 8476,
      "调戏": 8477,
      "走去。": 8478,
      "踏上了": 8479,
      "轻道:“": 8480,
      "输入": 8481,
      "过他": 8482,
      "过的": 8483,
      "过后,": 8484,
      "过来的": 8485,
      "还活着": 8486,
      "这半年": 8487,
      "逃亡": 8488,
      "逃跑": 8489,
      "遭到": 8490,
      "那两": 8491,
      "那只": 8492,
      "那边": 8493,
      "那东西": 8494,
      "部位": 8495,
      "部队": 8496,
      "都带着": 8497,
      "里的人": 8498,
      "重建": 8499,
      "金光": 8500,
      "钻进了": 8501,
      "闲事": 8502,
      "队长": 8503,
      "难怪": 8504,
      "雕虫小": 8505,
      "顾忌": 8506,
      "预感": 8507,
      "飓飚": 8508,
      "飘飘": 8509,
      "飞纵": 8510,
      "黄泉": 8511,
      "黑的": 8512,
      "。”志": 8513,
      "。”大公主": 8514,
      "。”康云儿": 8515,
      "。”天杀": 8516,
      ",我在": 8517,
      ",我将": 8518,
      ",我怕": 8519,
      ",我真": 8520,
      ",我一定": 8521,
      ",我一直": 8522,
      ",我不知道": 8523,
      "?”玲玲": 8524,
      "我们在": 8525,
      "我们老大": 8526,
      "什么?”我": 8527,
      ":“我们": 8528,
      ",你这个": 8529,
      ",你可以": 8530,
      ",你究竟": 8531,
      ",你知不知道": 8532,
      ",你可知道": 8533,
      "这个问题": 8534,
      "“我已经": 8535,
      "“我不知道": 8536,
      "的人是": 8537,
      "的人潮": 8538,
      "不是很": 8539,
      "“你怎么": 8540,
      ",一把": 8541,
      ",那就": 8542,
      "身体上": 8543,
      "的话。": 8544,
      "的话。”": 8545,
      "的话,我就": 8546,
      "的。”小书": 8547,
      "虽然很": 8548,
      "虽然是": 8549,
      "她的手": 8550,
      "黑衣士兵": 8551,
      "了!”袁茵": 8552,
      "了!”南宫北": 8553,
      ",只剩下": 8554,
      ",如果是": 8555,
      ",如果你不": 8556,
      "离开这个": 8557,
      "还有一": 8558,
      "为什么会": 8559,
      "时候,": 8560,
      "魔法的": 8561,
      "立即被": 8562,
      "竟然是": 8563,
      "真的要": 8564,
      "超级水术士": 8565,
      "的一头": 8566,
      "超梦杀手组": 8567,
      "无法置信": 8568,
      "其实我": 8569,
      "的是我": 8570,
      "似乎在": 8571,
      "似乎都": 8572,
      "感觉到了": 8573,
      "感觉不到": 8574,
      "对我道。": 8575,
      "对我说过": 8576,
      "一声令": 8577,
      "一声厉叱": 8578,
      "在一起,": 8579,
      "这一对": 8580,
      "这一次": 8581,
      "是什么东西": 8582,
      "也不可能": 8583,
      "在我心中": 8584,
      "所有人的目光": 8585,
      "孩子们": 8586,
      "淡淡一笑:“": 8587,
      "水晶剑": 8588,
      "点了点头": 8589,
      "齐虎的": 8590,
      "“小兄弟": 8591,
      "变成了一": 8592,
      "不得不": 8593,
      "几乎要": 8594,
      "“老大,别": 8595,
      "轻轻一": 8596,
      ",这个时候": 8597,
      "“小茵,": 8598,
      "“小茵姐": 8599,
      ",让她": 8600,
      "抱着小书": 8601,
      ",然后再": 8602,
      "三十分钟": 8603,
      "说过了,": 8604,
      ",也许是": 8605,
      "眼前一": 8606,
      "利用价值": 8607,
      "反应过来": 8608,
      "魔王哈特雷斯复活": 8609,
      "死幻之森中": 8610,
      "跟我来": 8611,
      "紧紧的": 8612,
      "笼罩在": 8613,
      "普通的": 8614,
      "国家的": 8615,
      "打开了,": 8616,
      "一颗心": 8617,
      "偷偷地": 8618,
      "消失在了黑暗": 8619,
      "“小书,你": 8620,
      "形成的": 8621,
      "皇宫中": 8622,
      "‘失落之都’的": 8623,
      "低下了头:“": 8624,
      "身子一": 8625,
      "无形的": 8626,
      "艰难地": 8627,
      "艰难的": 8628,
      "剑心状态": 8629,
      "一身黑衣": 8630,
      "半个小时": 8631,
      "欧阳虎": 8632,
      "微微一笑:“": 8633,
      "昨天晚上": 8634,
      "转过头": 8635,
      "大开杀戒": 8636,
      "人心魄": 8637,
      "转身就走。": 8638,
      "不自觉的": 8639,
      "黑龙军": 8640,
      "‘风化城’": 8641,
      "如幽灵一般": 8642,
      "贝特大叔": 8643,
      "同归于尽": 8644,
      "一模一样": 8645,
      "约而同": 8646,
      "飓飚帝国": 8647,
      ",令": 8648,
      ",做": 8649,
      ",其": 8650,
      ",正": 8651,
      ",风": 8652,
      ",看着": 8653,
      ",带着": 8654,
      ",陈鱼": 8655,
      ",一个人": 8656,
      ",罗雁": 8657,
      ",别人": 8658,
      ",几乎": 8659,
      ",犬奴": 8660,
      ",暗黑经纪人": 8661,
      ",所有的": 8662,
      ",目前": 8663,
      ",它们": 8664,
      "?但": 8665,
      "‘西域江南国": 8666,
      "‘邪魔增殖大法": 8667,
      "’是": 8668,
      "“从": 8669,
      "“把": 8670,
      "“知道": 8671,
      "“她的": 8672,
      "“花火": 8673,
      "“无论": 8674,
      "“王八蛋": 8675,
      "“为什么要": 8676,
      "“干吗": 8677,
      "“两位": 8678,
      "”。": 8679,
      "一伸": 8680,
      "一刻": 8681,
      "一夜": 8682,
      "一抓": 8683,
      "一趟": 8684,
      "一齐": 8685,
      "一出,": 8686,
      "一笑,": 8687,
      "三章 ": 8688,
      "上下": 8689,
      "上我": 8690,
      "不下": 8691,
      "不开": 8692,
      "不愿": 8693,
      "不杀": 8694,
      "不相": 8695,
      "不离": 8696,
      "不希望": 8697,
      "不愿意": 8698,
      "专家": 8699,
      "丹田": 8700,
      "为圆": 8701,
      "主角": 8702,
      "举妄": 8703,
      "之翼": 8704,
      "之外,": 8705,
      "也开始": 8706,
      "也只有": 8707,
      "也随之": 8708,
      "了你的": 8709,
      "五十": 8710,
      "交待": 8711,
      "人员": 8712,
      "人都": 8713,
      "人间": 8714,
      "人?”": 8715,
      "从空中": 8716,
      "他要": 8717,
      "他已经": 8718,
      "他,他": 8719,
      "以外,": 8720,
      "仪式": 8721,
      "仰望着": 8722,
      "伸出了": 8723,
      "伸出一": 8724,
      "住。": 8725,
      "住在": 8726,
      "体会": 8727,
      "何必": 8728,
      "你来": 8729,
      "你一个人": 8730,
      "倒在": 8731,
      "假山": 8732,
      "像是": 8733,
      "全是": 8734,
      "几句": 8735,
      "几声": 8736,
      "出卖": 8737,
      "出鞘": 8738,
      "划过": 8739,
      "利的": 8740,
      "利益": 8741,
      "到哪儿": 8742,
      "前。": 8743,
      "剑术": 8744,
      "剑胎": 8745,
      "功能": 8746,
      "势,": 8747,
      "勃勃": 8748,
      "匆匆": 8749,
      "十字": 8750,
      "半步": 8751,
      "厕所": 8752,
      "去路": 8753,
      "去追": 8754,
      "去了,": 8755,
      "双脚": 8756,
      "发光": 8757,
      "受重伤": 8758,
      "口鲜血": 8759,
      "叫人": 8760,
      "可否": 8761,
      "吃掉": 8762,
      "吃饭": 8763,
      "名其": 8764,
      "后,我": 8765,
      "听说过": 8766,
      "告辞": 8767,
      "和你们": 8768,
      "哪个": 8769,
      "哪敢": 8770,
      "哽咽": 8771,
      "商行": 8772,
      "啊?”": 8773,
      "啊......": 8774,
      "喘气": 8775,
      "四条": 8776,
      "四章 ": 8777,
      "圆脸少女": 8778,
      "土术士": 8779,
      "在你们": 8780,
      "块圣晶": 8781,
      "增加": 8782,
      "处女": 8783,
      "多么": 8784,
      "多人": 8785,
      "夜空": 8786,
      "大作": 8787,
      "大口": 8788,
      "大战": 8789,
      "大约": 8790,
      "大了,": 8791,
      "大长老": 8792,
      "天灭": 8793,
      "夹击": 8794,
      "女人,": 8795,
      "她就": 8796,
      "宫殿": 8797,
      "寒意": 8798,
      "对她的": 8799,
      "小觑": 8800,
      "小妹妹": 8801,
      "小子,": 8802,
      "尚未": 8803,
      "就知道": 8804,
      "就在我": 8805,
      "山巅": 8806,
      "左边": 8807,
      "帮我": 8808,
      "平安": 8809,
      "年,": 8810,
      "开门": 8811,
      "张开了": 8812,
      "强光": 8813,
      "很少": 8814,
      "很大的": 8815,
      "得住": 8816,
      "得吓": 8817,
      "得非常": 8818,
      "微弱": 8819,
      "心理": 8820,
      "忍者": 8821,
      "忠告": 8822,
      "怀着": 8823,
      "恨恨": 8824,
      "悬在了": 8825,
      "想一想": 8826,
      "感激": 8827,
      "感受到": 8828,
      "我最": 8829,
      "我立即": 8830,
      "我一面": 8831,
      "战马": 8832,
      "打着": 8833,
      "扬起": 8834,
      "把你们": 8835,
      "抚养": 8836,
      "护在": 8837,
      "报答": 8838,
      "抵消": 8839,
      "拿出来": 8840,
      "挥了": 8841,
      "握住": 8842,
      "握紧了": 8843,
      "摇头道:“": 8844,
      "故事": 8845,
      "旁边": 8846,
      "无所谓": 8847,
      "时代": 8848,
      "时,我": 8849,
      "是血": 8850,
      "暗中": 8851,
      "暗叫": 8852,
      "暗示": 8853,
      "有事": 8854,
      "来找": 8855,
      "松开了": 8856,
      "极限": 8857,
      "欣赏": 8858,
      "歉意": 8859,
      "步伐": 8860,
      "残存": 8861,
      "殒星": 8862,
      "殿下": 8863,
      "毁了": 8864,
      "毁天灭": 8865,
      "沉吟": 8866,
      "没关系": 8867,
      "河流": 8868,
      "洞穿": 8869,
      "活动": 8870,
      "活生": 8871,
      "流传": 8872,
      "流泪": 8873,
      "浪费": 8874,
      "激动": 8875,
      "珍惜": 8876,
      "生灵": 8877,
      "由我": 8878,
      "男人的": 8879,
      "疾速": 8880,
      "瘟疫": 8881,
      "白白": 8882,
      "的冷": 8883,
      "的重": 8884,
      "的玲玲": 8885,
      "的痛苦": 8886,
      "的能力": 8887,
      "的王白帝": 8888,
      "的安全": 8889,
      "的目标": 8890,
      "相比": 8891,
      "眼。": 8892,
      "短短": 8893,
      "石头": 8894,
      "石棺": 8895,
      "神经": 8896,
      "祥的": 8897,
      "离去": 8898,
      "离我们": 8899,
      "空翻": 8900,
      "穿梭": 8901,
      "立身之处": 8902,
      "笑起来": 8903,
      "笑呵呵": 8904,
      "第五": 8905,
      "紫兽": 8906,
      "练成": 8907,
      "给你的": 8908,
      "老儿": 8909,
      "而去": 8910,
      "而行": 8911,
      "胸腔": 8912,
      "脱离": 8913,
      "自顾自": 8914,
      "舍弃": 8915,
      "苏醒": 8916,
      "藏身之处": 8917,
      "血洗": 8918,
      "衣角": 8919,
      "被他们": 8920,
      "要说": 8921,
      "见势": 8922,
      "觅着": 8923,
      "视线": 8924,
      "解印": 8925,
      "认真": 8926,
      "讯息": 8927,
      "试验": 8928,
      "说的,": 8929,
      "说了,我": 8930,
      "谁会": 8931,
      "谨慎": 8932,
      "象我": 8933,
      "走的": 8934,
      "走。”": 8935,
      "越大": 8936,
      "跑到": 8937,
      "身,": 8938,
      "躯体": 8939,
      "转移": 8940,
      "轻举妄": 8941,
      "迎着": 8942,
      "还未": 8943,
      "这一点": 8944,
      "进步": 8945,
      "连接": 8946,
      "迷惘": 8947,
      "造尸": 8948,
      "遇上": 8949,
      "遇见": 8950,
      "避免": 8951,
      "那儿": 8952,
      "那群": 8953,
      "那道": 8954,
      "那八个": 8955,
      "采取": 8956,
      "金魂": 8957,
      "错了": 8958,
      "长长": 8959,
      "长大的": 8960,
      "问。": 8961,
      "问我": 8962,
      "阁下": 8963,
      "阴影": 8964,
      "阴阳": 8965,
      "阿姨": 8966,
      "随风": 8967,
      "雪花": 8968,
      "面容": 8969,
      "鞭子": 8970,
      "顺便": 8971,
      "颤声道。": 8972,
      "飞到了": 8973,
      "骑士": 8974,
      "高度": 8975,
      "魔皿": 8976,
      "黑医": 8977,
      "黑洞": 8978,
      "默默": 8979,
      "。”山藏": 8980,
      "。”雷娜": 8981,
      ",我来": 8982,
      ",我这个": 8983,
      ",我也是": 8984,
      ",我自然": 8985,
      "!”洗仁鲜": 8986,
      "!”山藏": 8987,
      "一个问题": 8988,
      "一个小时": 8989,
      ",你不会": 8990,
      "我的一颗心": 8991,
      "已经有": 8992,
      "已经决定": 8993,
      ",但还是": 8994,
      "“我没有": 8995,
      "“我不是": 8996,
      "“我怎么": 8997,
      "“我不会": 8998,
      "的人物": 8999,
      "了。”他": 9000,
      "怎么回事": 9001,
      "如果我": 9002,
      "你们能": 9003,
      ",一条": 9004,
      ",一点": 9005,
      "南宫北。": 9006,
      ",那是因为": 9007,
      ",不再": 9008,
      "了一半": 9009,
      "的,就算": 9010,
      "的,而且": 9011,
      "的话,她": 9012,
      "的话,我们": 9013,
      "。”我咬着牙道。": 9014,
      "了!”齐琳": 9015,
      "不能让": 9016,
      "吧!”小书": 9017,
      "看着自己的": 9018,
      "声音。": 9019,
      "这么快": 9020,
      "这么厉害": 9021,
      "这么容易": 9022,
      ",如果能": 9023,
      "自己的生命": 9024,
      "“那我": 9025,
      "在这种": 9026,
      "离开了,": 9027,
      "离开失落之都": 9028,
      ",所以我们": 9029,
      "夏怒。": 9030,
      "竟然还": 9031,
      "的声音:“": 9032,
      "的声音突然": 9033,
      "战斗能量": 9034,
      "的一颗心": 9035,
      "不知道为什么": 9036,
      "希望我能": 9037,
      "一声怒吼": 9038,
      "说话。": 9039,
      "原来的": 9040,
      "刚才我": 9041,
      ",而且是": 9042,
      "神秘少女": 9043,
      "水晶城": 9044,
      "紫电的": 9045,
      "相信我": 9046,
      "是一件": 9047,
      "一切手段": 9048,
      "魔王复活": 9049,
      "佣兵们": 9050,
      "永远都不会": 9051,
      "诸葛大人": 9052,
      "我和冯德": 9053,
      "的手段": 9054,
      ",再说了": 9055,
      "今天晚上": 9056,
      "我一咬牙": 9057,
      "就不用": 9058,
      "记忆封印": 9059,
      "身形一动": 9060,
      "必须得": 9061,
      "十二个": 9062,
      "移动速度": 9063,
      "的看着我。": 9064,
      "的老人": 9065,
      "的老头": 9066,
      "我的身体。": 9067,
      "长城财阀": 9068,
      "数十道": 9069,
      "有一种说不出的": 9070,
      "“但是": 9071,
      "“谁说": 9072,
      ",别说": 9073,
      ",无论如何": 9074,
      "向后退": 9075,
      "昆仑山": 9076,
      "脸上的表情": 9077,
      "我所料": 9078,
      "接触到": 9079,
      "百分之九十": 9080,
      "另一端": 9081,
      "我心头": 9082,
      "“看来你": 9083,
      "人类的": 9084,
      "的地步": 9085,
      "无奈的": 9086,
      ",一定会": 9087,
      "骷髅兵与": 9088,
      "而出。": 9089,
      "一字一句的道。": 9090,
      "已经没有了": 9091,
      "小心翼翼的": 9092,
      "保持着": 9093,
      "十多个": 9094,
      "黄衫少女": 9095,
      "野望大陆国": 9096,
      "气势汹汹": 9097,
      "陌生人": 9098,
      "影子保镖": 9099,
      "螺旋流沙地狱": 9100,
      "这时我才发现": 9101,
      "停住了脚步": 9102,
      "照明魔晶": 9103,
      "去死吧!”": 9104,
      "闭上眼睛": 9105,
      "两片树叶": 9106,
      "了下去。": 9107,
      "升龙梯": 9108,
      "万丈深渊": 9109,
      "天绝六脉之体": 9110,
      "贵宾房": 9111,
      "清水宫": 9112,
      "毁天灭地": 9113,
      "!那": 9114,
      "!这个": 9115,
      ",白": 9116,
      ",算": 9117,
      ",什么": 9118,
      ",开始": 9119,
      ",时间": 9120,
      ",准备": 9121,
      ",超梦六杀": 9122,
      ",果然": 9123,
      ",另一": 9124,
      ",最重要": 9125,
      ",直到": 9126,
      "C组": 9127,
      "‘飞": 9128,
      "‘超级": 9129,
      "‘医家": 9130,
      "“以": 9131,
      "“再": 9132,
      "“当": 9133,
      "“请": 9134,
      "“还是": 9135,
      "“邪都": 9136,
      "“死之炉": 9137,
      "“只要": 9138,
      "“地狱": 9139,
      "“讨厌": 9140,
      "“在下": 9141,
      "“谢谢": 9142,
      "“无论如何": 9143,
      "”中": 9144,
      "一体": 9145,
      "一旁": 9146,
      "一群": 9147,
      "一边": 9148,
      "一无所": 9149,
      "万一": 9150,
      "上身": 9151,
      "下坠": 9152,
      "下落": 9153,
      "下面": 9154,
      "不择": 9155,
      "不着": 9156,
      "不经": 9157,
      "不清楚": 9158,
      "与‘": 9159,
      "与我的": 9160,
      "与夏怒": 9161,
      "两年": 9162,
      "两种": 9163,
      "中招": 9164,
      "丰满": 9165,
      "临时": 9166,
      "为她": 9167,
      "之乱": 9168,
      "之色的": 9169,
      "了的": 9170,
      "了出去": 9171,
      "享受": 9172,
      "人质": 9173,
      "今生": 9174,
      "从那": 9175,
      "从我的": 9176,
      "休想": 9177,
      "会在": 9178,
      "会是什么": 9179,
      "传来的": 9180,
      "传来。": 9181,
      "伤疤": 9182,
      "伸出": 9183,
      "位列": 9184,
      "住手": 9185,
      "你去": 9186,
      "你快": 9187,
      "你有": 9188,
      "你可以": 9189,
      "你应该": 9190,
      "修长": 9191,
      "倒飞": 9192,
      "倒在了": 9193,
      "兄妹": 9194,
      "光火": 9195,
      "全书": 9196,
      "八道": 9197,
      "八千年前": 9198,
      "公里": 9199,
      "养女": 9200,
      "内脏": 9201,
      "再见": 9202,
      "冒死": 9203,
      "冒着": 9204,
      "冰凉": 9205,
      "冰虫": 9206,
      "冲到了": 9207,
      "决战": 9208,
      "凝视": 9209,
      "几年": 9210,
      "凶残": 9211,
      "出入": 9212,
      "分离": 9213,
      "刹时": 9214,
      "剑浪": 9215,
      "力,": 9216,
      "办到": 9217,
      "加快": 9218,
      "加入了": 9219,
      "化解": 9220,
      "千钧": 9221,
      "半身": 9222,
      "却有": 9223,
      "却已经": 9224,
      "厉声道:“": 9225,
      "厮杀": 9226,
      "又能": 9227,
      "又道:“": 9228,
      "双腕": 9229,
      "只见": 9230,
      "右额": 9231,
      "同行": 9232,
      "后代": 9233,
      "后面的": 9234,
      "呜呜": 9235,
      "呢?我": 9236,
      "和小书": 9237,
      "和商岚妍": 9238,
      "喧哗": 9239,
      "喷射": 9240,
      "喷出一": 9241,
      "嗤嗤": 9242,
      "嘶哑": 9243,
      "器官": 9244,
      "四面": 9245,
      "围剿": 9246,
      "圆之夜": 9247,
      "在他们": 9248,
      "在自己的": 9249,
      "在阳光": 9250,
      "地说": 9251,
      "地里": 9252,
      "坚强": 9253,
      "垃圾": 9254,
      "城的": 9255,
      "境界": 9256,
      "多的": 9257,
      "大事": 9258,
      "大吼": 9259,
      "大堆": 9260,
      "大汗": 9261,
      "大大的": 9262,
      "天亮": 9263,
      "天赋": 9264,
      "失控": 9265,
      "失望": 9266,
      "奔跑": 9267,
      "好意": 9268,
      "好自": 9269,
      "好起来": 9270,
      "好了!": 9271,
      "好厉害": 9272,
      "妻子": 9273,
      "姓冯": 9274,
      "孤孤": 9275,
      "守在": 9276,
      "完美的": 9277,
      "实体": 9278,
      "密密": 9279,
      "对抗": 9280,
      "对南宫北": 9281,
      "将自己的": 9282,
      "小哥": 9283,
      "小国": 9284,
      "就没有": 9285,
      "属性": 9286,
      "巨树": 9287,
      "巴烂": 9288,
      "布满": 9289,
      "常常": 9290,
      "平息": 9291,
      "幸运": 9292,
      "异变": 9293,
      "弟弟": 9294,
      "张队长": 9295,
      "得快": 9296,
      "得粉碎": 9297,
      "心动": 9298,
      "忍受": 9299,
      "怀里": 9300,
      "怕你": 9301,
      "怨毒": 9302,
      "怪我": 9303,
      "情绪": 9304,
      "想用": 9305,
      "想太多": 9306,
      "惶恐": 9307,
      "感到": 9308,
      "我爹": 9309,
      "我这": 9310,
      "我虽然": 9311,
      "战龙": 9312,
      "所到": 9313,
      "所言": 9314,
      "手臂": 9315,
      "打击": 9316,
      "打听": 9317,
      "打扮": 9318,
      "把手": 9319,
      "抗拒": 9320,
      "抬着": 9321,
      "接道。": 9322,
      "掩饰": 9323,
      "提着": 9324,
      "握在": 9325,
      "撑着": 9326,
      "整片": 9327,
      "无可": 9328,
      "无影": 9329,
      "早晚": 9330,
      "时,我们": 9331,
      "明亮": 9332,
      "昨晚": 9333,
      "是从": 9334,
      "是由": 9335,
      "是真的": 9336,
      "是属于": 9337,
      "显得": 9338,
      "暖流": 9339,
      "暗之翼": 9340,
      "暴露": 9341,
      "曝露": 9342,
      "替你们": 9343,
      "最初": 9344,
      "木术士": 9345,
      "本体": 9346,
      "杀意": 9347,
      "来了,": 9348,
      "来到了": 9349,
      "某个": 9350,
      "某些": 9351,
      "标志": 9352,
      "梦中": 9353,
      "森森": 9354,
      "欣喜": 9355,
      "武剑圣": 9356,
      "死的人": 9357,
      "死了,我": 9358,
      "每个人": 9359,
      "气体": 9360,
      "气质": 9361,
      "水炮": 9362,
      "沙墙": 9363,
      "河水": 9364,
      "活下去,": 9365,
      "消灭": 9366,
      "深不可": 9367,
      "清脆": 9368,
      "源源": 9369,
      "火山": 9370,
      "火炎": 9371,
      "点,": 9372,
      "烈的": 9373,
      "煞白": 9374,
      "燕都": 9375,
      "爬起来": 9376,
      "狂笑": 9377,
      "独门": 9378,
      "猝防": 9379,
      "玩弄": 9380,
      "环顾": 9381,
      "甘心": 9382,
      "甜言": 9383,
      "痴痴": 9384,
      "白光": 9385,
      "百科": 9386,
      "的势": 9387,
      "的还是": 9388,
      "的死亡": 9389,
      "的罗雁": 9390,
      "的普竹": 9391,
      "的秘密": 9392,
      "的十六姐": 9393,
      "的可能性": 9394,
      "看他": 9395,
      "看出": 9396,
      "看过": 9397,
      "看别人的": 9398,
      "看不清": 9399,
      "真空": 9400,
      "眼皮": 9401,
      "着嘴": 9402,
      "着自己": 9403,
      "石化": 9404,
      "石板": 9405,
      "石桥": 9406,
      "研究": 9407,
      "稀巴烂": 9408,
      "立在": 9409,
      "站住": 9410,
      "站在我": 9411,
      "竟会": 9412,
      "竟有": 9413,
      "笑话": 9414,
      "等着我": 9415,
      "简朴": 9416,
      "粗暴": 9417,
      "粗鲁": 9418,
      "精光": 9419,
      "系统": 9420,
      "紧身": 9421,
      "红了。": 9422,
      "组合": 9423,
      "缓冲": 9424,
      "缚鸡": 9425,
      "罢休": 9426,
      "老树": 9427,
      "老三界": 9428,
      "者,": 9429,
      "而无": 9430,
      "耳光": 9431,
      "胆小": 9432,
      "背负": 9433,
      "胡乱": 9434,
      "胡言": 9435,
      "胴体": 9436,
      "膨胀": 9437,
      "自私": 9438,
      "舌头": 9439,
      "苦苦": 9440,
      "莫名其": 9441,
      "落炮": 9442,
      "葬身": 9443,
      "蜜语": 9444,
      "行刺": 9445,
      "被迫": 9446,
      "被我们": 9447,
      "被齐琳": 9448,
      "被南宫北": 9449,
      "要我": 9450,
      "计算": 9451,
      "识破": 9452,
      "话题": 9453,
      "说这个": 9454,
      "说句实话": 9455,
      "谎言": 9456,
      "贱人,": 9457,
      "越快": 9458,
      "跟着我": 9459,
      "跳跃": 9460,
      "踪影": 9461,
      "身受重伤": 9462,
      "这两": 9463,
      "这......": 9464,
      "这剑玄录": 9465,
      "进来的": 9466,
      "连环": 9467,
      "都不是": 9468,
      "重谢": 9469,
      "金妖": 9470,
      "金属": 9471,
      "闪身": 9472,
      "院子": 9473,
      "青竹": 9474,
      "领着": 9475,
      "飘荡": 9476,
      "马屁": 9477,
      "骗子": 9478,
      "高温": 9479,
      "高空": 9480,
      "高速": 9481,
      "魔头": 9482,
      "麻痹": 9483,
      "麻麻": 9484,
      "。”那": 9485,
      "。”黑雷": 9486,
      "。”周静": 9487,
      ",我不是": 9488,
      ",我不会": 9489,
      ",我看你": 9490,
      "!”“": 9491,
      "!”邪牙": 9492,
      "!”哈兹无尔": 9493,
      "我们已经": 9494,
      ":“周宁": 9495,
      "一个字": 9496,
      "这个女人": 9497,
      "没有想到": 9498,
      "没有理会": 9499,
      "我的同伴": 9500,
      ",他也": 9501,
      "“我也": 9502,
      "“我要": 9503,
      "“我虽然": 9504,
      "突然一": 9505,
      "突然听到了": 9506,
      "就是我的": 9507,
      ",这就": 9508,
      "怎么说": 9509,
      "可以算是": 9510,
      "如果你": 9511,
      "中的‘": 9512,
      ",一下": 9513,
      ",那种": 9514,
      "的,而": 9515,
      "的,难道": 9516,
      "吗?”南宫北": 9517,
      "出来了,": 9518,
      "她的父亲": 9519,
      "黑衣男子": 9520,
      "那个王八蛋": 9521,
      "看着我。": 9522,
      ",如果她": 9523,
      "超级高手": 9524,
      "带着我": 9525,
      "不过我": 9526,
      "不知道应该": 9527,
      "可是我": 9528,
      "无法看清": 9529,
      ",不过你": 9530,
      ",不过这": 9531,
      "陈鱼姑娘": 9532,
      "地上。": 9533,
      "是什么意思?”": 9534,
      "这个世界上的": 9535,
      ",我就已经": 9536,
      "喜欢你": 9537,
      ",但我想": 9538,
      "都不敢": 9539,
      "都不肯": 9540,
      "微笑道:“": 9541,
      "第二个": 9542,
      "我不想": 9543,
      "咬着牙道:“": 9544,
      "的剑浪": 9545,
      "那么简单": 9546,
      "闪电般": 9547,
      "的笑了起来。": 9548,
      "厉害的": 9549,
      "不知什么时候": 9550,
      "不知不觉": 9551,
      "空气中的": 9552,
      "“好了,": 9553,
      "“好吧!": 9554,
      "全身的": 9555,
      "“什么意思": 9556,
      "果然如": 9557,
      ",我也不会": 9558,
      ",只要你": 9559,
      "精神世界": 9560,
      "精神能量": 9561,
      "着一把": 9562,
      "“可是我": 9563,
      "出现在了": 9564,
      ",对于": 9565,
      "就好了。”": 9566,
      "骷髅巨": 9567,
      "“如果你": 9568,
      "唯一能": 9569,
      "头顶的": 9570,
      "她们的": 9571,
      "眼前的": 9572,
      "四大霸": 9573,
      "第一部 初庐篇 第二": 9574,
      "比较好": 9575,
      "行动能力": 9576,
      "死去的": 9577,
      "的黑发": 9578,
      "的黑杀": 9579,
      "成功率": 9580,
      "可怕的": 9581,
      "开口了。": 9582,
      "“老公,": 9583,
      ",难道你": 9584,
      "了开来": 9585,
      "了开来。": 9586,
      "金发紫": 9587,
      "什么都不知道": 9588,
      "制造的": 9589,
      "脸上的笑容": 9590,
      ",两道": 9591,
      "体内的剑玄之气": 9592,
      "摇了摇头。": 9593,
      "气海中": 9594,
      "流星丛林": 9595,
      "掠过一丝": 9596,
      "说到这里": 9597,
      ",这一招": 9598,
      "十二贤者的": 9599,
      "不对劲": 9600,
      "液体中的": 9601,
      "老人们": 9602,
      "“对了,": 9603,
      "想到了什么": 9604,
      "根本就不可能": 9605,
      "黄色气虎": 9606,
      "炸了开来": 9607,
      "藏剑族": 9608,
      "松了一口气。": 9609,
      "一脚踢": 9610,
      "有缘人": 9611,
      "转过身": 9612,
      "连续技": 9613,
      "无名真气": 9614,
      "后退。": 9615,
      "年青男子": 9616,
      "米左右的": 9617,
      ",只是一瞬间": 9618,
      "泪流满面": 9619,
      "眼睁睁的看着": 9620,
      "斩钉截铁地道。": 9621,
      "“飞鸟巢”": 9622,
      "仅仅是": 9623,
      "抬起头": 9624,
      "极度危险": 9625,
      "海牙财阀": 9626,
      "受了伤": 9627,
      "四道神器": 9628,
      "诅咒者": 9629,
      "二十四小时": 9630,
      "幽幽的叹了一口气。": 9631,
      "幽梅庵主": 9632,
      "硬生生地": 9633,
      "一发之际": 9634,
      "冥月城": 9635,
      "撒哈拉沙漠": 9636,
      "然大悟": 9637,
      "‘超梦六杀’": 9638,
      "基本上": 9639,
      "穷追不舍": 9640,
      "雕虫小技": 9641,
      "十字斩": 9642,
      "挥了挥": 9643,
      "暗叫不妙": 9644,
      "轻举妄动": 9645,
      "骷髅兵与丧尸": 9646,
      "密密麻麻": 9647,
      "深不可测": 9648,
      "猝防不及": 9649,
      "甜言蜜语": 9650,
      "百科全书": 9651,
      "缚鸡之力": 9652,
      "!而": 9653,
      ",会": 9654,
      ",像": 9655,
      ",手": 9656,
      ",满": 9657,
      ",邪都": 9658,
      ",脸上": 9659,
      ",安杰尔": 9660,
      ",老公": 9661,
      ",杨光": 9662,
      ",令人": 9663,
      ",闪电一般": 9664,
      ",听说": 9665,
      ",整个人": 9666,
      ",幸好": 9667,
      ";二": 9668,
      "?如果": 9669,
      "‘变身": 9670,
      "‘百科全书": 9671,
      "“慢": 9672,
      "“走": 9673,
      "“就算": 9674,
      "“师弟": 9675,
      "“哈哈": 9676,
      "“帅哥": 9677,
      "“剑魔吸": 9678,
      "“对不起,": 9679,
      "、魔族": 9680,
      "一会": 9681,
      "一搏": 9682,
      "一方": 9683,
      "一死": 9684,
      "一秒": 9685,
      "一开始": 9686,
      "一分钟": 9687,
      "一回事": 9688,
      "七天": 9689,
      "丈夫": 9690,
      "三千年": 9691,
      "上升": 9692,
      "上,我": 9693,
      "下沉": 9694,
      "下流": 9695,
      "下,我们": 9696,
      "不信": 9697,
      "不来": 9698,
      "不满": 9699,
      "不绝": 9700,
      "不让": 9701,
      "不语": 9702,
      "不忍心": 9703,
      "不祥的": 9704,
      "与魔族": 9705,
      "世人": 9706,
      "两分": 9707,
      "中魔焚毁杀": 9708,
      "为自己": 9709,
      "主人,": 9710,
      "久不见": 9711,
      "之光": 9712,
      "乎乎": 9713,
      "九岁": 9714,
      "九阴": 9715,
      "九章 ": 9716,
      "也算": 9717,
      "也罢": 9718,
      "也已经": 9719,
      "乱七八": 9720,
      "了半": 9721,
      "了就": 9722,
      "了扶": 9723,
      "了他们": 9724,
      "了?我": 9725,
      "了出去。": 9726,
      "争夺": 9727,
      "于死": 9728,
      "五道": 9729,
      "五分钟": 9730,
      "人影": 9731,
      "仇恨": 9732,
      "从她的": 9733,
      "从这个世界上": 9734,
      "仔细": 9735,
      "他没有": 9736,
      "令我们": 9737,
      "令我不": 9738,
      "仿似": 9739,
      "会议": 9740,
      "伪装": 9741,
      "似的。": 9742,
      "但是": 9743,
      "低声": 9744,
      "何处": 9745,
      "余帆": 9746,
      "你又": 9747,
      "你那": 9748,
      "你了,": 9749,
      "你......": 9750,
      "你一个": 9751,
      "侥幸": 9752,
      "借种": 9753,
      "偏偏": 9754,
      "像中的": 9755,
      "僵硬": 9756,
      "光柱": 9757,
      "入住": 9758,
      "全无": 9759,
      "八方": 9760,
      "其它": 9761,
      "其中,": 9762,
      "冒出": 9763,
      "冬杀": 9764,
      "冯兄": 9765,
      "冯哥哥": 9766,
      "冲着": 9767,
      "冷汗": 9768,
      "凌乱的": 9769,
      "几人": 9770,
      "凭空": 9771,
      "凭什么": 9772,
      "出剑": 9773,
      "出奇的": 9774,
      "刚想": 9775,
      "前后": 9776,
      "剑刃": 9777,
      "剑茧": 9778,
      "剑阵": 9779,
      "加重": 9780,
      "动人心魄": 9781,
      "勇气": 9782,
      "半年前": 9783,
      "华服": 9784,
      "却如": 9785,
      "却不是": 9786,
      "历史": 9787,
      "厚的": 9788,
      "原本": 9789,
      "又要": 9790,
      "又是一": 9791,
      "反抗": 9792,
      "口同": 9793,
      "可真": 9794,
      "可见": 9795,
      "吃东西": 9796,
      "各个": 9797,
      "各自": 9798,
      "向外": 9799,
      "向袁茵": 9800,
      "向前方": 9801,
      "向上一": 9802,
      "听得": 9803,
      "听话": 9804,
      "命,": 9805,
      "和别人": 9806,
      "咯咯": 9807,
      "喷出": 9808,
      "嚎叫": 9809,
      "四字": 9810,
      "回头,": 9811,
      "围观": 9812,
      "在黑暗": 9813,
      "在风中": 9814,
      "在空气中": 9815,
      "地面的": 9816,
      "地叹了一口气。": 9817,
      "坐在了": 9818,
      "坚硬": 9819,
      "城卫队": 9820,
      "堂中": 9821,
      "大雨": 9822,
      "大都会": 9823,
      "天底下": 9824,
      "失明": 9825,
      "头也不": 9826,
      "头乌龟": 9827,
      "她又": 9828,
      "她自己": 9829,
      "好歹": 9830,
      "如意": 9831,
      "如焚": 9832,
      "嫁给": 9833,
      "学习": 9834,
      "孵化": 9835,
      "完结": 9836,
      "实的": 9837,
      "对此": 9838,
      "对他们": 9839,
      "导士": 9840,
      "将头": 9841,
      "将自己": 9842,
      "将手中的": 9843,
      "将剑玄之气": 9844,
      "小楼": 9845,
      "小时,": 9846,
      "尖枪": 9847,
      "工具": 9848,
      "左掌": 9849,
      "巨响": 9850,
      "巨响,": 9851,
      "差不多": 9852,
      "巴掌": 9853,
      "布条": 9854,
      "师祖": 9855,
      "带上": 9856,
      "带到": 9857,
      "带回": 9858,
      "带我": 9859,
      "幸亏": 9860,
      "幻觉": 9861,
      "异口同": 9862,
      "张牙": 9863,
      "弹了起来,": 9864,
      "强自": 9865,
      "当成": 9866,
      "当我是": 9867,
      "形成了": 9868,
      "形成了一个": 9869,
      "待女": 9870,
      "很可能": 9871,
      "很显然": 9872,
      "很明显": 9873,
      "得知": 9874,
      "得罪": 9875,
      "心裂": 9876,
      "必定": 9877,
      "忍着": 9878,
      "忐忑": 9879,
      "怀中,": 9880,
      "急败": 9881,
      "总长": 9882,
      "恍然大悟": 9883,
      "悬浮": 9884,
      "惊人": 9885,
      "惊愕": 9886,
      "想不通": 9887,
      "愦憾": 9888,
      "愿望": 9889,
      "懦弱": 9890,
      "成两": 9891,
      "我只": 9892,
      "我得": 9893,
      "我!”": 9894,
      "我自己的": 9895,
      "我一定会": 9896,
      "截然": 9897,
      "扛着": 9898,
      "执行": 9899,
      "扶了扶": 9900,
      "投向了": 9901,
      "抗衡": 9902,
      "抢夺": 9903,
      "抢走": 9904,
      "抱住了": 9905,
      "拳头。": 9906,
      "据我所": 9907,
      "接下": 9908,
      "提到": 9909,
      "提起": 9910,
      "搞不好": 9911,
      "摇头": 9912,
      "撕心裂": 9913,
      "收缩": 9914,
      "攻向": 9915,
      "放射": 9916,
      "放眼": 9917,
      "救不了": 9918,
      "数量": 9919,
      "方位": 9920,
      "旅馆": 9921,
      "无措": 9922,
      "无路": 9923,
      "无踪": 9924,
      "无需": 9925,
      "日的": 9926,
      "明亮的": 9927,
      "是来": 9928,
      "是可以": 9929,
      "是如此": 9930,
      "晚姐姐": 9931,
      "暗道": 9932,
      "暴发": 9933,
      "曾说过": 9934,
      "有过": 9935,
      "有限": 9936,
      "有任何": 9937,
      "有兴致": 9938,
      "木偶": 9939,
      "未来的": 9940,
      "本领": 9941,
      "机率": 9942,
      "松开": 9943,
      "松懈": 9944,
      "极有": 9945,
      "梅竹": 9946,
      "欢迎": 9947,
      "欺人": 9948,
      "此言": 9949,
      "死掉": 9950,
      "比你": 9951,
      "气脉": 9952,
      "气龙": 9953,
      "气急败": 9954,
      "污秽": 9955,
      "没完": 9956,
      "沸腾": 9957,
      "治愈": 9958,
      "流着": 9959,
      "流了下来": 9960,
      "流露出": 9961,
      "浓郁": 9962,
      "涟漪": 9963,
      "潮水": 9964,
      "激怒": 9965,
      "火势": 9966,
      "炎阵": 9967,
      "炸开": 9968,
      "炸弹": 9969,
      "点。": 9970,
      "然道。": 9971,
      "牢房": 9972,
      "牵挂": 9973,
      "狂跳": 9974,
      "狗一样": 9975,
      "狼狈": 9976,
      "现场": 9977,
      "理想": 9978,
      "琳丫头": 9979,
      "瓜子": 9980,
      "生意": 9981,
      "生还": 9982,
      "电光火": 9983,
      "疼痛": 9984,
      "病人": 9985,
      "的吼": 9986,
      "的爱": 9987,
      "的钱": 9988,
      "的,他": 9989,
      "的洗仁鲜": 9990,
      "的站在": 9991,
      "的成员": 9992,
      "的却是": 9993,
      "的游戏": 9994,
      "的白龙": 9995,
      "的宝物": 9996,
      "的名字": 9997,
      "的梦想": 9998,
      "的想法": 9999
    },
    "merges": [
      [
        ".",
        "."
      ],
      [
        "。",
        "”"
      ],
      [
        ",",
        "我"
      ],
      [
        "..",
        ".."
      ],
      [
        "!",
        "”"
      ],
      [
        "?",
        "”"
      ],
      [
        "道",
        "。"
      ],
      [
        "了",
        ","
      ],
      [
        "我",
        "们"
      ],
      [
        "什",
        "么"
      ],
      [
        ":",
        "“"
      ],
      [
        "....",
        ".."
      ],
      [
        "一",
        "个"
      ],
      [
        ",",
        "你"
      ],
      [
        "这",
        "个"
      ],
      [
        "没",
        "有"
      ],
      [
        "袁",
        "茵"
      ],
      [
        "我",
        "的"
      ],
      [
        "已",
        "经"
      ],
      [
        ",",
        "但"
      ],
      [
        "现",
        "在"
      ],
      [
        "自",
        "己"
      ],
      [
        ",",
        "他"
      ],
      [
        "知",
        "道"
      ],
      [
        "齐",
        "琳"
      ],
      [
        "小",
        "书"
      ],
      [
        "“",
        "我"
      ],
      [
        "的",
        "人"
      ],
      [
        "不",
        "是"
      ],
      [
        "......",
        "”"
      ],
      [
        "突",
        "然"
      ],
      [
        "“",
        "你"
      ],
      [
        "就",
        "是"
      ],
      [
        "了",
        "。”"
      ],
      [
        "冯",
        "德"
      ],
      [
        ",",
        "这"
      ],
      [
        "怎",
        "么"
      ],
      [
        "可",
        "以"
      ],
      [
        "他",
        "们"
      ],
      [
        "如",
        "果"
      ],
      [
        "到",
        "了"
      ],
      [
        "中",
        "的"
      ],
      [
        "不",
        "会"
      ],
      [
        "老",
        "大"
      ],
      [
        ",",
        "她"
      ],
      [
        "你",
        "们"
      ],
      [
        ",",
        "一"
      ],
      [
        ",我",
        "们"
      ],
      [
        "南",
        "宫"
      ],
      [
        "道",
        ":“"
      ],
      [
        "南宫",
        "北"
      ],
      [
        ",",
        "那"
      ],
      [
        ",",
        "不"
      ],
      [
        "身",
        "体"
      ],
      [
        "了",
        "一"
      ],
      [
        "因",
        "为"
      ],
      [
        "的",
        ","
      ],
      [
        "的",
        "话"
      ],
      [
        "吗",
        "?”"
      ],
      [
        "的",
        "。”"
      ],
      [
        "起",
        "来"
      ],
      [
        "这",
        "样"
      ],
      [
        "世",
        "界"
      ],
      [
        "一",
        "定"
      ],
      [
        "了",
        "。"
      ],
      [
        "他",
        "的"
      ],
      [
        "虽",
        "然"
      ],
      [
        ",",
        "而"
      ],
      [
        "出",
        "来"
      ],
      [
        "她",
        "的"
      ],
      [
        "黑",
        "衣"
      ],
      [
        "你",
        "的"
      ],
      [
        "地",
        "道。"
      ],
      [
        "还",
        "是"
      ],
      [
        "人",
        "的"
      ],
      [
        ",",
        "就"
      ],
      [
        "“",
        "不"
      ],
      [
        "所",
        "以"
      ],
      [
        "那",
        "个"
      ],
      [
        "。”",
        "我"
      ],
      [
        "了",
        "!”"
      ],
      [
        "不",
        "能"
      ],
      [
        "吧",
        "!”"
      ],
      [
        "可",
        "能"
      ],
      [
        "看",
        "着"
      ],
      [
        "声",
        "音"
      ],
      [
        "在",
        "了"
      ],
      [
        "都",
        "是"
      ],
      [
        ",",
        "只"
      ],
      [
        "剑",
        "玄"
      ],
      [
        "不",
        "要"
      ],
      [
        "这",
        "么"
      ],
      [
        "一",
        "般"
      ],
      [
        "的",
        "我"
      ],
      [
        "邪",
        "牙"
      ],
      [
        "一",
        "下"
      ],
      [
        "吧",
        "!"
      ],
      [
        ",",
        "如果"
      ],
      [
        "?”",
        "我"
      ],
      [
        "开",
        "始"
      ],
      [
        "少",
        "女"
      ],
      [
        "自己",
        "的"
      ],
      [
        "“",
        "那"
      ],
      [
        "一",
        "直"
      ],
      [
        "在",
        "这"
      ],
      [
        "吗",
        "?"
      ],
      [
        "魔",
        "族"
      ],
      [
        "色",
        "的"
      ],
      [
        ",",
        "也"
      ],
      [
        "西",
        "门"
      ],
      [
        "“",
        "老大"
      ],
      [
        "离",
        "开"
      ],
      [
        "还",
        "有"
      ],
      [
        "的",
        "道。"
      ],
      [
        "上",
        "的"
      ],
      [
        "下",
        "来"
      ],
      [
        "了",
        ",我"
      ],
      [
        "一",
        "点"
      ],
      [
        "了",
        "!"
      ],
      [
        "应",
        "该"
      ],
      [
        "为",
        "什么"
      ],
      [
        "时",
        "候"
      ],
      [
        "中",
        ","
      ],
      [
        "小",
        "茵"
      ],
      [
        "断",
        "天"
      ],
      [
        "西门",
        "断天"
      ],
      [
        "了",
        "起来"
      ],
      [
        "魔",
        "法"
      ],
      [
        ",",
        "所以"
      ],
      [
        "非",
        "常"
      ],
      [
        "后",
        ","
      ],
      [
        "立",
        "即"
      ],
      [
        "夏",
        "怒"
      ],
      [
        "竟",
        "然"
      ],
      [
        "只",
        "是"
      ],
      [
        "的",
        "声音"
      ],
      [
        "为",
        "了"
      ],
      [
        "黑",
        "暗"
      ],
      [
        "真",
        "的"
      ],
      [
        "二",
        "号"
      ],
      [
        "眼",
        "睛"
      ],
      [
        "战",
        "斗"
      ],
      [
        "超",
        "级"
      ],
      [
        "一",
        "面"
      ],
      [
        "真",
        "是"
      ],
      [
        "不",
        "到"
      ],
      [
        "的",
        "一"
      ],
      [
        "也",
        "是"
      ],
      [
        "失",
        "落"
      ],
      [
        "只",
        "有"
      ],
      [
        "带",
        "着"
      ],
      [
        "不",
        "过"
      ],
      [
        "不",
        "知道"
      ],
      [
        "超",
        "梦"
      ],
      [
        "发",
        "现"
      ],
      [
        "身",
        "上"
      ],
      [
        "岚",
        "妍"
      ],
      [
        "这",
        "种"
      ],
      [
        "商",
        "岚妍"
      ],
      [
        "可",
        "是"
      ],
      [
        "无",
        "法"
      ],
      [
        "其",
        "实"
      ],
      [
        ",他",
        "们"
      ],
      [
        ",",
        "在"
      ],
      [
        "两",
        "个"
      ],
      [
        "的",
        "是"
      ],
      [
        "大",
        "的"
      ],
      [
        "笑",
        "道。"
      ],
      [
        "“",
        "这"
      ],
      [
        "东",
        "西"
      ],
      [
        "失落",
        "之"
      ],
      [
        "瞬",
        "间"
      ],
      [
        "黑",
        "雷"
      ],
      [
        "难",
        "道"
      ],
      [
        "消",
        "失"
      ],
      [
        "人",
        ","
      ],
      [
        "时",
        "间"
      ],
      [
        "希",
        "望"
      ],
      [
        "绿",
        "莹"
      ],
      [
        "完",
        "全"
      ],
      [
        "当",
        "然"
      ],
      [
        "自",
        "然"
      ],
      [
        "不",
        "住"
      ],
      [
        "头",
        "。"
      ],
      [
        ",不",
        "过"
      ],
      [
        "时",
        ","
      ],
      [
        "!”",
        "我"
      ],
      [
        "起",
        "了"
      ],
      [
        "似",
        "乎"
      ],
      [
        "地",
        "方"
      ],
      [
        "失落之",
        "都"
      ],
      [
        "感",
        "觉"
      ],
      [
        "让",
        "我"
      ],
      [
        "人",
        "家"
      ],
      [
        "手",
        "中"
      ],
      [
        "看",
        "来"
      ],
      [
        "任",
        "何"
      ],
      [
        "去",
        ","
      ],
      [
        "陈",
        "鱼"
      ],
      [
        "告",
        "诉"
      ],
      [
        "男",
        "子"
      ],
      [
        "我们",
        "的"
      ],
      [
        "对",
        "我"
      ],
      [
        "成",
        "了"
      ],
      [
        "住",
        "了"
      ],
      [
        "一",
        "声"
      ],
      [
        "声",
        "道。"
      ],
      [
        "心",
        "中"
      ],
      [
        "的",
        "事"
      ],
      [
        "一个",
        "人"
      ],
      [
        "第",
        "一"
      ],
      [
        "男",
        "人"
      ],
      [
        "在",
        "一"
      ],
      [
        "剑玄",
        "录"
      ],
      [
        "这",
        "一"
      ],
      [
        "出",
        "了"
      ],
      [
        "终",
        "于"
      ],
      [
        "说",
        "话"
      ],
      [
        "邪",
        "都"
      ],
      [
        "出",
        "手"
      ],
      [
        "是",
        "我"
      ],
      [
        "玲",
        "玲"
      ],
      [
        "着",
        "我"
      ],
      [
        "地",
        "上"
      ],
      [
        "是",
        "什么"
      ],
      [
        "原",
        "来"
      ],
      [
        "进",
        "入"
      ],
      [
        "也",
        "不"
      ],
      [
        "仁",
        "鲜"
      ],
      [
        "在",
        "我"
      ],
      [
        "大",
        "家"
      ],
      [
        "所",
        "有"
      ],
      [
        "刚",
        "才"
      ],
      [
        "孩",
        "子"
      ],
      [
        "洗",
        "仁鲜"
      ],
      [
        "给",
        "我"
      ],
      [
        "这个",
        "世界"
      ],
      [
        "来",
        ","
      ],
      [
        "战斗",
        "力"
      ],
      [
        "觉",
        "得"
      ],
      [
        "之",
        "间"
      ],
      [
        "准",
        "备"
      ],
      [
        ",",
        "因为"
      ],
      [
        "了",
        "下来"
      ],
      [
        "头",
        ","
      ],
      [
        "气",
        "息"
      ],
      [
        "吧",
        "?”"
      ],
      [
        "能",
        "量"
      ],
      [
        ",而",
        "且"
      ],
      [
        ",",
        "现在"
      ],
      [
        "我",
        "就"
      ],
      [
        "有",
        "一"
      ],
      [
        "体",
        "内"
      ],
      [
        "吸",
        "血"
      ],
      [
        "来",
        "说"
      ],
      [
        "去",
        "。"
      ],
      [
        "最",
        "后"
      ],
      [
        "脸",
        "上"
      ],
      [
        "出",
        "现"
      ],
      [
        ",我",
        "就"
      ],
      [
        "’",
        "的"
      ],
      [
        "关",
        "系"
      ],
      [
        "喜",
        "欢"
      ],
      [
        "死",
        "之"
      ],
      [
        "究",
        "竟"
      ],
      [
        "马",
        "上"
      ],
      [
        "*",
        "*"
      ],
      [
        "一",
        "样"
      ],
      [
        "有",
        "什么"
      ],
      [
        "安",
        "杰"
      ],
      [
        "安杰",
        "尔"
      ],
      [
        "了",
        "我"
      ],
      [
        ",但",
        "我"
      ],
      [
        "了",
        "点"
      ],
      [
        "帝",
        "国"
      ],
      [
        "淡",
        "淡"
      ],
      [
        "神",
        "秘"
      ],
      [
        "变",
        "得"
      ],
      [
        "水",
        "晶"
      ],
      [
        "身",
        "后"
      ],
      [
        "身",
        "边"
      ],
      [
        "来",
        "的"
      ],
      [
        "“",
        "是"
      ],
      [
        "发",
        "生"
      ],
      [
        "目",
        "光"
      ],
      [
        "?",
        "我"
      ],
      [
        "了",
        "出来"
      ],
      [
        "点",
        "了点"
      ],
      [
        "少",
        "年"
      ],
      [
        "就",
        "会"
      ],
      [
        ",你",
        "们"
      ],
      [
        "上",
        "了"
      ],
      [
        "个",
        "人"
      ],
      [
        "清",
        "楚"
      ],
      [
        "紫",
        "电"
      ],
      [
        "之",
        "前"
      ],
      [
        "女",
        "人"
      ],
      [
        "控",
        "制"
      ],
      [
        "缓",
        "缓"
      ],
      [
        "花",
        "火"
      ],
      [
        "无",
        "论"
      ],
      [
        "绝",
        "对"
      ],
      [
        "“我",
        "”"
      ],
      [
        "头",
        ":“"
      ],
      [
        "有",
        "些"
      ],
      [
        "相",
        "信"
      ],
      [
        "幻",
        "水"
      ],
      [
        "都",
        "不"
      ],
      [
        "咬",
        "着"
      ],
      [
        "微",
        "笑"
      ],
      [
        "看",
        "到"
      ],
      [
        "入",
        "了"
      ],
      [
        "啊",
        "!"
      ],
      [
        "第",
        "二"
      ],
      [
        "袁茵",
        "的"
      ],
      [
        "就",
        "算"
      ],
      [
        "山",
        "藏"
      ],
      [
        "是",
        "一"
      ],
      [
        "“",
        "这个"
      ],
      [
        "既",
        "然"
      ],
      [
        "死",
        "亡"
      ],
      [
        "之",
        "后"
      ],
      [
        "力",
        "量"
      ],
      [
        "望",
        "着"
      ],
      [
        "然",
        "后"
      ],
      [
        "起",
        ","
      ],
      [
        "这样",
        "的"
      ],
      [
        "中",
        "。"
      ],
      [
        "表",
        "情"
      ],
      [
        "意",
        "思"
      ],
      [
        "的",
        "时候"
      ],
      [
        "死之",
        "炉"
      ],
      [
        "此",
        "刻"
      ],
      [
        "一",
        "切"
      ],
      [
        "春",
        "喜"
      ],
      [
        "罗",
        "雁"
      ],
      [
        "我",
        "不"
      ],
      [
        "手",
        "中的"
      ],
      [
        "问",
        "题"
      ],
      [
        "魔",
        "王"
      ],
      [
        "以",
        "后"
      ],
      [
        ",我",
        "的"
      ],
      [
        "下",
        ","
      ],
      [
        "下",
        "的"
      ],
      [
        "说",
        "不"
      ],
      [
        "那",
        "一"
      ],
      [
        "圣",
        "晶"
      ],
      [
        "老",
        "公"
      ],
      [
        "恐",
        "怕"
      ],
      [
        "啊",
        "!”"
      ],
      [
        "生",
        "命"
      ],
      [
        "让",
        "你"
      ],
      [
        "咬着",
        "牙"
      ],
      [
        "的",
        "小"
      ],
      [
        "童",
        "子"
      ],
      [
        "。”",
        "齐琳"
      ],
      [
        "的",
        "‘"
      ],
      [
        "的",
        "大"
      ],
      [
        "眼",
        "中"
      ],
      [
        "西",
        "域"
      ],
      [
        "这",
        "些"
      ],
      [
        "佣",
        "兵"
      ],
      [
        "姐",
        "姐"
      ],
      [
        "是",
        "不"
      ],
      [
        "的",
        "剑"
      ],
      [
        "那",
        "些"
      ],
      [
        "除",
        "了"
      ],
      [
        "答",
        "应"
      ],
      [
        "齐",
        "虎"
      ],
      [
        "了,",
        "你"
      ],
      [
        "下",
        "去"
      ],
      [
        "只",
        "要"
      ],
      [
        "孙",
        "幻水"
      ],
      [
        "杨",
        "光"
      ],
      [
        "此",
        "时"
      ],
      [
        "永",
        "远"
      ],
      [
        "“",
        "小"
      ],
      [
        "口",
        "气"
      ],
      [
        "真",
        "气"
      ],
      [
        "那",
        "么"
      ],
      [
        "随",
        "着"
      ],
      [
        "黑暗",
        "中"
      ],
      [
        "上",
        ","
      ],
      [
        "我",
        "是"
      ],
      [
        "诸",
        "葛"
      ],
      [
        "出",
        "一"
      ],
      [
        "站",
        "在"
      ],
      [
        "闪",
        "电"
      ],
      [
        "了起来",
        "。"
      ],
      [
        "别",
        "人"
      ],
      [
        "双",
        "手"
      ],
      [
        "大",
        "人"
      ],
      [
        "得",
        "到"
      ],
      [
        "想",
        "不到"
      ],
      [
        "传",
        "说"
      ],
      [
        "变",
        "成"
      ],
      [
        "的",
        "袁茵"
      ],
      [
        "不",
        "得"
      ],
      [
        "同",
        "伴"
      ],
      [
        "如",
        "此"
      ],
      [
        "很",
        "快"
      ],
      [
        "我",
        "和"
      ],
      [
        "的",
        "笑"
      ],
      [
        "的",
        "地方"
      ],
      [
        ",",
        "是"
      ],
      [
        "同",
        "时"
      ],
      [
        "我",
        "也"
      ],
      [
        "一定",
        "会"
      ],
      [
        "一定",
        "要"
      ],
      [
        "只",
        "能"
      ],
      [
        "吸血",
        "族"
      ],
      [
        "对",
        "不"
      ],
      [
        "的",
        "身体"
      ],
      [
        "周",
        "宁"
      ],
      [
        "命",
        "悬"
      ],
      [
        "江",
        "南"
      ],
      [
        "高",
        "手"
      ],
      [
        "西域",
        "江南"
      ],
      [
        ",",
        "虽然"
      ],
      [
        "显",
        "然"
      ],
      [
        "给",
        "你"
      ],
      [
        "了",
        "?”"
      ],
      [
        "件",
        "事"
      ],
      [
        "来",
        "。"
      ],
      [
        "状",
        "态"
      ],
      [
        "王",
        "八"
      ],
      [
        "。”",
        "袁茵"
      ],
      [
        "“不",
        "错"
      ],
      [
        "以",
        "为"
      ],
      [
        "厉",
        "害"
      ],
      [
        "几",
        "乎"
      ],
      [
[...]
