{
  "version": "1.0",
  "truncation": null,
  "padding": null,
  "added_tokens": [
    {
      "id": 0,
      "content": "<s>",
      "single_word": false,
      "lstrip": false,
      "rstrip": false,
      "normalized": false,
      "special": true
    },
    {
      "id": 1,
      "content": "<pad>",
      "single_word": false,
      "lstrip": false,
      "rstrip": false,
      "normalized": false,
      "special": true
    },
    {
      "id": 2,
      "content": "</s>",
      "single_word": false,
      "lstrip": false,
      "rstrip": false,
      "normalized": false,
      "special": true
    },
    {
      "id": 3,
      "content": "<unk>",
      "single_word": false,
      "lstrip": false,
      "rstrip": false,
      "normalized": false,
      "special": true
    },
    {
      "id": 4,
      "content": "<mask>",
      "single_word": false,
      "lstrip": false,
      "rstrip": false,
      "normalized": false,
      "special": true
    }
  ],
  "normalizer": {
    "type": "Sequence",
    "normalizers": [
      {
        "type": "Strip",
        "strip_left": true,
        "strip_right": true
      },
      {
        "type": "NFKC"
      }
    ]
  },
  "pre_tokenizer": {
    "type": "CharDelimiterSplit",
    "delimiter": "\u0000"
  },
  "post_processor": {
    "type": "ByteLevel",
    "add_prefix_space": true,
    "trim_offsets": true,
    "use_regex": true
  },
  "decoder": {
    "type": "ByteLevel",
    "add_prefix_space": true,
    "trim_offsets": true,
    "use_regex": true
  },
  "model": {
    "type": "BPE",
    "dropout": null,
    "unk_token": null,
    "continuing_subword_prefix": null,
    "end_of_word_suffix": null,
    "fuse_unk": false,
    "byte_fallback": false,
    "ignore_merges": false,
    "vocab": {
      "<s>": 0,
      "<pad>": 1,
      "</s>": 2,
      "<unk>": 3,
      "<mask>": 4,
      " ": 5,
      "!": 6,
      "\"": 7,
      "#": 8,
      "$": 9,
      "&": 10,
      "'": 11,
      "(": 12,
      ")": 13,
      "*": 14,
      "+": 15,
      ",": 16,
      "-": 17,
      ".": 18,
      "/": 19,
      "0": 20,
      "1": 21,
      "2": 22,
      "3": 23,
      "4": 24,
      "5": 25,
      "6": 26,
      "7": 27,
      "8": 28,
      "9": 29,
      ":": 30,
      ";": 31,
      "<": 32,
      "=": 33,
      ">": 34,
      "?": 35,
      "@": 36,
      "A": 37,
      "B": 38,
      "C": 39,
      "D": 40,
      "E": 41,
      "F": 42,
      "G": 43,
      "H": 44,
      "I": 45,
      "J": 46,
      "K": 47,
      "L": 48,
      "M": 49,
      "N": 50,
      "O": 51,
      "P": 52,
      "Q": 53,
      "R": 54,
      "S": 55,
      "T": 56,
      "U": 57,
      "V": 58,
      "W": 59,
      "X": 60,
      "Y": 61,
      "[": 62,
      "]": 63,
      "^": 64,
      "_": 65,
      "a": 66,
      "b": 67,
      "c": 68,
      "d": 69,
      "e": 70,
      "f": 71,
      "g": 72,
      "h": 73,
      "i": 74,
      "j": 75,
      "k": 76,
      "l": 77,
      "m": 78,
      "n": 79,
      "o": 80,
      "p": 81,
      "r": 82,
      "s": 83,
      "t": 84,
      "u": 85,
      "v": 86,
      "w": 87,
      "x": 88,
      "y": 89,
      "z": 90,
      "|": 91,
      "~": 92,
      "¥": 93,
      "§": 94,
      "·": 95,
      "—": 96,
      "‘": 97,
      "’": 98,
      "“": 99,
      "”": 100,
      "※": 101,
      "、": 102,
      "。": 103,
      "〈": 104,
      "〉": 105,
      "《": 106,
      "》": 107,
      "「": 108,
      "」": 109,
      "『": 110,
      "』": 111,
      "【": 112,
      "】": 113,
      "一": 114,
      "丁": 115,
      "七": 116,
      "万": 117,
      "丈": 118,
      "三": 119,
      "上": 120,
      "下": 121,
      "不": 122,
      "与": 123,
      "丐": 124,
      "丑": 125,
      "专": 126,
      "且": 127,
      "世": 128,
      "丘": 129,
      "业": 130,
      "丛": 131,
      "东": 132,
      "丝": 133,
      "丢": 134,
      "两": 135,
      "严": 136,
      "丧": 137,
      "个": 138,
      "丫": 139,
      "中": 140,
      "丰": 141,
      "串": 142,
      "临": 143,
      "丸": 144,
      "丹": 145,
      "为": 146,
      "主": 147,
      "丽": 148,
      "举": 149,
      "乃": 150,
      "久": 151,
      "么": 152,
      "义": 153,
      "之": 154,
      "乌": 155,
      "乍": 156,
      "乎": 157,
      "乏": 158,
      "乐": 159,
      "乒": 160,
      "乓": 161,
      "乔": 162,
      "乖": 163,
      "乘": 164,
      "九": 165,
      "乞": 166,
      "也": 167,
      "习": 168,
      "乡": 169,
      "书": 170,
      "买": 171,
      "乱": 172,
      "乳": 173,
      "乾": 174,
      "了": 175,
      "予": 176,
      "争": 177,
      "事": 178,
      "二": 179,
      "于": 180,
      "亏": 181,
      "云": 182,
      "互": 183,
      "五": 184,
      "井": 185,
      "亘": 186,
      "亚": 187,
      "些": 188,
      "亡": 189,
      "亢": 190,
      "交": 191,
      "亦": 192,
      "产": 193,
      "享": 194,
      "京": 195,
      "亭": 196,
      "亮": 197,
      "亲": 198,
      "人": 199,
      "亿": 200,
      "什": 201,
      "仁": 202,
      "仅": 203,
      "仆": 204,
      "仇": 205,
      "今": 206,
      "介": 207,
      "仍": 208,
      "从": 209,
      "仑": 210,
      "仓": 211,
      "仔": 212,
      "他": 213,
      "仗": 214,
      "付": 215,
      "仙": 216,
      "代": 217,
      "令": 218,
      "以": 219,
      "仪": 220,
      "们": 221,
      "仰": 222,
      "仲": 223,
      "件": 224,
      "价": 225,
      "任": 226,
      "份": 227,
      "仿": 228,
      "企": 229,
      "伊": 230,
      "伍": 231,
      "伏": 232,
      "伐": 233,
      "休": 234,
      "众": 235,
      "优": 236,
      "伙": 237,
      "会": 238,
      "伞": 239,
      "伟": 240,
      "传": 241,
      "伤": 242,
      "伥": 243,
      "伦": 244,
      "伧": 245,
      "伪": 246,
      "伫": 247,
      "伯": 248,
      "估": 249,
      "伴": 250,
      "伶": 251,
      "伸": 252,
      "伺": 253,
      "似": 254,
      "但": 255,
      "位": 256,
      "低": 257,
      "住": 258,
      "佑": 259,
      "体": 260,
      "何": 261,
      "余": 262,
      "佛": 263,
      "作": 264,
      "你": 265,
      "佣": 266,
      "佩": 267,
      "佬": 268,
      "佯": 269,
      "佳": 270,
      "佼": 271,
      "使": 272,
      "侃": 273,
      "侄": 274,
      "侈": 275,
      "例": 276,
      "侍": 277,
      "侏": 278,
      "侗": 279,
      "供": 280,
      "依": 281,
      "侠": 282,
      "侣": 283,
      "侥": 284,
      "侦": 285,
      "侧": 286,
      "侮": 287,
      "侯": 288,
      "侵": 289,
      "便": 290,
      "促": 291,
      "俄": 292,
      "俊": 293,
      "俏": 294,
      "俗": 295,
      "俘": 296,
      "保": 297,
      "信": 298,
      "俨": 299,
      "俩": 300,
      "修": 301,
      "俯": 302,
      "俱": 303,
      "俺": 304,
      "倍": 305,
      "倏": 306,
      "倒": 307,
      "倔": 308,
      "倘": 309,
      "候": 310,
      "倚": 311,
      "借": 312,
      "倡": 313,
      "倦": 314,
      "倩": 315,
      "倪": 316,
      "债": 317,
      "值": 318,
      "倾": 319,
      "假": 320,
      "偌": 321,
      "偎": 322,
      "偏": 323,
      "做": 324,
      "停": 325,
      "健": 326,
      "偶": 327,
      "偷": 328,
      "偿": 329,
      "傀": 330,
      "傅": 331,
      "傍": 332,
      "储": 333,
      "催": 334,
      "傲": 335,
      "傻": 336,
      "像": 337,
      "僧": 338,
      "僵": 339,
      "僻": 340,
      "儒": 341,
      "儡": 342,
      "儿": 343,
      "允": 344,
      "元": 345,
      "兄": 346,
      "充": 347,
      "兆": 348,
      "先": 349,
      "光": 350,
      "克": 351,
      "免": 352,
      "兑": 353,
      "兔": 354,
      "党": 355,
      "兜": 356,
      "兢": 357,
      "入": 358,
      "全": 359,
      "八": 360,
      "公": 361,
      "六": 362,
      "兮": 363,
      "兰": 364,
      "共": 365,
      "关": 366,
      "兴": 367,
      "兵": 368,
      "其": 369,
      "具": 370,
      "典": 371,
      "兹": 372,
      "养": 373,
      "兼": 374,
      "兽": 375,
      "内": 376,
      "冉": 377,
      "册": 378,
      "再": 379,
      "冒": 380,
      "冕": 381,
      "写": 382,
      "军": 383,
      "农": 384,
      "冠": 385,
      "冤": 386,
      "冥": 387,
      "冬": 388,
      "冯": 389,
      "冰": 390,
      "冲": 391,
      "决": 392,
      "况": 393,
      "冷": 394,
      "冻": 395,
      "冼": 396,
      "净": 397,
      "凄": 398,
      "准": 399,
      "凉": 400,
      "凋": 401,
      "凌": 402,
      "减": 403,
      "凑": 404,
      "凛": 405,
      "凝": 406,
      "几": 407,
      "凡": 408,
      "凤": 409,
      "凭": 410,
      "凯": 411,
      "凰": 412,
      "凳": 413,
      "凶": 414,
      "凸": 415,
      "凹": 416,
      "出": 417,
      "击": 418,
      "函": 419,
      "凿": 420,
      "刀": 421,
      "刁": 422,
      "刃": 423,
      "分": 424,
      "切": 425,
      "刊": 426,
      "刑": 427,
      "划": 428,
      "列": 429,
      "刘": 430,
      "则": 431,
      "刚": 432,
      "创": 433,
      "初": 434,
      "删": 435,
      "判": 436,
      "刨": 437,
      "利": 438,
      "别": 439,
      "刮": 440,
      "到": 441,
      "制": 442,
      "刷": 443,
      "刹": 444,
      "刺": 445,
      "刻": 446,
      "剁": 447,
      "剂": 448,
      "削": 449,
      "前": 450,
      "剐": 451,
      "剑": 452,
      "剔": 453,
      "剖": 454,
      "剥": 455,
      "剧": 456,
      "剩": 457,
      "剪": 458,
      "副": 459,
      "割": 460,
      "剿": 461,
      "劈": 462,
      "力": 463,
      "劝": 464,
      "办": 465,
      "功": 466,
      "加": 467,
      "务": 468,
      "劣": 469,
      "动": 470,
      "助": 471,
      "努": 472,
      "劫": 473,
      "励": 474,
      "劲": 475,
      "劳": 476,
      "势": 477,
      "勃": 478,
      "勇": 479,
      "勉": 480,
      "勋": 481,
      "勒": 482,
      "勘": 483,
      "勤": 484,
      "勾": 485,
      "勿": 486,
      "匀": 487,
      "包": 488,
      "匆": 489,
      "匍": 490,
      "匐": 491,
      "匕": 492,
      "化": 493,
      "北": 494,
      "匙": 495,
      "匡": 496,
      "匪": 497,
      "匮": 498,
      "匹": 499,
      "区": 500,
      "医": 501,
      "匾": 502,
      "匿": 503,
      "十": 504,
      "千": 505,
      "升": 506,
      "午": 507,
      "半": 508,
      "华": 509,
      "协": 510,
      "卑": 511,
      "卒": 512,
      "单": 513,
      "卖": 514,
      "南": 515,
      "博": 516,
      "卜": 517,
      "占": 518,
      "卡": 519,
      "卦": 520,
      "卧": 521,
      "卫": 522,
      "印": 523,
      "危": 524,
      "即": 525,
      "却": 526,
      "卵": 527,
      "卷": 528,
      "卸": 529,
      "厂": 530,
      "厄": 531,
      "厅": 532,
      "历": 533,
      "厉": 534,
      "压": 535,
      "厌": 536,
      "厕": 537,
      "厘": 538,
      "厚": 539,
      "原": 540,
      "厢": 541,
      "厥": 542,
      "厦": 543,
      "厨": 544,
      "厩": 545,
      "厮": 546,
      "去": 547,
      "参": 548,
      "又": 549,
      "叉": 550,
      "及": 551,
      "友": 552,
      "双": 553,
      "反": 554,
      "发": 555,
      "叔": 556,
      "取": 557,
      "受": 558,
      "变": 559,
      "叙": 560,
      "叛": 561,
      "叠": 562,
      "口": 563,
      "古": 564,
      "句": 565,
      "另": 566,
      "叨": 567,
      "只": 568,
      "叫": 569,
      "召": 570,
      "叭": 571,
      "叮": 572,
      "可": 573,
      "台": 574,
      "叱": 575,
      "史": 576,
      "右": 577,
      "叵": 578,
      "叶": 579,
      "号": 580,
      "司": 581,
      "叹": 582,
      "叼": 583,
      "叽": 584,
      "吁": 585,
      "吃": 586,
      "各": 587,
      "吆": 588,
      "合": 589,
      "吉": 590,
      "吊": 591,
      "同": 592,
      "名": 593,
      "后": 594,
      "吐": 595,
      "向": 596,
      "吓": 597,
      "吗": 598,
      "君": 599,
      "吝": 600,
      "吞": 601,
      "吟": 602,
      "吠": 603,
      "吡": 604,
      "否": 605,
      "吧": 606,
      "吨": 607,
      "吩": 608,
      "含": 609,
      "听": 610,
      "吮": 611,
      "启": 612,
      "吱": 613,
      "吴": 614,
      "吵": 615,
      "吸": 616,
      "吹": 617,
      "吻": 618,
      "吼": 619,
      "呀": 620,
      "呆": 621,
      "呈": 622,
      "告": 623,
      "呐": 624,
      "呕": 625,
      "呗": 626,
      "员": 627,
      "呛": 628,
      "呜": 629,
      "呢": 630,
      "呤": 631,
      "周": 632,
      "味": 633,
      "呵": 634,
      "呸": 635,
      "呻": 636,
      "呼": 637,
      "命": 638,
      "咀": 639,
      "咄": 640,
      "咆": 641,
      "咋": 642,
      "和": 643,
      "咎": 644,
      "咏": 645,
      "咐": 646,
      "咒": 647,
      "咔": 648,
      "咕": 649,
      "咖": 650,
      "咙": 651,
      "咚": 652,
      "咛": 653,
      "咝": 654,
      "咤": 655,
      "咦": 656,
      "咧": 657,
      "咨": 658,
      "咪": 659,
      "咬": 660,
      "咯": 661,
      "咱": 662,
      "咳": 663,
      "咸": 664,
      "咽": 665,
      "哀": 666,
      "品": 667,
      "哄": 668,
      "哆": 669,
      "哇": 670,
      "哈": 671,
      "响": 672,
      "哎": 673,
      "哑": 674,
      "哗": 675,
      "哟": 676,
      "哥": 677,
      "哦": 678,
      "哧": 679,
      "哨": 680,
      "哩": 681,
      "哪": 682,
      "哭": 683,
      "哮": 684,
      "哲": 685,
      "哺": 686,
      "哼": 687,
      "哽": 688,
      "唆": 689,
      "唇": 690,
      "唉": 691,
      "唏": 692,
      "唐": 693,
      "唔": 694,
      "唠": 695,
      "唤": 696,
      "唬": 697,
      "唯": 698,
      "唱": 699,
      "啃": 700,
      "啄": 701,
      "商": 702,
      "啊": 703,
      "啕": 704,
      "啜": 705,
      "啡": 706,
      "啤": 707,
      "啥": 708,
      "啦": 709,
      "啧": 710,
      "啪": 711,
      "啬": 712,
      "啵": 713,
      "啸": 714,
      "啼": 715,
      "啾": 716,
      "喀": 717,
      "喂": 718,
      "喃": 719,
      "善": 720,
      "喉": 721,
      "喊": 722,
      "喋": 723,
      "喏": 724,
      "喔": 725,
      "喘": 726,
      "喙": 727,
      "喜": 728,
      "喝": 729,
      "喧": 730,
      "喳": 731,
      "喷": 732,
      "喻": 733,
      "喽": 734,
      "嗄": 735,
      "嗅": 736,
      "嗉": 737,
      "嗑": 738,
      "嗒": 739,
      "嗓": 740,
      "嗔": 741,
      "嗖": 742,
      "嗜": 743,
      "嗡": 744,
      "嗤": 745,
      "嗦": 746,
      "嗫": 747,
      "嗬": 748,
      "嗯": 749,
      "嗵": 750,
      "嗷": 751,
      "嗽": 752,
      "嘀": 753,
      "嘈": 754,
      "嘉": 755,
      "嘎": 756,
      "嘘": 757,
      "嘛": 758,
      "嘟": 759,
      "嘤": 760,
      "嘭": 761,
      "嘱": 762,
      "嘲": 763,
      "嘴": 764,
      "嘶": 765,
      "嘹": 766,
      "嘻": 767,
      "嘿": 768,
      "噗": 769,
      "噘": 770,
      "噙": 771,
      "噜": 772,
      "噢": 773,
      "噤": 774,
      "器": 775,
      "噩": 776,
      "噪": 777,
      "噫": 778,
      "噬": 779,
      "噱": 780,
      "噼": 781,
      "嚎": 782,
      "嚏": 783,
      "嚓": 784,
      "嚣": 785,
      "嚷": 786,
      "嚼": 787,
      "囊": 788,
      "囔": 789,
      "囚": 790,
      "四": 791,
      "回": 792,
      "因": 793,
      "团": 794,
      "囤": 795,
      "园": 796,
      "困": 797,
      "囱": 798,
      "围": 799,
      "固": 800,
      "国": 801,
      "图": 802,
      "圆": 803,
      "圈": 804,
      "土": 805,
      "圣": 806,
      "在": 807,
      "地": 808,
      "场": 809,
      "圾": 810,
      "址": 811,
      "均": 812,
      "坊": 813,
      "坍": 814,
      "坎": 815,
      "坏": 816,
      "坐": 817,
      "坑": 818,
      "块": 819,
      "坚": 820,
      "坛": 821,
      "坝": 822,
      "坞": 823,
      "坟": 824,
      "坠": 825,
      "坡": 826,
      "坤": 827,
      "坦": 828,
      "坳": 829,
      "坷": 830,
      "垂": 831,
      "垃": 832,
      "垄": 833,
      "型": 834,
      "垒": 835,
      "垠": 836,
      "垢": 837,
      "垣": 838,
      "垫": 839,
      "垮": 840,
      "埃": 841,
      "埋": 842,
      "城": 843,
      "域": 844,
      "培": 845,
      "基": 846,
      "堀": 847,
      "堂": 848,
      "堆": 849,
      "堡": 850,
      "堤": 851,
      "堪": 852,
      "堰": 853,
      "堵": 854,
      "塌": 855,
      "塑": 856,
      "塔": 857,
      "塞": 858,
      "填": 859,
      "塾": 860,
      "境": 861,
      "墅": 862,
      "墓": 863,
      "墙": 864,
      "增": 865,
      "墟": 866,
      "墨": 867,
      "壁": 868,
      "壤": 869,
      "士": 870,
      "壮": 871,
      "声": 872,
      "壳": 873,
      "壶": 874,
      "壹": 875,
      "处": 876,
      "备": 877,
      "复": 878,
      "夏": 879,
      "夕": 880,
      "外": 881,
      "多": 882,
      "夜": 883,
      "够": 884,
      "大": 885,
      "天": 886,
      "太": 887,
      "夫": 888,
      "夭": 889,
      "央": 890,
      "夯": 891,
      "失": 892,
      "头": 893,
      "夷": 894,
      "夸": 895,
      "夹": 896,
      "夺": 897,
      "奄": 898,
      "奇": 899,
      "奈": 900,
      "奉": 901,
      "奋": 902,
      "奏": 903,
      "契": 904,
      "奔": 905,
      "奕": 906,
      "奖": 907,
      "套": 908,
      "奚": 909,
      "奢": 910,
      "奥": 911,
      "女": 912,
      "奴": 913,
      "奶": 914,
      "奸": 915,
      "她": 916,
      "好": 917,
      "如": 918,
      "妃": 919,
      "妄": 920,
      "妆": 921,
      "妇": 922,
      "妈": 923,
      "妍": 924,
      "妒": 925,
      "妓": 926,
      "妖": 927,
      "妙": 928,
      "妞": 929,
      "妥": 930,
      "妨": 931,
      "妩": 932,
      "妪": 933,
      "妮": 934,
      "妹": 935,
      "妻": 936,
      "姆": 937,
      "始": 938,
      "姐": 939,
      "姑": 940,
      "姓": 941,
      "委": 942,
      "姨": 943,
      "姻": 944,
      "姿": 945,
      "威": 946,
      "娃": 947,
      "娇": 948,
      "娓": 949,
      "娘": 950,
      "娜": 951,
      "娥": 952,
      "娩": 953,
      "娱": 954,
      "娴": 955,
      "娶": 956,
      "婆": 957,
      "婚": 958,
      "婢": 959,
      "婪": 960,
      "婴": 961,
      "婶": 962,
      "婷": 963,
      "媒": 964,
      "媚": 965,
      "媛": 966,
      "媲": 967,
      "媳": 968,
      "嫁": 969,
      "嫂": 970,
      "嫉": 971,
      "嫌": 972,
      "嫖": 973,
      "嫣": 974,
      "嫦": 975,
      "嫩": 976,
      "嬉": 977,
      "子": 978,
      "孔": 979,
      "孕": 980,
      "字": 981,
      "存": 982,
      "孙": 983,
      "孝": 984,
      "孟": 985,
      "季": 986,
      "孤": 987,
      "学": 988,
      "孩": 989,
      "孪": 990,
      "孬": 991,
      "孰": 992,
      "孱": 993,
      "孵": 994,
      "孺": 995,
      "孽": 996,
      "宁": 997,
      "它": 998,
      "宅": 999,
      "宇": 1000,
      "守": 1001,
      "安": 1002,
      "宋": 1003,
      "完": 1004,
      "宏": 1005,
      "宗": 1006,
      "官": 1007,
      "宙": 1008,
      "定": 1009,
      "宛": 1010,
      "宜": 1011,
      "宝": 1012,
      "实": 1013,
      "宠": 1014,
      "审": 1015,
      "客": 1016,
      "宣": 1017,
      "室": 1018,
      "宪": 1019,
      "宫": 1020,
      "宰": 1021,
      "害": 1022,
      "宴": 1023,
      "宵": 1024,
      "家": 1025,
      "容": 1026,
      "宽": 1027,
      "宾": 1028,
      "宿": 1029,
      "寂": 1030,
      "寄": 1031,
      "密": 1032,
      "富": 1033,
      "寐": 1034,
      "寒": 1035,
      "寓": 1036,
      "寝": 1037,
      "寞": 1038,
      "察": 1039,
      "寡": 1040,
      "寥": 1041,
      "寸": 1042,
      "对": 1043,
      "寺": 1044,
      "寻": 1045,
      "导": 1046,
      "寿": 1047,
      "封": 1048,
      "射": 1049,
      "将": 1050,
      "尊": 1051,
      "小": 1052,
      "少": 1053,
      "尔": 1054,
      "尖": 1055,
      "尘": 1056,
      "尚": 1057,
      "尝": 1058,
      "尢": 1059,
      "尤": 1060,
      "尬": 1061,
      "就": 1062,
      "尴": 1063,
      "尸": 1064,
      "尹": 1065,
      "尺": 1066,
      "尼": 1067,
      "尽": 1068,
      "尾": 1069,
      "尿": 1070,
      "局": 1071,
      "屁": 1072,
      "层": 1073,
      "居": 1074,
      "屈": 1075,
      "屋": 1076,
      "屎": 1077,
      "屏": 1078,
      "屑": 1079,
      "展": 1080,
      "属": 1081,
      "屠": 1082,
      "屡": 1083,
      "履": 1084,
      "山": 1085,
      "屿": 1086,
      "岁": 1087,
      "岂": 1088,
      "岌": 1089,
      "岔": 1090,
      "岖": 1091,
      "岗": 1092,
      "岚": 1093,
      "岛": 1094,
      "岩": 1095,
      "岭": 1096,
      "岳": 1097,
      "岸": 1098,
      "峋": 1099,
      "峙": 1100,
      "峡": 1101,
      "峦": 1102,
      "峨": 1103,
      "峭": 1104,
      "峰": 1105,
      "峻": 1106,
      "崇": 1107,
      "崎": 1108,
      "崔": 1109,
      "崖": 1110,
      "崩": 1111,
      "嵋": 1112,
      "嵌": 1113,
      "嵩": 1114,
      "嶙": 1115,
      "巅": 1116,
      "巍": 1117,
      "川": 1118,
      "州": 1119,
      "巡": 1120,
      "巢": 1121,
      "工": 1122,
      "左": 1123,
      "巧": 1124,
      "巨": 1125,
      "巫": 1126,
      "差": 1127,
      "己": 1128,
      "已": 1129,
      "巴": 1130,
      "巷": 1131,
      "巾": 1132,
      "币": 1133,
      "市": 1134,
      "布": 1135,
      "帅": 1136,
      "帆": 1137,
      "师": 1138,
      "希": 1139,
      "帐": 1140,
      "帕": 1141,
      "帖": 1142,
      "帘": 1143,
      "帜": 1144,
      "帝": 1145,
      "带": 1146,
      "席": 1147,
      "帮": 1148,
      "帷": 1149,
      "常": 1150,
      "帽": 1151,
      "幅": 1152,
      "幌": 1153,
      "幔": 1154,
      "幕": 1155,
      "幢": 1156,
      "干": 1157,
      "平": 1158,
      "年": 1159,
      "并": 1160,
      "幸": 1161,
      "幻": 1162,
      "幼": 1163,
      "幽": 1164,
      "广": 1165,
      "庄": 1166,
      "庆": 1167,
      "庇": 1168,
      "床": 1169,
      "序": 1170,
      "庐": 1171,
      "库": 1172,
      "应": 1173,
      "底": 1174,
      "店": 1175,
      "庙": 1176,
      "庚": 1177,
      "府": 1178,
      "庞": 1179,
      "废": 1180,
      "度": 1181,
      "座": 1182,
      "庭": 1183,
      "庵": 1184,
      "康": 1185,
      "庸": 1186,
      "廉": 1187,
      "廊": 1188,
      "廓": 1189,
      "延": 1190,
      "建": 1191,
      "开": 1192,
      "异": 1193,
      "弃": 1194,
      "弄": 1195,
      "弈": 1196,
      "弊": 1197,
      "式": 1198,
      "弓": 1199,
      "引": 1200,
      "弟": 1201,
      "张": 1202,
      "弥": 1203,
      "弦": 1204,
      "弧": 1205,
      "弩": 1206,
      "弯": 1207,
      "弱": 1208,
      "弹": 1209,
      "强": 1210,
      "弼": 1211,
      "归": 1212,
      "当": 1213,
      "录": 1214,
      "形": 1215,
      "彤": 1216,
      "彦": 1217,
      "彩": 1218,
      "彪": 1219,
      "彬": 1220,
      "彭": 1221,
      "影": 1222,
      "役": 1223,
      "彻": 1224,
      "彼": 1225,
      "往": 1226,
      "征": 1227,
      "径": 1228,
      "待": 1229,
      "很": 1230,
      "徊": 1231,
      "律": 1232,
      "徐": 1233,
      "徒": 1234,
      "得": 1235,
      "徘": 1236,
      "御": 1237,
      "徧": 1238,
      "徨": 1239,
      "循": 1240,
      "微": 1241,
      "德": 1242,
      "徽": 1243,
      "心": 1244,
      "必": 1245,
      "忆": 1246,
      "忌": 1247,
      "忍": 1248,
      "忐": 1249,
      "忑": 1250,
      "忒": 1251,
      "志": 1252,
      "忘": 1253,
      "忙": 1254,
      "忠": 1255,
      "忡": 1256,
      "忧": 1257,
      "忪": 1258,
      "快": 1259,
      "念": 1260,
      "忽": 1261,
      "忿": 1262,
      "怀": 1263,
      "态": 1264,
      "怅": 1265,
      "怆": 1266,
      "怎": 1267,
      "怒": 1268,
      "怔": 1269,
      "怕": 1270,
      "怖": 1271,
      "怜": 1272,
      "思": 1273,
      "怠": 1274,
      "怡": 1275,
      "急": 1276,
      "性": 1277,
      "怨": 1278,
      "怪": 1279,
      "怯": 1280,
      "总": 1281,
      "恃": 1282,
      "恋": 1283,
      "恍": 1284,
      "恐": 1285,
      "恒": 1286,
      "恕": 1287,
      "恙": 1288,
      "恢": 1289,
      "恤": 1290,
      "恨": 1291,
      "恩": 1292,
      "恭": 1293,
      "息": 1294,
      "恰": 1295,
      "恳": 1296,
      "恶": 1297,
      "恼": 1298,
      "悄": 1299,
      "悉": 1300,
      "悍": 1301,
      "悔": 1302,
      "悚": 1303,
      "悟": 1304,
      "悠": 1305,
      "患": 1306,
      "悦": 1307,
      "您": 1308,
      "悬": 1309,
      "悯": 1310,
      "悲": 1311,
      "悴": 1312,
      "悸": 1313,
      "悻": 1314,
      "情": 1315,
      "惆": 1316,
      "惊": 1317,
      "惋": 1318,
      "惑": 1319,
      "惕": 1320,
      "惘": 1321,
      "惚": 1322,
      "惜": 1323,
      "惠": 1324,
      "惧": 1325,
      "惨": 1326,
      "惩": 1327,
      "惫": 1328,
      "惬": 1329,
      "惭": 1330,
      "惮": 1331,
      "惯": 1332,
      "想": 1333,
      "惶": 1334,
      "惹": 1335,
      "惺": 1336,
      "愁": 1337,
      "愈": 1338,
      "愉": 1339,
      "愎": 1340,
      "意": 1341,
      "愕": 1342,
      "愚": 1343,
      "感": 1344,
      "愠": 1345,
      "愣": 1346,
      "愤": 1347,
      "愦": 1348,
      "愧": 1349,
      "愿": 1350,
      "慈": 1351,
      "慌": 1352,
      "慎": 1353,
      "慑": 1354,
      "慕": 1355,
      "慢": 1356,
      "慧": 1357,
      "慨": 1358,
      "慰": 1359,
      "慷": 1360,
      "憋": 1361,
      "憔": 1362,
      "憧": 1363,
      "憨": 1364,
      "憬": 1365,
      "憾": 1366,
      "懂": 1367,
      "懈": 1368,
      "懊": 1369,
      "懒": 1370,
      "懦": 1371,
      "懮": 1372,
      "懵": 1373,
      "戈": 1374,
      "戏": 1375,
      "成": 1376,
      "我": 1377,
      "戒": 1378,
      "或": 1379,
      "战": 1380,
      "戚": 1381,
      "戟": 1382,
      "截": 1383,
      "戮": 1384,
      "戳": 1385,
      "戴": 1386,
      "户": 1387,
      "房": 1388,
      "所": 1389,
      "扁": 1390,
      "扇": 1391,
      "扉": 1392,
      "手": 1393,
      "才": 1394,
      "扎": 1395,
      "扑": 1396,
      "扒": 1397,
      "打": 1398,
      "扔": 1399,
      "托": 1400,
      "扛": 1401,
      "扣": 1402,
      "执": 1403,
      "扩": 1404,
      "扫": 1405,
      "扬": 1406,
      "扭": 1407,
      "扮": 1408,
      "扯": 1409,
      "扰": 1410,
      "扳": 1411,
      "扶": 1412,
      "批": 1413,
      "扼": 1414,
      "找": 1415,
      "承": 1416,
      "技": 1417,
      "抄": 1418,
      "抉": 1419,
      "把": 1420,
      "抑": 1421,
      "抓": 1422,
      "投": 1423,
      "抖": 1424,
      "抗": 1425,
      "折": 1426,
      "抚": 1427,
      "抛": 1428,
      "抡": 1429,
      "抢": 1430,
      "护": 1431,
      "报": 1432,
      "披": 1433,
      "抬": 1434,
      "抱": 1435,
      "抵": 1436,
      "抹": 1437,
      "押": 1438,
      "抽": 1439,
      "抿": 1440,
      "拂": 1441,
      "拄": 1442,
      "担": 1443,
      "拆": 1444,
      "拇": 1445,
      "拈": 1446,
      "拉": 1447,
      "拌": 1448,
      "拍": 1449,
      "拐": 1450,
      "拒": 1451,
      "拔": 1452,
      "拖": 1453,
      "拗": 1454,
      "拘": 1455,
      "拙": 1456,
      "招": 1457,
      "拜": 1458,
      "拟": 1459,
      "拢": 1460,
      "拣": 1461,
      "拥": 1462,
      "拦": 1463,
      "拧": 1464,
      "拨": 1465,
      "择": 1466,
      "括": 1467,
      "拭": 1468,
      "拯": 1469,
      "拱": 1470,
      "拳": 1471,
      "拼": 1472,
      "拽": 1473,
      "拾": 1474,
      "拿": 1475,
      "持": 1476,
      "挂": 1477,
      "指": 1478,
      "按": 1479,
      "挎": 1480,
      "挑": 1481,
      "挖": 1482,
      "挚": 1483,
      "挟": 1484,
      "挠": 1485,
      "挡": 1486,
      "挣": 1487,
      "挤": 1488,
      "挥": 1489,
      "挨": 1490,
      "挪": 1491,
      "挫": 1492,
      "振": 1493,
      "挲": 1494,
      "挺": 1495,
      "挽": 1496,
      "捂": 1497,
      "捅": 1498,
      "捆": 1499,
      "捉": 1500,
      "捌": 1501,
      "捍": 1502,
      "捏": 1503,
      "捕": 1504,
      "捞": 1505,
      "损": 1506,
      "捡": 1507,
      "换": 1508,
      "捣": 1509,
      "捧": 1510,
      "据": 1511,
      "捱": 1512,
      "捶": 1513,
      "捷": 1514,
      "捺": 1515,
      "捻": 1516,
      "掀": 1517,
      "授": 1518,
      "掉": 1519,
      "掌": 1520,
      "掏": 1521,
      "掐": 1522,
      "排": 1523,
      "掘": 1524,
      "掠": 1525,
      "探": 1526,
      "掣": 1527,
      "接": 1528,
      "控": 1529,
      "推": 1530,
      "掩": 1531,
      "措": 1532,
      "掬": 1533,
      "掰": 1534,
      "掳": 1535,
      "掴": 1536,
      "掷": 1537,
      "掸": 1538,
      "掺": 1539,
      "揉": 1540,
      "揍": 1541,
      "描": 1542,
      "提": 1543,
      "插": 1544,
      "握": 1545,
      "揣": 1546,
      "揩": 1547,
      "揪": 1548,
      "揭": 1549,
      "援": 1550,
      "揽": 1551,
      "搀": 1552,
      "搁": 1553,
      "搂": 1554,
      "搅": 1555,
      "搏": 1556,
      "搐": 1557,
      "搓": 1558,
      "搔": 1559,
      "搜": 1560,
      "搞": 1561,
      "搬": 1562,
      "搭": 1563,
      "携": 1564,
      "摁": 1565,
      "摄": 1566,
      "摆": 1567,
      "摇": 1568,
      "摊": 1569,
      "摔": 1570,
      "摘": 1571,
      "摧": 1572,
      "摩": 1573,
      "摭": 1574,
      "摸": 1575,
      "撅": 1576,
      "撇": 1577,
      "撑": 1578,
      "撒": 1579,
      "撕": 1580,
      "撞": 1581,
      "撤": 1582,
      "撩": 1583,
      "撬": 1584,
      "播": 1585,
      "撮": 1586,
      "撵": 1587,
      "撼": 1588,
      "擂": 1589,
      "擅": 1590,
      "操": 1591,
      "擎": 1592,
      "擒": 1593,
      "擡": 1594,
      "擦": 1595,
      "攀": 1596,
      "攒": 1597,
      "攘": 1598,
      "攥": 1599,
      "支": 1600,
      "收": 1601,
      "改": 1602,
      "攻": 1603,
      "放": 1604,
      "政": 1605,
      "故": 1606,
      "效": 1607,
      "敌": 1608,
      "敏": 1609,
      "救": 1610,
      "敖": 1611,
      "教": 1612,
      "敛": 1613,
      "敝": 1614,
      "敞": 1615,
      "敢": 1616,
      "散": 1617,
      "敬": 1618,
      "数": 1619,
      "敲": 1620,
      "整": 1621,
      "敷": 1622,
      "文": 1623,
      "斋": 1624,
      "斌": 1625,
      "斐": 1626,
      "斑": 1627,
      "斓": 1628,
      "斗": 1629,
      "料": 1630,
      "斜": 1631,
      "斟": 1632,
      "斤": 1633,
      "斥": 1634,
      "斧": 1635,
      "斩": 1636,
      "断": 1637,
      "斯": 1638,
      "新": 1639,
      "方": 1640,
      "施": 1641,
      "旁": 1642,
      "旅": 1643,
      "旋": 1644,
      "族": 1645,
      "旗": 1646,
      "无": 1647,
      "既": 1648,
      "日": 1649,
      "旦": 1650,
      "旧": 1651,
      "旨": 1652,
      "早": 1653,
      "旬": 1654,
      "旭": 1655,
      "旱": 1656,
      "时": 1657,
      "旷": 1658,
      "旺": 1659,
      "昂": 1660,
      "昆": 1661,
      "昊": 1662,
      "昌": 1663,
      "明": 1664,
      "昏": 1665,
      "易": 1666,
      "昔": 1667,
      "星": 1668,
      "映": 1669,
      "春": 1670,
      "昧": 1671,
      "昨": 1672,
      "昭": 1673,
      "是": 1674,
      "昼": 1675,
      "显": 1676,
      "晃": 1677,
      "晋": 1678,
      "晌": 1679,
      "晒": 1680,
      "晓": 1681,
      "晕": 1682,
      "晚": 1683,
      "晦": 1684,
      "晨": 1685,
      "普": 1686,
      "景": 1687,
      "晰": 1688,
      "晴": 1689,
      "晶": 1690,
      "智": 1691,
      "暂": 1692,
      "暇": 1693,
      "暑": 1694,
      "暖": 1695,
      "暗": 1696,
      "暝": 1697,
      "暧": 1698,
      "暮": 1699,
      "暴": 1700,
      "曙": 1701,
      "曝": 1702,
      "曰": 1703,
      "曲": 1704,
      "曳": 1705,
      "更": 1706,
      "曼": 1707,
      "曾": 1708,
      "替": 1709,
      "最": 1710,
      "月": 1711,
      "有": 1712,
      "朋": 1713,
      "服": 1714,
      "朔": 1715,
      "朕": 1716,
      "朗": 1717,
      "望": 1718,
      "朝": 1719,
      "期": 1720,
      "朦": 1721,
      "木": 1722,
      "未": 1723,
      "末": 1724,
      "本": 1725,
      "术": 1726,
      "朱": 1727,
      "朴": 1728,
      "朵": 1729,
      "机": 1730,
      "朽": 1731,
      "杀": 1732,
      "杂": 1733,
      "权": 1734,
      "杆": 1735,
      "杉": 1736,
      "李": 1737,
      "材": 1738,
      "村": 1739,
      "杖": 1740,
      "束": 1741,
      "条": 1742,
      "来": 1743,
      "杨": 1744,
      "杭": 1745,
      "杯": 1746,
      "杰": 1747,
      "松": 1748,
      "板": 1749,
      "极": 1750,
      "构": 1751,
      "枉": 1752,
      "析": 1753,
      "枕": 1754,
      "林": 1755,
      "枚": 1756,
      "果": 1757,
      "枝": 1758,
      "枢": 1759,
      "枪": 1760,
      "枫": 1761,
      "枭": 1762,
      "枯": 1763,
      "架": 1764,
      "枷": 1765,
      "柄": 1766,
      "柏": 1767,
      "某": 1768,
      "染": 1769,
      "柔": 1770,
      "柜": 1771,
      "查": 1772,
      "柩": 1773,
      "柯": 1774,
      "柱": 1775,
      "柳": 1776,
      "柴": 1777,
      "栅": 1778,
      "标": 1779,
      "栈": 1780,
      "栉": 1781,
      "栋": 1782,
      "栏": 1783,
      "树": 1784,
      "栓": 1785,
      "栖": 1786,
      "栗": 1787,
      "校": 1788,
      "栩": 1789,
      "株": 1790,
      "样": 1791,
      "核": 1792,
      "根": 1793,
      "格": 1794,
      "栽": 1795,
      "桀": 1796,
      "桂": 1797,
      "桃": 1798,
      "框": 1799,
      "案": 1800,
      "桌": 1801,
      "桐": 1802,
      "桑": 1803,
      "桔": 1804,
      "桠": 1805,
      "档": 1806,
      "桥": 1807,
      "桨": 1808,
      "桩": 1809,
      "桶": 1810,
      "梁": 1811,
      "梅": 1812,
      "梆": 1813,
      "梗": 1814,
      "梢": 1815,
      "梦": 1816,
      "梧": 1817,
      "梨": 1818,
      "梭": 1819,
      "梯": 1820,
      "械": 1821,
      "梳": 1822,
      "检": 1823,
      "棂": 1824,
      "棋": 1825,
      "棍": 1826,
      "棒": 1827,
      "棕": 1828,
      "棘": 1829,
      "森": 1830,
      "棱": 1831,
      "棵": 1832,
      "棺": 1833,
      "椅": 1834,
      "植": 1835,
      "椎": 1836,
      "椰": 1837,
      "楔": 1838,
      "楚": 1839,
      "楠": 1840,
      "楮": 1841,
      "楼": 1842,
      "概": 1843,
      "榕": 1844,
      "榛": 1845,
      "榜": 1846,
      "榨": 1847,
      "榭": 1848,
      "榷": 1849,
      "榻": 1850,
      "槌": 1851,
      "槎": 1852,
      "槐": 1853,
      "槛": 1854,
      "模": 1855,
      "横": 1856,
      "樱": 1857,
      "樵": 1858,
      "樽": 1859,
      "橕": 1860,
      "橙": 1861,
      "橡": 1862,
      "橱": 1863,
      "檀": 1864,
      "檐": 1865,
      "櫺": 1866,
      "欠": 1867,
      "次": 1868,
      "欢": 1869,
      "欣": 1870,
      "欧": 1871,
      "欲": 1872,
      "欺": 1873,
      "款": 1874,
      "歇": 1875,
      "歉": 1876,
      "歌": 1877,
      "止": 1878,
      "正": 1879,
      "此": 1880,
      "步": 1881,
      "武": 1882,
      "歪": 1883,
      "歹": 1884,
      "死": 1885,
      "歼": 1886,
      "殃": 1887,
      "殉": 1888,
      "殊": 1889,
      "残": 1890,
      "殒": 1891,
      "殖": 1892,
      "段": 1893,
      "殷": 1894,
      "殿": 1895,
      "毁": 1896,
      "毅": 1897,
      "毋": 1898,
      "母": 1899,
      "每": 1900,
      "毒": 1901,
      "比": 1902,
      "毕": 1903,
      "毙": 1904,
      "毛": 1905,
      "毡": 1906,
      "毫": 1907,
      "毯": 1908,
      "氏": 1909,
      "民": 1910,
      "氓": 1911,
      "气": 1912,
      "氛": 1913,
      "氧": 1914,
      "水": 1915,
      "永": 1916,
      "汁": 1917,
      "求": 1918,
      "汇": 1919,
      "汉": 1920,
      "汗": 1921,
      "江": 1922,
      "池": 1923,
      "污": 1924,
      "汤": 1925,
      "汩": 1926,
      "汪": 1927,
      "汰": 1928,
      "汹": 1929,
      "汽": 1930,
      "沁": 1931,
      "沃": 1932,
      "沈": 1933,
      "沉": 1934,
      "沌": 1935,
      "沏": 1936,
      "沐": 1937,
      "沓": 1938,
      "沙": 1939,
      "沛": 1940,
      "沟": 1941,
      "没": 1942,
      "沥": 1943,
      "沦": 1944,
      "沧": 1945,
      "沫": 1946,
      "沮": 1947,
      "河": 1948,
      "沸": 1949,
      "油": 1950,
      "治": 1951,
      "沾": 1952,
      "沿": 1953,
      "泄": 1954,
      "泉": 1955,
      "泊": 1956,
      "泌": 1957,
      "泓": 1958,
      "法": 1959,
      "泛": 1960,
      "泞": 1961,
      "泡": 1962,
      "波": 1963,
      "泣": 1964,
      "泥": 1965,
      "注": 1966,
      "泪": 1967,
      "泯": 1968,
      "泰": 1969,
      "泳": 1970,
      "泻": 1971,
      "泼": 1972,
      "泽": 1973,
      "洁": 1974,
      "洋": 1975,
      "洒": 1976,
      "洗": 1977,
      "洛": 1978,
      "洞": 1979,
      "津": 1980,
      "洪": 1981,
      "洲": 1982,
      "活": 1983,
      "洼": 1984,
      "派": 1985,
      "流": 1986,
      "浅": 1987,
      "浆": 1988,
      "浇": 1989,
      "浊": 1990,
      "测": 1991,
      "济": 1992,
      "浏": 1993,
      "浑": 1994,
      "浓": 1995,
      "浠": 1996,
      "浩": 1997,
      "浪": 1998,
      "浮": 1999,
      "浴": 2000,
      "海": 2001,
      "浸": 2002,
      "涂": 2003,
      "消": 2004,
      "涉": 2005,
      "涌": 2006,
      "涎": 2007,
      "涓": 2008,
      "涕": 2009,
      "涛": 2010,
      "涟": 2011,
      "涡": 2012,
      "涣": 2013,
      "涤": 2014,
      "润": 2015,
      "涧": 2016,
      "涨": 2017,
      "涩": 2018,
      "涮": 2019,
      "涯": 2020,
      "液": 2021,
      "涵": 2022,
      "涸": 2023,
      "淀": 2024,
      "淆": 2025,
      "淇": 2026,
      "淋": 2027,
      "淌": 2028,
      "淑": 2029,
      "淘": 2030,
      "淡": 2031,
      "淤": 2032,
      "淫": 2033,
      "深": 2034,
      "混": 2035,
      "淹": 2036,
      "添": 2037,
      "淼": 2038,
      "清": 2039,
      "渊": 2040,
      "渍": 2041,
      "渐": 2042,
      "渔": 2043,
      "渗": 2044,
      "渠": 2045,
      "渡": 2046,
      "渣": 2047,
      "温": 2048,
      "港": 2049,
      "渲": 2050,
      "渴": 2051,
      "游": 2052,
      "渺": 2053,
      "湃": 2054,
      "湖": 2055,
      "湘": 2056,
      "湛": 2057,
      "湮": 2058,
      "湾": 2059,
      "湿": 2060,
      "溃": 2061,
      "溅": 2062,
      "源": 2063,
      "溜": 2064,
      "溢": 2065,
      "溪": 2066,
      "溶": 2067,
      "溺": 2068,
      "滋": 2069,
      "滑": 2070,
      "滔": 2071,
      "滚": 2072,
      "滞": 2073,
      "滟": 2074,
      "满": 2075,
      "滥": 2076,
      "滨": 2077,
      "滩": 2078,
      "滴": 2079,
      "漂": 2080,
      "漆": 2081,
      "漉": 2082,
      "漏": 2083,
      "漓": 2084,
      "演": 2085,
      "漠": 2086,
      "漩": 2087,
      "漪": 2088,
      "漫": 2089,
      "漱": 2090,
      "漾": 2091,
      "潇": 2092,
      "潘": 2093,
      "潜": 2094,
      "潭": 2095,
      "潮": 2096,
      "澄": 2097,
      "澈": 2098,
      "澎": 2099,
      "澜": 2100,
      "澡": 2101,
      "澳": 2102,
      "激": 2103,
      "瀑": 2104,
      "瀚": 2105,
      "瀛": 2106,
      "灌": 2107,
      "火": 2108,
      "灭": 2109,
      "灯": 2110,
      "灰": 2111,
      "灵": 2112,
      "灶": 2113,
      "灼": 2114,
      "灾": 2115,
      "灿": 2116,
      "炉": 2117,
      "炎": 2118,
      "炒": 2119,
      "炫": 2120,
      "炬": 2121,
      "炭": 2122,
      "炮": 2123,
      "炯": 2124,
      "炸": 2125,
      "点": 2126,
      "炼": 2127,
      "炽": 2128,
      "烁": 2129,
      "烂": 2130,
      "烈": 2131,
      "烘": 2132,
      "烙": 2133,
      "烛": 2134,
      "烟": 2135,
      "烤": 2136,
      "烦": 2137,
      "烧": 2138,
      "烫": 2139,
      "烬": 2140,
      "热": 2141,
      "烽": 2142,
      "焉": 2143,
      "焕": 2144,
      "焚": 2145,
      "焦": 2146,
      "焰": 2147,
      "然": 2148,
      "煌": 2149,
      "煎": 2150,
      "煞": 2151,
      "煤": 2152,
      "煦": 2153,
      "照": 2154,
      "煮": 2155,
      "煽": 2156,
      "熄": 2157,
      "熊": 2158,
      "熔": 2159,
      "熙": 2160,
      "熟": 2161,
      "熬": 2162,
      "燃": 2163,
      "燎": 2164,
      "燕": 2165,
      "燥": 2166,
      "爆": 2167,
      "爪": 2168,
      "爬": 2169,
      "爱": 2170,
      "父": 2171,
      "爷": 2172,
      "爸": 2173,
      "爹": 2174,
      "爽": 2175,
      "片": 2176,
      "版": 2177,
      "牌": 2178,
      "牐": 2179,
      "牒": 2180,
      "牙": 2181,
      "牛": 2182,
      "牢": 2183,
      "牧": 2184,
      "物": 2185,
      "牲": 2186,
      "牵": 2187,
      "特": 2188,
      "牺": 2189,
      "犀": 2190,
      "犄": 2191,
      "犖": 2192,
      "犟": 2193,
      "犬": 2194,
      "犯": 2195,
      "状": 2196,
      "犷": 2197,
      "犹": 2198,
      "狂": 2199,
      "狈": 2200,
      "狐": 2201,
      "狗": 2202,
      "狞": 2203,
      "狠": 2204,
      "狡": 2205,
      "狩": 2206,
      "独": 2207,
      "狭": 2208,
      "狮": 2209,
      "狰": 2210,
      "狱": 2211,
      "狸": 2212,
      "狼": 2213,
      "猎": 2214,
      "猛": 2215,
      "猜": 2216,
      "猝": 2217,
      "猩": 2218,
      "猪": 2219,
      "猫": 2220,
      "猬": 2221,
      "献": 2222,
      "猴": 2223,
      "猾": 2224,
      "猿": 2225,
      "獠": 2226,
      "玄": 2227,
      "率": 2228,
      "玉": 2229,
      "王": 2230,
      "玛": 2231,
      "玩": 2232,
      "玫": 2233,
      "环": 2234,
      "现": 2235,
      "玲": 2236,
      "玻": 2237,
      "珂": 2238,
      "珊": 2239,
      "珍": 2240,
      "珑": 2241,
      "珠": 2242,
      "班": 2243,
      "珲": 2244,
      "球": 2245,
      "琅": 2246,
      "理": 2247,
      "琉": 2248,
      "琢": 2249,
      "琪": 2250,
      "琳": 2251,
      "琴": 2252,
      "琵": 2253,
      "琼": 2254,
      "瑕": 2255,
      "瑞": 2256,
      "瑟": 2257,
      "瑰": 2258,
      "瑶": 2259,
      "璀": 2260,
      "璃": 2261,
      "瓜": 2262,
      "瓢": 2263,
      "瓣": 2264,
      "瓦": 2265,
      "瓮": 2266,
      "瓶": 2267,
      "瓷": 2268,
      "甘": 2269,
      "甚": 2270,
      "甜": 2271,
      "生": 2272,
      "用": 2273,
      "甩": 2274,
      "甬": 2275,
      "田": 2276,
      "由": 2277,
      "甲": 2278,
      "申": 2279,
      "电": 2280,
      "男": 2281,
      "画": 2282,
      "畅": 2283,
      "界": 2284,
      "畏": 2285,
      "畔": 2286,
      "留": 2287,
      "畜": 2288,
      "略": 2289,
      "番": 2290,
      "畴": 2291,
      "畸": 2292,
      "疆": 2293,
      "疋": 2294,
      "疏": 2295,
      "疑": 2296,
      "疗": 2297,
      "疙": 2298,
      "疚": 2299,
      "疤": 2300,
      "疫": 2301,
      "疮": 2302,
      "疯": 2303,
      "疲": 2304,
      "疵": 2305,
      "疼": 2306,
      "疾": 2307,
      "痂": 2308,
      "病": 2309,
      "症": 2310,
      "痊": 2311,
      "痒": 2312,
      "痕": 2313,
      "痛": 2314,
      "痞": 2315,
      "痣": 2316,
      "痪": 2317,
      "痴": 2318,
      "痹": 2319,
      "瘟": 2320,
      "瘦": 2321,
      "瘩": 2322,
      "瘫": 2323,
      "瘸": 2324,
      "瘾": 2325,
      "癌": 2326,
      "癖": 2327,
      "癞": 2328,
      "癯": 2329,
      "登": 2330,
      "白": 2331,
      "百": 2332,
      "皂": 2333,
      "的": 2334,
      "皆": 2335,
      "皇": 2336,
      "皑": 2337,
      "皙": 2338,
      "皮": 2339,
      "皱": 2340,
      "皿": 2341,
      "盆": 2342,
      "盈": 2343,
      "益": 2344,
      "盍": 2345,
      "盎": 2346,
      "盏": 2347,
      "监": 2348,
      "盒": 2349,
      "盔": 2350,
      "盖": 2351,
      "盗": 2352,
      "盘": 2353,
      "盛": 2354,
      "盟": 2355,
      "目": 2356,
      "盯": 2357,
      "盲": 2358,
      "直": 2359,
      "相": 2360,
      "盼": 2361,
      "盾": 2362,
      "省": 2363,
      "眇": 2364,
      "眈": 2365,
      "眉": 2366,
      "看": 2367,
      "真": 2368,
      "眠": 2369,
      "眨": 2370,
      "眩": 2371,
      "眯": 2372,
      "眶": 2373,
      "眷": 2374,
      "眸": 2375,
      "眺": 2376,
      "眼": 2377,
      "着": 2378,
      "睁": 2379,
      "睑": 2380,
      "睛": 2381,
      "睡": 2382,
      "督": 2383,
      "睦": 2384,
      "睫": 2385,
      "睹": 2386,
      "睽": 2387,
      "睿": 2388,
      "瞄": 2389,
      "瞅": 2390,
      "瞇": 2391,
      "瞌": 2392,
      "瞎": 2393,
      "瞑": 2394,
      "瞒": 2395,
      "瞟": 2396,
      "瞥": 2397,
      "瞧": 2398,
      "瞪": 2399,
      "瞬": 2400,
      "瞭": 2401,
      "瞰": 2402,
      "瞳": 2403,
      "瞻": 2404,
      "矗": 2405,
      "矛": 2406,
      "矢": 2407,
      "矣": 2408,
      "知": 2409,
      "矩": 2410,
      "矫": 2411,
      "短": 2412,
      "矮": 2413,
      "石": 2414,
      "矶": 2415,
      "矿": 2416,
      "码": 2417,
      "砌": 2418,
      "砍": 2419,
      "研": 2420,
      "砖": 2421,
      "砚": 2422,
      "砰": 2423,
      "破": 2424,
      "砸": 2425,
      "砾": 2426,
      "础": 2427,
      "硕": 2428,
      "硝": 2429,
      "硬": 2430,
      "确": 2431,
      "碌": 2432,
      "碍": 2433,
      "碎": 2434,
      "碑": 2435,
      "碗": 2436,
      "碟": 2437,
      "碧": 2438,
      "碰": 2439,
      "碴": 2440,
      "碾": 2441,
      "磁": 2442,
      "磅": 2443,
      "磊": 2444,
      "磕": 2445,
      "磨": 2446,
      "磴": 2447,
      "礁": 2448,
      "礡": 2449,
      "示": 2450,
      "礼": 2451,
      "社": 2452,
      "祈": 2453,
      "祖": 2454,
      "祝": 2455,
      "神": 2456,
      "祟": 2457,
      "祠": 2458,
      "祥": 2459,
      "票": 2460,
      "祭": 2461,
      "祷": 2462,
      "祸": 2463,
      "禀": 2464,
      "禁": 2465,
      "禅": 2466,
      "福": 2467,
      "离": 2468,
      "禽": 2469,
      "秀": 2470,
      "私": 2471,
      "秃": 2472,
      "秉": 2473,
      "秋": 2474,
      "种": 2475,
      "科": 2476,
      "秒": 2477,
      "秘": 2478,
      "租": 2479,
      "秦": 2480,
      "秧": 2481,
      "秩": 2482,
      "积": 2483,
      "称": 2484,
      "移": 2485,
      "秽": 2486,
      "稀": 2487,
      "程": 2488,
      "稍": 2489,
      "税": 2490,
      "稚": 2491,
      "稠": 2492,
      "稳": 2493,
      "稻": 2494,
      "稽": 2495,
      "稿": 2496,
      "穴": 2497,
      "究": 2498,
      "穷": 2499,
      "穹": 2500,
      "空": 2501,
      "穿": 2502,
      "突": 2503,
      "窃": 2504,
      "窄": 2505,
      "窍": 2506,
      "窒": 2507,
      "窖": 2508,
      "窗": 2509,
      "窘": 2510,
      "窜": 2511,
      "窝": 2512,
      "窟": 2513,
      "窥": 2514,
      "窦": 2515,
      "窿": 2516,
      "立": 2517,
      "竖": 2518,
      "站": 2519,
      "竞": 2520,
      "竟": 2521,
      "章": 2522,
      "童": 2523,
      "竦": 2524,
      "竭": 2525,
      "端": 2526,
      "竹": 2527,
      "竿": 2528,
      "笃": 2529,
      "笈": 2530,
      "笋": 2531,
      "笑": 2532,
      "笔": 2533,
      "笛": 2534,
      "符": 2535,
      "笨": 2536,
      "第": 2537,
      "笺": 2538,
      "笼": 2539,
      "等": 2540,
      "筋": 2541,
      "筐": 2542,
      "筑": 2543,
      "筒": 2544,
      "答": 2545,
      "策": 2546,
      "筛": 2547,
      "筝": 2548,
      "筹": 2549,
      "签": 2550,
      "简": 2551,
      "箍": 2552,
      "算": 2553,
      "管": 2554,
      "箫": 2555,
      "箭": 2556,
      "箱": 2557,
      "篇": 2558,
      "篝": 2559,
      "篡": 2560,
      "篮": 2561,
      "篷": 2562,
      "簇": 2563,
      "簌": 2564,
      "簧": 2565,
      "簸": 2566,
      "籁": 2567,
      "籍": 2568,
      "米": 2569,
      "类": 2570,
      "粉": 2571,
      "粒": 2572,
      "粗": 2573,
      "粘": 2574,
      "粟": 2575,
      "粥": 2576,
      "粪": 2577,
      "粮": 2578,
      "粹": 2579,
      "粼": 2580,
      "精": 2581,
      "糊": 2582,
      "糕": 2583,
      "糖": 2584,
      "糗": 2585,
      "糙": 2586,
      "糟": 2587,
      "系": 2588,
      "素": 2589,
      "索": 2590,
      "紧": 2591,
      "紫": 2592,
      "累": 2593,
      "絮": 2594,
      "繁": 2595,
      "纔": 2596,
      "纠": 2597,
      "红": 2598,
      "纤": 2599,
      "约": 2600,
      "级": 2601,
      "纪": 2602,
      "纭": 2603,
      "纯": 2604,
      "纱": 2605,
      "纳": 2606,
      "纵": 2607,
      "纷": 2608,
      "纸": 2609,
      "纹": 2610,
      "纺": 2611,
      "纽": 2612,
      "线": 2613,
      "练": 2614,
      "组": 2615,
      "绅": 2616,
      "细": 2617,
      "织": 2618,
      "终": 2619,
      "绊": 2620,
      "绍": 2621,
      "经": 2622,
      "绑": 2623,
      "绒": 2624,
      "结": 2625,
      "绕": 2626,
      "绘": 2627,
      "给": 2628,
      "络": 2629,
      "绝": 2630,
      "绞": 2631,
      "统": 2632,
      "绢": 2633,
      "绣": 2634,
      "继": 2635,
      "绩": 2636,
      "绪": 2637,
      "续": 2638,
      "绯": 2639,
      "绰": 2640,
      "绳": 2641,
      "维": 2642,
      "绵": 2643,
      "绷": 2644,
      "绸": 2645,
      "综": 2646,
      "绽": 2647,
      "绿": 2648,
      "缀": 2649,
      "缈": 2650,
      "缉": 2651,
      "缎": 2652,
      "缓": 2653,
      "缔": 2654,
      "缕": 2655,
      "编": 2656,
      "缘": 2657,
      "缚": 2658,
      "缝": 2659,
      "缠": 2660,
      "缤": 2661,
      "缥": 2662,
      "缨": 2663,
      "缩": 2664,
      "缭": 2665,
      "缰": 2666,
      "缲": 2667,
      "缴": 2668,
      "缸": 2669,
      "缺": 2670,
      "罐": 2671,
      "网": 2672,
      "罔": 2673,
      "罕": 2674,
      "罗": 2675,
      "罚": 2676,
      "罡": 2677,
      "罢": 2678,
      "罩": 2679,
      "罪": 2680,
      "置": 2681,
      "署": 2682,
      "羁": 2683,
      "羊": 2684,
      "美": 2685,
      "羔": 2686,
      "羚": 2687,
      "羞": 2688,
      "羡": 2689,
      "群": 2690,
      "羹": 2691,
      "羽": 2692,
      "翁": 2693,
      "翅": 2694,
      "翔": 2695,
      "翕": 2696,
      "翘": 2697,
      "翠": 2698,
      "翦": 2699,
      "翱": 2700,
      "翻": 2701,
      "翼": 2702,
      "耀": 2703,
      "老": 2704,
      "考": 2705,
      "者": 2706,
      "而": 2707,
      "耍": 2708,
      "耐": 2709,
      "耗": 2710,
      "耳": 2711,
      "耶": 2712,
      "耸": 2713,
      "耻": 2714,
      "耽": 2715,
      "耿": 2716,
      "聆": 2717,
      "聊": 2718,
      "聋": 2719,
      "职": 2720,
      "联": 2721,
      "聚": 2722,
      "聪": 2723,
      "肃": 2724,
      "肆": 2725,
      "肉": 2726,
      "肋": 2727,
      "肌": 2728,
      "肖": 2729,
      "肘": 2730,
      "肚": 2731,
      "肝": 2732,
      "肠": 2733,
      "股": 2734,
      "肢": 2735,
      "肤": 2736,
      "肥": 2737,
      "肩": 2738,
      "肮": 2739,
      "肯": 2740,
      "育": 2741,
      "肴": 2742,
      "肺": 2743,
      "肿": 2744,
      "胀": 2745,
      "胁": 2746,
      "胃": 2747,
      "胆": 2748,
      "背": 2749,
      "胎": 2750,
      "胖": 2751,
      "胚": 2752,
      "胜": 2753,
      "胞": 2754,
      "胡": 2755,
      "胧": 2756,
      "胯": 2757,
      "胳": 2758,
      "胴": 2759,
      "胶": 2760,
      "胸": 2761,
      "能": 2762,
      "脂": 2763,
      "脆": 2764,
      "脉": 2765,
      "脊": 2766,
      "脏": 2767,
      "脑": 2768,
      "脖": 2769,
      "脚": 2770,
      "脯": 2771,
      "脱": 2772,
      "脸": 2773,
      "脾": 2774,
      "腆": 2775,
      "腊": 2776,
      "腋": 2777,
      "腐": 2778,
      "腑": 2779,
      "腔": 2780,
      "腕": 2781,
      "腥": 2782,
      "腮": 2783,
      "腰": 2784,
      "腹": 2785,
      "腻": 2786,
      "腼": 2787,
      "腾": 2788,
      "腿": 2789,
      "膀": 2790,
      "膊": 2791,
      "膏": 2792,
      "膛": 2793,
      "膜": 2794,
      "膝": 2795,
      "膨": 2796,
      "膺": 2797,
      "臀": 2798,
      "臂": 2799,
      "臣": 2800,
      "自": 2801,
      "臭": 2802,
      "至": 2803,
      "致": 2804,
      "臻": 2805,
      "臼": 2806,
      "舅": 2807,
      "舆": 2808,
      "舌": 2809,
      "舍": 2810,
      "舒": 2811,
      "舔": 2812,
      "舞": 2813,
      "舟": 2814,
      "航": 2815,
      "舫": 2816,
      "般": 2817,
      "舱": 2818,
      "舵": 2819,
      "舷": 2820,
      "船": 2821,
      "艇": 2822,
      "艘": 2823,
      "良": 2824,
      "艰": 2825,
      "色": 2826,
      "艳": 2827,
      "艺": 2828,
      "艾": 2829,
      "节": 2830,
      "芋": 2831,
      "芒": 2832,
      "芙": 2833,
      "芜": 2834,
      "芝": 2835,
      "芥": 2836,
      "芦": 2837,
      "芨": 2838,
      "芬": 2839,
      "芯": 2840,
      "花": 2841,
      "芳": 2842,
      "芷": 2843,
      "芽": 2844,
      "苍": 2845,
      "苏": 2846,
      "苑": 2847,
      "苔": 2848,
      "苗": 2849,
      "苞": 2850,
      "苟": 2851,
      "若": 2852,
      "苦": 2853,
      "英": 2854,
      "苹": 2855,
      "茂": 2856,
      "范": 2857,
      "茅": 2858,
      "茉": 2859,
      "茎": 2860,
      "茧": 2861,
      "茫": 2862,
      "茵": 2863,
      "茶": 2864,
      "茸": 2865,
      "茹": 2866,
      "荆": 2867,
      "草": 2868,
      "荐": 2869,
      "荑": 2870,
      "荒": 2871,
      "荡": 2872,
      "荣": 2873,
      "荫": 2874,
      "药": 2875,
      "荷": 2876,
      "莉": 2877,
      "莎": 2878,
      "莠": 2879,
      "莫": 2880,
      "莱": 2881,
      "莲": 2882,
      "获": 2883,
      "莹": 2884,
      "莽": 2885,
      "菇": 2886,
      "菊": 2887,
      "菌": 2888,
      "菜": 2889,
      "菩": 2890,
      "菱": 2891,
      "菲": 2892,
      "萃": 2893,
      "萄": 2894,
      "萌": 2895,
      "萍": 2896,
      "萎": 2897,
      "萝": 2898,
      "萤": 2899,
      "营": 2900,
      "萧": 2901,
      "萨": 2902,
      "落": 2903,
      "著": 2904,
      "葛": 2905,
      "葡": 2906,
      "董": 2907,
      "葫": 2908,
      "葬": 2909,
      "葱": 2910,
      "蒙": 2911,
      "蒜": 2912,
      "蒸": 2913,
      "蓄": 2914,
      "蓉": 2915,
      "蓝": 2916,
      "蓬": 2917,
      "蔑": 2918,
      "蔓": 2919,
      "蔚": 2920,
      "蔟": 2921,
      "蔡": 2922,
      "蔼": 2923,
      "蔽": 2924,
      "蕉": 2925,
      "蕊": 2926,
      "蕴": 2927,
      "蕾": 2928,
      "薄": 2929,
      "薇": 2930,
      "薪": 2931,
      "薰": 2932,
      "藉": 2933,
      "藏": 2934,
      "藤": 2935,
      "蘑": 2936,
      "虎": 2937,
      "虏": 2938,
      "虐": 2939,
      "虑": 2940,
      "虚": 2941,
      "虫": 2942,
      "虬": 2943,
      "虱": 2944,
      "虹": 2945,
      "虻": 2946,
      "虽": 2947,
      "蚀": 2948,
      "蚁": 2949,
      "蚂": 2950,
      "蚊": 2951,
      "蚓": 2952,
      "蚕": 2953,
      "蚯": 2954,
      "蚱": 2955,
      "蛀": 2956,
      "蛇": 2957,
      "蛊": 2958,
      "蛋": 2959,
      "蛔": 2960,
      "蛙": 2961,
      "蛛": 2962,
      "蛟": 2963,
      "蛤": 2964,
      "蛮": 2965,
      "蜂": 2966,
      "蜃": 2967,
      "蜇": 2968,
      "蜒": 2969,
      "蜓": 2970,
      "蜗": 2971,
      "蜘": 2972,
      "蜜": 2973,
      "蜡": 2974,
      "蜷": 2975,
      "蜿": 2976,
      "蝇": 2977,
      "蝉": 2978,
      "蝗": 2979,
      "蝙": 2980,
      "蝠": 2981,
      "蝴": 2982,
      "蝶": 2983,
      "螂": 2984,
      "螃": 2985,
      "融": 2986,
      "螟": 2987,
      "螳": 2988,
      "螺": 2989,
      "蟀": 2990,
      "蟋": 2991,
      "蟑": 2992,
      "蟹": 2993,
      "蠕": 2994,
      "蠢": 2995,
      "血": 2996,
      "衅": 2997,
      "行": 2998,
      "衍": 2999,
      "衔": 3000,
      "街": 3001,
      "衡": 3002,
      "衣": 3003,
      "补": 3004,
      "表": 3005,
      "衫": 3006,
      "衬": 3007,
      "衰": 3008,
      "衷": 3009,
      "袁": 3010,
      "袂": 3011,
      "袅": 3012,
      "袋": 3013,
      "袍": 3014,
      "袖": 3015,
      "被": 3016,
      "袭": 3017,
      "袱": 3018,
      "裁": 3019,
      "裂": 3020,
      "装": 3021,
      "裔": 3022,
      "裕": 3023,
      "裘": 3024,
      "裙": 3025,
      "裤": 3026,
      "裳": 3027,
      "裸": 3028,
      "裹": 3029,
      "褂": 3030,
      "褐": 3031,
      "褚": 3032,
      "褛": 3033,
      "褪": 3034,
      "褴": 3035,
      "褶": 3036,
      "襄": 3037,
      "襟": 3038,
      "西": 3039,
      "要": 3040,
      "覆": 3041,
      "见": 3042,
      "观": 3043,
      "规": 3044,
      "觅": 3045,
      "视": 3046,
      "览": 3047,
      "觉": 3048,
      "觊": 3049,
      "觎": 3050,
      "觑": 3051,
      "角": 3052,
      "解": 3053,
      "触": 3054,
      "言": 3055,
      "誉": 3056,
      "誓": 3057,
      "警": 3058,
      "譬": 3059,
      "计": 3060,
      "订": 3061,
      "认": 3062,
      "讥": 3063,
      "讨": 3064,
      "让": 3065,
      "讪": 3066,
      "训": 3067,
      "议": 3068,
      "讯": 3069,
      "记": 3070,
      "讲": 3071,
      "讶": 3072,
      "许": 3073,
      "论": 3074,
      "讽": 3075,
      "设": 3076,
      "访": 3077,
      "诀": 3078,
      "证": 3079,
      "评": 3080,
      "诅": 3081,
      "识": 3082,
      "诈": 3083,
      "诉": 3084,
      "诊": 3085,
      "诋": 3086,
      "词": 3087,
      "译": 3088,
      "试": 3089,
      "诗": 3090,
      "诚": 3091,
      "诛": 3092,
      "话": 3093,
      "诞": 3094,
      "诡": 3095,
      "询": 3096,
      "诣": 3097,
      "该": 3098,
      "详": 3099,
      "诧": 3100,
      "诩": 3101,
      "诫": 3102,
      "诬": 3103,
      "语": 3104,
      "诮": 3105,
      "误": 3106,
      "诱": 3107,
      "诳": 3108,
      "说": 3109,
      "诵": 3110,
      "请": 3111,
      "诸": 3112,
      "诺": 3113,
      "读": 3114,
      "诽": 3115,
      "课": 3116,
      "谁": 3117,
      "调": 3118,
      "谅": 3119,
      "谈": 3120,
      "谊": 3121,
      "谋": 3122,
      "谍": 3123,
      "谎": 3124,
      "谐": 3125,
      "谑": 3126,
      "谓": 3127,
      "谙": 3128,
      "谛": 3129,
      "谜": 3130,
      "谢": 3131,
      "谣": 3132,
      "谤": 3133,
      "谦": 3134,
      "谧": 3135,
      "谨": 3136,
      "谩": 3137,
      "谬": 3138,
      "谭": 3139,
      "谱": 3140,
      "谲": 3141,
      "谴": 3142,
      "谷": 3143,
      "豁": 3144,
      "豆": 3145,
      "象": 3146,
      "豪": 3147,
      "豫": 3148,
      "豹": 3149,
      "豺": 3150,
      "貌": 3151,
      "贝": 3152,
      "贞": 3153,
      "负": 3154,
      "贡": 3155,
      "财": 3156,
      "责": 3157,
      "贤": 3158,
      "败": 3159,
      "账": 3160,
      "货": 3161,
      "质": 3162,
      "贩": 3163,
      "贪": 3164,
      "贫": 3165,
      "贬": 3166,
      "购": 3167,
      "贯": 3168,
      "贱": 3169,
      "贲": 3170,
      "贴": 3171,
      "贵": 3172,
      "贷": 3173,
      "贸": 3174,
      "费": 3175,
      "贺": 3176,
      "贼": 3177,
      "贾": 3178,
      "资": 3179,
      "赋": 3180,
      "赌": 3181,
      "赎": 3182,
      "赏": 3183,
      "赐": 3184,
      "赔": 3185,
      "赖": 3186,
      "赘": 3187,
      "赚": 3188,
      "赛": 3189,
      "赝": 3190,
      "赞": 3191,
      "赠": 3192,
      "赢": 3193,
      "赤": 3194,
      "赦": 3195,
      "赫": 3196,
      "走": 3197,
      "赴": 3198,
      "赵": 3199,
      "赶": 3200,
      "起": 3201,
      "趁": 3202,
      "超": 3203,
      "越": 3204,
      "趋": 3205,
      "趟": 3206,
      "趣": 3207,
      "足": 3208,
      "趴": 3209,
      "趾": 3210,
      "跃": 3211,
      "跄": 3212,
      "跋": 3213,
      "跌": 3214,
      "跑": 3215,
      "跚": 3216,
      "跛": 3217,
      "距": 3218,
      "跟": 3219,
      "跤": 3220,
      "跨": 3221,
      "跪": 3222,
      "路": 3223,
      "跳": 3224,
      "跷": 3225,
      "跺": 3226,
      "踉": 3227,
      "踌": 3228,
      "踏": 3229,
      "踝": 3230,
      "踞": 3231,
      "踢": 3232,
      "踩": 3233,
      "踪": 3234,
      "踮": 3235,
      "踱": 3236,
      "踹": 3237,
      "蹂": 3238,
      "蹄": 3239,
      "蹈": 3240,
      "蹊": 3241,
      "蹋": 3242,
      "蹑": 3243,
      "蹒": 3244,
      "蹙": 3245,
      "蹦": 3246,
      "蹩": 3247,
      "蹬": 3248,
      "蹭": 3249,
      "蹲": 3250,
      "躁": 3251,
      "躇": 3252,
      "躏": 3253,
      "身": 3254,
      "躬": 3255,
      "躯": 3256,
      "躲": 3257,
      "躺": 3258,
      "车": 3259,
      "轧": 3260,
      "轨": 3261,
      "轩": 3262,
      "转": 3263,
      "轮": 3264,
      "软": 3265,
      "轰": 3266,
      "轴": 3267,
      "轶": 3268,
      "轻": 3269,
      "载": 3270,
      "较": 3271,
      "辆": 3272,
      "辈": 3273,
      "辉": 3274,
      "辑": 3275,
      "输": 3276,
      "辕": 3277,
      "辗": 3278,
      "辙": 3279,
      "辛": 3280,
      "辜": 3281,
      "辞": 3282,
      "辟": 3283,
      "辣": 3284,
      "辨": 3285,
      "辩": 3286,
      "辫": 3287,
      "辰": 3288,
      "辱": 3289,
      "边": 3290,
      "辽": 3291,
      "达": 3292,
      "迁": 3293,
      "迂": 3294,
      "迄": 3295,
      "迅": 3296,
      "过": 3297,
      "迈": 3298,
      "迎": 3299,
      "运": 3300,
      "近": 3301,
      "返": 3302,
      "还": 3303,
      "这": 3304,
      "进": 3305,
      "远": 3306,
      "违": 3307,
      "连": 3308,
      "迟": 3309,
      "迢": 3310,
      "迥": 3311,
      "迪": 3312,
      "迫": 3313,
      "迭": 3314,
      "述": 3315,
      "迷": 3316,
      "迸": 3317,
      "迹": 3318,
      "追": 3319,
      "退": 3320,
      "送": 3321,
      "适": 3322,
      "逃": 3323,
      "逅": 3324,
      "逆": 3325,
      "选": 3326,
      "逊": 3327,
      "透": 3328,
      "逐": 3329,
      "递": 3330,
      "途": 3331,
      "逗": 3332,
      "通": 3333,
      "逛": 3334,
      "逝": 3335,
      "逞": 3336,
      "速": 3337,
      "造": 3338,
      "逢": 3339,
      "逮": 3340,
      "逸": 3341,
      "逻": 3342,
      "逼": 3343,
      "逾": 3344,
      "遁": 3345,
      "遂": 3346,
      "遇": 3347,
      "遍": 3348,
      "道": 3349,
      "遗": 3350,
      "遣": 3351,
      "遥": 3352,
      "遨": 3353,
      "遭": 3354,
      "遮": 3355,
      "遵": 3356,
      "避": 3357,
      "邀": 3358,
      "邂": 3359,
      "邃": 3360,
      "那": 3361,
      "邪": 3362,
      "邮": 3363,
      "邻": 3364,
      "郁": 3365,
      "郊": 3366,
      "郎": 3367,
      "郑": 3368,
      "郝": 3369,
      "部": 3370,
      "郭": 3371,
      "都": 3372,
      "鄙": 3373,
      "酌": 3374,
      "配": 3375,
      "酒": 3376,
      "酗": 3377,
      "酣": 3378,
      "酥": 3379,
      "酬": 3380,
      "酱": 3381,
      "酷": 3382,
      "酸": 3383,
      "醉": 3384,
      "醋": 3385,
      "醒": 3386,
      "醮": 3387,
      "采": 3388,
      "释": 3389,
      "里": 3390,
      "重": 3391,
      "野": 3392,
      "量": 3393,
      "金": 3394,
      "鉴": 3395,
      "针": 3396,
      "钉": 3397,
      "钓": 3398,
      "钙": 3399,
      "钝": 3400,
      "钟": 3401,
      "钢": 3402,
      "钥": 3403,
      "钦": 3404,
      "钧": 3405,
      "钩": 3406,
      "钪": 3407,
      "钱": 3408,
      "钳": 3409,
      "钵": 3410,
      "钻": 3411,
      "铁": 3412,
      "铃": 3413,
      "铅": 3414,
      "铐": 3415,
      "铗": 3416,
      "铜": 3417,
      "铠": 3418,
      "铭": 3419,
      "铮": 3420,
      "铰": 3421,
      "铲": 3422,
      "银": 3423,
      "铸": 3424,
      "铺": 3425,
      "链": 3426,
      "销": 3427,
      "锁": 3428,
      "锄": 3429,
      "锅": 3430,
      "锈": 3431,
      "锋": 3432,
      "锏": 3433,
      "锐": 3434,
      "错": 3435,
      "锚": 3436,
      "锢": 3437,
      "锣": 3438,
      "锤": 3439,
      "锥": 3440,
      "锦": 3441,
      "锭": 3442,
      "键": 3443,
      "锲": 3444,
      "锵": 3445,
      "锺": 3446,
      "镇": 3447,
      "镖": 3448,
      "镜": 3449,
      "镰": 3450,
      "镶": 3451,
      "长": 3452,
      "门": 3453,
      "闪": 3454,
      "闭": 3455,
      "问": 3456,
      "闯": 3457,
      "闲": 3458,
      "间": 3459,
      "闷": 3460,
      "闹": 3461,
      "闺": 3462,
      "闻": 3463,
      "阀": 3464,
      "阁": 3465,
      "阅": 3466,
      "阉": 3467,
      "阔": 3468,
      "队": 3469,
      "阮": 3470,
      "防": 3471,
      "阳": 3472,
      "阴": 3473,
      "阵": 3474,
      "阶": 3475,
      "阻": 3476,
      "阿": 3477,
      "附": 3478,
      "际": 3479,
      "陆": 3480,
      "陈": 3481,
      "陋": 3482,
      "陌": 3483,
      "降": 3484,
      "限": 3485,
      "陡": 3486,
      "院": 3487,
      "除": 3488,
      "陨": 3489,
      "险": 3490,
      "陪": 3491,
      "陵": 3492,
      "陶": 3493,
      "陷": 3494,
      "隅": 3495,
      "隆": 3496,
      "隋": 3497,
      "隍": 3498,
      "随": 3499,
      "隐": 3500,
      "隔": 3501,
      "隙": 3502,
      "障": 3503,
      "隶": 3504,
      "难": 3505,
      "雀": 3506,
      "雁": 3507,
      "雄": 3508,
      "雅": 3509,
      "集": 3510,
      "雇": 3511,
      "雌": 3512,
      "雕": 3513,
      "雨": 3514,
      "雪": 3515,
      "雳": 3516,
      "零": 3517,
      "雷": 3518,
      "雹": 3519,
      "雾": 3520,
      "需": 3521,
      "霄": 3522,
      "霆": 3523,
      "震": 3524,
      "霉": 3525,
      "霍": 3526,
      "霎": 3527,
      "霓": 3528,
      "霜": 3529,
      "霞": 3530,
      "霭": 3531,
      "露": 3532,
      "霸": 3533,
      "霹": 3534,
      "霾": 3535,
      "青": 3536,
      "靓": 3537,
      "静": 3538,
      "非": 3539,
      "靠": 3540,
      "靡": 3541,
      "面": 3542,
      "靥": 3543,
      "革": 3544,
      "靴": 3545,
      "靶": 3546,
      "鞋": 3547,
      "鞍": 3548,
      "鞘": 3549,
      "鞠": 3550,
      "鞭": 3551,
      "韦": 3552,
      "韧": 3553,
      "韩": 3554,
      "韬": 3555,
      "音": 3556,
      "韵": 3557,
      "页": 3558,
      "顶": 3559,
      "顷": 3560,
      "项": 3561,
      "顺": 3562,
      "须": 3563,
      "顽": 3564,
      "顾": 3565,
      "顿": 3566,
      "颀": 3567,
      "颁": 3568,
      "颂": 3569,
      "预": 3570,
      "颅": 3571,
      "领": 3572,
      "颇": 3573,
      "颈": 3574,
      "颊": 3575,
      "颐": 3576,
      "频": 3577,
      "颓": 3578,
      "颔": 3579,
      "颖": 3580,
      "颗": 3581,
      "题": 3582,
      "颜": 3583,
      "额": 3584,
      "颠": 3585,
      "颤": 3586,
      "风": 3587,
      "飓": 3588,
      "飕": 3589,
      "飘": 3590,
      "飙": 3591,
      "飚": 3592,
      "飞": 3593,
      "食": 3594,
      "餐": 3595,
      "饥": 3596,
      "饨": 3597,
      "饭": 3598,
      "饮": 3599,
      "饰": 3600,
      "饱": 3601,
      "饲": 3602,
      "饵": 3603,
      "饶": 3604,
      "饷": 3605,
      "饼": 3606,
      "饿": 3607,
      "馅": 3608,
      "馆": 3609,
      "馈": 3610,
      "首": 3611,
      "香": 3612,
      "马": 3613,
      "驭": 3614,
      "驮": 3615,
      "驯": 3616,
      "驰": 3617,
      "驱": 3618,
      "驳": 3619,
      "驴": 3620,
      "驶": 3621,
      "驹": 3622,
      "驻": 3623,
      "驼": 3624,
      "驾": 3625,
      "驿": 3626,
      "骂": 3627,
      "骄": 3628,
      "骆": 3629,
      "骇": 3630,
      "骋": 3631,
      "验": 3632,
      "骏": 3633,
      "骑": 3634,
      "骗": 3635,
      "骚": 3636,
      "骝": 3637,
      "骠": 3638,
      "骤": 3639,
      "骨": 3640,
      "骷": 3641,
      "骸": 3642,
      "骼": 3643,
      "髅": 3644,
      "髓": 3645,
      "高": 3646,
      "髯": 3647,
      "鬓": 3648,
      "鬼": 3649,
      "魁": 3650,
      "魂": 3651,
      "魄": 3652,
      "魅": 3653,
      "魇": 3654,
      "魏": 3655,
      "魔": 3656,
      "鱼": 3657,
      "鲁": 3658,
      "鲜": 3659,
      "鲤": 3660,
      "鲨": 3661,
      "鲸": 3662,
      "鳖": 3663,
      "鳞": 3664,
      "鸟": 3665,
      "鸡": 3666,
      "鸢": 3667,
      "鸣": 3668,
      "鸥": 3669,
      "鸦": 3670,
      "鸩": 3671,
      "鸭": 3672,
      "鸯": 3673,
      "鸳": 3674,
      "鸽": 3675,
      "鸾": 3676,
      "鸿": 3677,
      "鹄": 3678,
      "鹅": 3679,
      "鹉": 3680,
      "鹏": 3681,
      "鹤": 3682,
      "鹦": 3683,
      "鹫": 3684,
      "鹰": 3685,
      "鹿": 3686,
      "麒": 3687,
      "麟": 3688,
      "麦": 3689,
      "麻": 3690,
      "麾": 3691,
      "黄": 3692,
      "黎": 3693,
      "黏": 3694,
      "黑": 3695,
      "默": 3696,
      "黛": 3697,
      "黝": 3698,
      "黠": 3699,
      "黯": 3700,
      "鼎": 3701,
      "鼓": 3702,
      "鼠": 3703,
      "鼻": 3704,
      "鼾": 3705,
      "齐": 3706,
      "齑": 3707,
      "齿": 3708,
      "龃": 3709,
      "龄": 3710,
      "龉": 3711,
      "龙": 3712,
      "龟": 3713,
      "�": 3714,
      "--": 3715,
      "..": 3716,
      "。”": 3717,
      "----": 3718,
      ",我": 3719,
      "....": 3720,
      "?”": 3721,
      "道。": 3722,
      "了,": 3723,
      ":“": 3724,
      "--------": 3725,
      "!”": 3726,
      "什么": 3727,
      "我们": 3728,
      "一个": 3729,
      "......": 3730,
      "没有": 3731,
      ",你": 3732,
      "这个": 3733,
      "我的": 3734,
      ",但": 3735,
      "自己": 3736,
      "知道": 3737,
      "现在": 3738,
      "他们": 3739,
      "已经": 3740,
      "----------------": 3741,
      "袁茵": 3742,
      "不是": 3743,
      "的人": 3744,
      "就是": 3745,
      "“你": 3746,
      "了。”": 3747,
      "“我": 3748,
      "道:“": 3749,
      "的,": 3750,
      "到了": 3751,
      ",他": 3752,
      "中的": 3753,
      "突然": 3754,
      "了。": 3755,
      "怎么": 3756,
      "了一": 3757,
      "......”": 3758,
      ",这": 3759,
      "可以": 3760,
      ",一": 3761,
      ",那": 3762,
      ",她": 3763,
      "如果": 3764,
      "不会": 3765,
      "起来": 3766,
      "齐琳": 3767,
      "你们": 3768,
      ",我们": 3769,
      "他的": 3770,
      "小书": 3771,
      "因为": 3772,
      ",不": 3773,
      "的。”": 3774,
      "小洁": 3775,
      "的话": 3776,
      "出来": 3777,
      "那个": 3778,
      "看着": 3779,
      "吗?”": 3780,
      "这样": 3781,
      "还是": 3782,
      "冯德": 3783,
      "她的": 3784,
      "身体": 3785,
      "声音": 3786,
      "世界": 3787,
      "南宫": 3788,
      "一定": 3789,
      "虽然": 3790,
      "老大": 3791,
      "人的": 3792,
      "的一": 3793,
      ",就": 3794,
      "你的": 3795,
      "一般": 3796,
      "的道。": 3797,
      "--------------------------------": 3798,
      "南宫北": 3799,
      ",而": 3800,
      "在了": 3801,
      "所以": 3802,
      "孙小洁": 3803,
      "上的": 3804,
      "?”我": 3805,
      "可能": 3806,
      "不能": 3807,
      "。”我": 3808,
      "不要": 3809,
      "黑衣": 3810,
      "只有": 3811,
      "吗?": 3812,
      "了起来": 3813,
      "在这": 3814,
      "只是": 3815,
      "都是": 3816,
      "一直": 3817,
      "开始": 3818,
      "还有": 3819,
      "了,我": 3820,
      "的声音": 3821,
      "色的": 3822,
      "“那": 3823,
      "一下": 3824,
      "也是": 3825,
      "少女": 3826,
      "自己的": 3827,
      "中,": 3828,
      "为什么": 3829,
      "这么": 3830,
      "下来": 3831,
      "一点": 3832,
      "吧!”": 3833,
      "白狐": 3834,
      ",如果": 3835,
      "**": 3836,
      "眼睛": 3837,
      "“不": 3838,
      "非常": 3839,
      "心中": 3840,
      "黑暗": 3841,
      "也不": 3842,
      "的我": 3843,
      "应该": 3844,
      "吧!": 3845,
      "东西": 3846,
      "地道。": 3847,
      "了!”": 3848,
      "离开": 3849,
      "的是": 3850,
      "为了": 3851,
      "时候": 3852,
      "无法": 3853,
      "陈斌": 3854,
      "天龙": 3855,
      "两个": 3856,
      "后,": 3857,
      "带着": 3858,
      "去,": 3859,
      "上,": 3860,
      "不到": 3861,
      "了!": 3862,
      "不知道": 3863,
      ",所以": 3864,
      "大的": 3865,
      ",也": 3866,
      "发现": 3867,
      ",在": 3868,
      "竟然": 3869,
      "一面": 3870,
      "不过": 3871,
      "是我": 3872,
      "剑玄": 3873,
      "去。": 3874,
      "点头": 3875,
      "喜欢": 3876,
      "男子": 3877,
      "真的": 3878,
      "起了": 3879,
      "天龙帮": 3880,
      "邪牙": 3881,
      "人,": 3882,
      "地方": 3883,
      "感觉": 3884,
      "难道": 3885,
      "住了": 3886,
      "真是": 3887,
      "其实": 3888,
      "身上": 3889,
      "的事": 3890,
      "立即": 3891,
      "让我": 3892,
      "说话": 3893,
      "手中": 3894,
      "“这": 3895,
      "时,": 3896,
      "西门": 3897,
      "“老大": 3898,
      "希望": 3899,
      "对我": 3900,
      "笑道。": 3901,
      "魔族": 3902,
      "魔法": 3903,
      "当然": 3904,
      "无月": 3905,
      "一声": 3906,
      "时间": 3907,
      "看来": 3908,
      "出了": 3909,
      "大家": 3910,
      "成了": 3911,
      "告诉": 3912,
      "李无月": 3913,
      "在一": 3914,
      "这一": 3915,
      "一个人": 3916,
      "周平": 3917,
      "的小": 3918,
      "觉得": 3919,
      "来,": 3920,
      "有一": 3921,
      "只要": 3922,
      "中。": 3923,
      "在我": 3924,
      "这种": 3925,
      "我们的": 3926,
      "了出来": 3927,
      "孩子": 3928,
      "第一": 3929,
      "缓缓": 3930,
      "原来": 3931,
      "消失": 3932,
      "瞬间": 3933,
      "自然": 3934,
      "断天": 3935,
      "小茵": 3936,
      "老达": 3937,
      "西门断天": 3938,
      "是什么": 3939,
      "脸上": 3940,
      "完全": 3941,
      "看到": 3942,
      "男人": 3943,
      "上了": 3944,
      "的。": 3945,
      "超级": 3946,
      ",他们": 3947,
      "之间": 3948,
      "声道。": 3949,
      "马上": 3950,
      "雷智": 3951,
      "可是": 3952,
      "终于": 3953,
      ",现在": 3954,
      "夏怒": 3955,
      "所有": 3956,
      "雷智森": 3957,
      "了下来": 3958,
      "身后": 3959,
      "不住": 3960,
      "刚才": 3961,
      "我就": 3962,
      "战斗": 3963,
      "给我": 3964,
      "身边": 3965,
      "个人": 3966,
      "入了": 3967,
      "着我": 3968,
      ".'": 3969,
      "二号": 3970,
      "吧?”": 3971,
      "来的": 3972,
      "似乎": 3973,
      "来说": 3974,
      "姐姐": 3975,
      "我是": 3976,
      "轻轻": 3977,
      " 0": 3978,
      "摇头": 3979,
      ",因为": 3980,
      "任何": 3981,
      "出手": 3982,
      "女人": 3983,
      "相信": 3984,
      "手中的": 3985,
      "人家": 3986,
      "准备": 3987,
      "点了": 3988,
      "失落": 3989,
      ",但我": 3990,
      "神秘": 3991,
      "出现": 3992,
      "了我": 3993,
      "来。": 3994,
      "超梦": 3995,
      "目光": 3996,
      ",不过": 3997,
      "最后": 3998,
      "下,": 3999,
      "力的": 4000,
      ",而且": 4001,
      "就算": 4002,
      "发生": 4003,
      "我不": 4004,
      "这个世界": 4005,
      "那一": 4006,
      "吧?": 4007,
      "岚妍": 4008,
      "商岚妍": 4009,
      "点了点头": 4010,
      "※※": 4011,
      "只能": 4012,
      "的剑": 4013,
      "意思": 4014,
      "眼中": 4015,
      "了起来。": 4016,
      "变得": 4017,
      "是一": 4018,
      "!”我": 4019,
      "关系": 4020,
      "就会": 4021,
      "黑雷": 4022,
      "淡淡": 4023,
      "的笑": 4024,
      "“是": 4025,
      "一样": 4026,
      "此时": 4027,
      "问题": 4028,
      "失落之": 4029,
      "我和": 4030,
      "雷霆": 4031,
      "上。": 4032,
      "有什么": 4033,
      "同时": 4034,
      "不知": 4035,
      "的大": 4036,
      "究竟": 4037,
      "起,": 4038,
      "了?": 4039,
      "清楚": 4040,
      "气息": 4041,
      "说不": 4042,
      "有些": 4043,
      "绿莹": 4044,
      "****": 4045,
      "的手": 4046,
      "表情": 4047,
      "那么": 4048,
      "白衣": 4049,
      "的地方": 4050,
      "以后": 4051,
      "口气": 4052,
      "几乎": 4053,
      "微笑": 4054,
      ",我就": 4055,
      "眉头": 4056,
      "都不": 4057,
      "是不": 4058,
      "失落之都": 4059,
      "作者": 4060,
      "依姿": 4061,
      "那些": 4062,
      "是一个": 4063,
      "舅舅": 4064,
      ",你们": 4065,
      "双手": 4066,
      "陈鱼": 4067,
      "随着": 4068,
      "了,你": 4069,
      "这样的": 4070,
      ":“你": 4071,
      "小青": 4072,
      "少年": 4073,
      "我也": 4074,
      "了?”": 4075,
      "别人": 4076,
      "这些": 4077,
      "然后": 4078,
      "出一": 4079,
      "控制": 4080,
      "除了": 4081,
      "...": 4082,
      "进入": 4083,
      "下的": 4084,
      "绝对": 4085,
      "之前": 4086,
      "玲玲": 4087,
      "下去": 4088,
      "陈依姿": 4089,
      "“小": 4090,
      "咬着": 4091,
      "体内": 4092,
      "阳光": 4093,
      "剑玄录": 4094,
      "站在": 4095,
      "不得": 4096,
      "生命": 4097,
      "的道:“": 4098,
      "帝国": 4099,
      "无论": 4100,
      "的时候": 4101,
      "邪都": 4102,
      "此刻": 4103,
      "让你": 4104,
      "当时": 4105,
      "既然": 4106,
      "仁鲜": 4107,
      "天空": 4108,
      "模样": 4109,
      "的看着": 4110,
      ",我的": 4111,
      "在地": 4112,
      "洗仁鲜": 4113,
      "着一": 4114,
      "力量": 4115,
      "如此": 4116,
      "是在": 4117,
      "这里": 4118,
      "进了": 4119,
      "答应": 4120,
      "头,": 4121,
      "第二": 4122,
      "下了": 4123,
      "了过": 4124,
      "闪电": 4125,
      "想不到": 4126,
      "能量": 4127,
      ",对": 4128,
      ",是": 4129,
      "双眼": 4130,
      "啊!": 4131,
      "样子": 4132,
      "出的": 4133,
      "在空": 4134,
      "我一": 4135,
      "我心中": 4136,
      "也许": 4137,
      "天涯": 4138,
      "望着": 4139,
      "胡飞": 4140,
      "今天": 4141,
      "黑暗中": 4142,
      "你。”": 4143,
      "厉害": 4144,
      "变成": 4145,
      "显然": 4146,
      "武功": 4147,
      "算是": 4148,
      "了一口气": 4149,
      "一定要": 4150,
      "的东西": 4151,
      "一定会": 4152,
      "件事": 4153,
      "几个": 4154,
      "的,我": 4155,
      "的话,": 4156,
      "以为": 4157,
      "吸血": 4158,
      "渐渐": 4159,
      "说,": 4160,
      "什么?": 4161,
      "正在": 4162,
      "高手": 4163,
      " [": 4164,
      "很快": 4165,
      "燕儿": 4166,
      "咬着牙": 4167,
      "之后": 4168,
      "越来": 4169,
      "战斗力": 4170,
      "游戏": 4171,
      "面的": 4172,
      "越来越": 4173,
      "“他": 4174,
      "死亡": 4175,
      "不了": 4176,
      "先生": 4177,
      "雷霆龙": 4178,
      ",要": 4179,
      "永远": 4180,
      "一切": 4181,
      "如何": 4182,
      "就要": 4183,
      "满了": 4184,
      " 1": 4185,
      "士兵": 4186,
      "姑娘": 4187,
      "着头": 4188,
      "安杰": 4189,
      "安杰尔": 4190,
      "动,": 4191,
      "呢?": 4192,
      "------------------------------------------------": 4193,
      "--------------------------------------------------------------------------------": 4194,
      "死之": 4195,
      "猛的": 4196,
      "水晶": 4197,
      "杀了": 4198,
      ":“我": 4199,
      "女子": 4200,
      "开了": 4201,
      "说过": 4202,
      "’的": 4203,
      "。』": 4204,
      "传来": 4205,
      "方向": 4206,
      "他们的": 4207,
      "“这个": 4208,
      "小姐": 4209,
      ",虽然": 4210,
      "办法": 4211,
      "句话": 4212,
      "失去": 4213,
      "得到": 4214,
      "身形": 4215,
      "说的": 4216,
      "全身": 4217,
      "了一个": 4218,
      "却是": 4219,
      "速度": 4220,
      "——": 4221,
      "危险": 4222,
      "没事": 4223,
      "紫电": 4224,
      "轻轻的": 4225,
      ",再": 4226,
      "本来": 4227,
      "真气": 4228,
      "传说": 4229,
      "尸体": 4230,
      "恐怕": 4231,
      "花火": 4232,
      "计划": 4233,
      "啊!”": 4234,
      "子,": 4235,
      "很多": 4236,
      "“我”": 4237,
      "在这里": 4238,
      "一笑": 4239,
      "的老": 4240,
      "说着": 4241,
      "......我": 4242,
      "“不错": 4243,
      "不断": 4244,
      "唯一": 4245,
      "大人": 4246,
      "幻水": 4247,
      "估计": 4248,
      "整个": 4249,
      "“好": 4250,
      "前方": 4251,
      "右手": 4252,
      "同伴": 4253,
      "听到": 4254,
      "师傅": 4255,
      "立时": 4256,
      "不敢": 4257,
      "xx": 4258,
      "也就": 4259,
      "和你": 4260,
      "春风": 4261,
      "。”她": 4262,
      "冷冷": 4263,
      "前的": 4264,
      "山藏": 4265,
      "机会": 4266,
      "笑道:“": 4267,
      "怎么样": 4268,
      "三个": 4269,
      "重重": 4270,
      "决定": 4271,
      "指着": 4272,
      "回来": 4273,
      "将军": 4274,
      "朋友": 4275,
      "果然": 4276,
      "根本": 4277,
      "重要": 4278,
      "了。”我": 4279,
      "都没有": 4280,
      "死之炉": 4281,
      "痛苦": 4282,
      "都会": 4283,
      "什么?”": 4284,
      "千万": 4285,
      "就在": 4286,
      "春喜": 4287,
      "的脸": 4288,
      "罗雁": 4289,
      "魔王": 4290,
      "什么事": 4291,
      "缓缓的": 4292,
      "出,": 4293,
      "原因": 4294,
      "抱着": 4295,
      "是不是": 4296,
      "郭天涯": 4297,
      "的黑": 4298,
      "的身体": 4299,
      "轻道。": 4300,
      "吗?”我": 4301,
      "一道": 4302,
      "想到": 4303,
      "把我": 4304,
      "~~": 4305,
      "王八": 4306,
      "疯狂": 4307,
      "给你": 4308,
      "了起来,": 4309,
      "圣晶": 4310,
      "的感觉": 4311,
      "了,但": 4312,
      ",只": 4313,
      ",将": 4314,
      "不好": 4315,
      "老公": 4316,
      "的事情": 4317,
      "王八蛋": 4318,
      "向春风": 4319,
      "小涯": 4320,
      "杀死": 4321,
      "篇 ": 4322,
      "记忆": 4323,
      "这是": 4324,
      ",这个": 4325,
      "冷倩": 4326,
      "武侠": 4327,
      "温柔": 4328,
      "着的": 4329,
      ":『": 4330,
      "“我们": 4331,
      "一条": 4332,
      "之一": 4333,
      "向了": 4334,
      "四个": 4335,
      "张刀": 4336,
      "我想": 4337,
      "跟着": 4338,
      ",我不": 4339,
      ",就算": 4340,
      "之中": 4341,
      "佣兵": 4342,
      "卧虎": 4343,
      "空气": 4344,
      "西域": 4345,
      ",我也": 4346,
      "出去": 4347,
      "向我": 4348,
      "情况": 4349,
      "找到": 4350,
      "是个": 4351,
      "的目光": 4352,
      "童子": 4353,
      "能力": 4354,
      "之后,": 4355,
      ",让": 4356,
      "“她": 4357,
      "一起": 4358,
      "不同": 4359,
      "保护": 4360,
      "再说": 4361,
      "大声": 4362,
      "对不": 4363,
      "齐虎": 4364,
      "。”齐琳": 4365,
      ",从": 4366,
      "孙幻水": 4367,
      "快要": 4368,
      "杀手": 4369,
      "杨光": 4370,
      "顿时": 4371,
      "了出来。": 4372,
      "?我": 4373,
      "我,": 4374,
      "诸葛": 4375,
      "这个世界上": 4376,
      "发出": 4377,
      "拼命": 4378,
      "的‘": 4379,
      "还没": 4380,
      "还能": 4381,
      "面色": 4382,
      "?你": 4383,
      "军方": 4384,
      "变成了": 4385,
      "的表情": 4386,
      "道,": 4387,
      "非常的": 4388,
      ",没有": 4389,
      "三人": 4390,
      "和我": 4391,
      "回头": 4392,
      "的心": 4393,
      "一次": 4394,
      "天下": 4395,
      "状态": 4396,
      "袁茵的": 4397,
      "江南": 4398,
      "秘密": 4399,
      "为什么要": 4400,
      "所有的": 4401,
      "你就": 4402,
      "呢?”": 4403,
      "拥有": 4404,
      "看到了": 4405,
      "在了地": 4406,
      "妹妹": 4407,
      "房间": 4408,
      "所谓": 4409,
      "据说": 4410,
      "的模样": 4411,
      "精神": 4412,
      "被他": 4413,
      "吸血族": 4414,
      "了上": 4415,
      "兄弟": 4416,
      "在我的": 4417,
      "身前": 4418,
      ",然后": 4419,
      "一片": 4420,
      "公主": 4421,
      "剑光": 4422,
      "周宁": 4423,
      "命悬": 4424,
      "慢慢": 4425,
      "消息": 4426,
      "绍叶": 4427,
      "过了": 4428,
      "头顶": 4429,
      "的女": 4430,
      "而且": 4431,
      "转身": 4432,
      "西域江南": 4433,
      "急忙": 4434,
      "李剑": 4435,
      "的那": 4436,
      "紧紧": 4437,
      "般的": 4438,
      "不见": 4439,
      "必须": 4440,
      "一直在": 4441,
      ",小": 4442,
      "你是": 4443,
      "对着": 4444,
      "这时": 4445,
      "“你们": 4446,
      "  ": 4447,
      "“什么": 4448,
      "了个": 4449,
      "口中": 4450,
      "比较": 4451,
      "白的": 4452,
      "身上的": 4453,
      "长剑": 4454,
      ",看来": 4455,
      "不少": 4456,
      "你不": 4457,
      "只手": 4458,
      "头。": 4459,
      "张伯": 4460,
      "杨绍叶": 4461,
      "死幻": 4462,
      "沉声道。": 4463,
      "章 ": 4464,
      ",我想": 4465,
      "无数": 4466,
      "的她": 4467,
      "脚步": 4468,
      "还要": 4469,
      "之下": 4470,
      "兹无": 4471,
      "向前": 4472,
      "哈兹无": 4473,
      "好像": 4474,
      "样的": 4475,
      "武林": 4476,
      "由于": 4477,
      "的他": 4478,
      "的确": 4479,
      "说了": 4480,
      "里面": 4481,
      "哈兹无尔": 4482,
      ",却": 4483,
      ",只要": 4484,
      "存在": 4485,
      "手一": 4486,
      "用力": 4487,
      "的神": 4488,
      "“如果": 4489,
      "三十": 4490,
      "令人": 4491,
      "叹了一口气": 4492,
      "周兄": 4493,
      "方法": 4494,
      "暗黑": 4495,
      "的袁茵": 4496,
      "目前": 4497,
      "。”袁茵": 4498,
      ",也许": 4499,
      "超梦六": 4500,
      "不错": 4501,
      "天的": 4502,
      "成为": 4503,
      "打开": 4504,
      "早就": 4505,
      "简单": 4506,
      "见到": 4507,
      "这儿": 4508,
      "超梦六杀": 4509,
      ",又": 4510,
      "幸福": 4511,
      "我心": 4512,
      "是因为": 4513,
      "最好": 4514,
      "的女人": 4515,
      "皮斯": 4516,
      "眼前": 4517,
      "艾皮斯": 4518,
      "进行": 4519,
      ",他的": 4520,
      " 2": 4521,
      "事情": 4522,
      "放心": 4523,
      "毕竟": 4524,
      "的。”我": 4525,
      ":'": 4526,
      "反应": 4527,
      "巨大的": 4528,
      "并不": 4529,
      "担心": 4530,
      "有人": 4531,
      "白家": 4532,
      "部 ": 4533,
      "都在": 4534,
      "颤抖": 4535,
      "一些": 4536,
      "才能": 4537,
      "皇子": 4538,
      "美人": 4539,
      "一定是": 4540,
      "在一起": 4541,
      "不可": 4542,
      "出现在": 4543,
      "小的": 4544,
      "就好": 4545,
      "左右": 4546,
      "普竹": 4547,
      "的血": 4548,
      "怎么会": 4549,
      "死幻之": 4550,
      "之处": 4551,
      "回去": 4552,
      "月光": 4553,
      "被我": 4554,
      "黑色的": 4555,
      "大公主": 4556,
      "成员": 4557,
      "手,": 4558,
      "最强": 4559,
      "活着": 4560,
      "的地": 4561,
      "过来": 4562,
      ",她的": 4563,
      "黑衣人": 4564,
      "另一": 4565,
      "否则": 4566,
      "声,": 4567,
      "对方": 4568,
      "恢复": 4569,
      "纷纷": 4570,
      "这次": 4571,
      "黑发": 4572,
      "有一种": 4573,
      "十二": 4574,
      "外的": 4575,
      "大概": 4576,
      "就不": 4577,
      "是你": 4578,
      "身子": 4579,
      "选择": 4580,
      "鲜血": 4581,
      "是什么人": 4582,
      "********": 4583,
      "上一": 4584,
      "之时": 4585,
      "之气": 4586,
      "她们": 4587,
      "害怕": 4588,
      "小心": 4589,
      "把你": 4590,
      "明白": 4591,
      "犬奴": 4592,
      "用力的": 4593,
      "眼神": 4594,
      "结界": 4595,
      "天龙帮的": 4596,
      "“......”": 4597,
      "再次": 4598,
      "太多": 4599,
      "始终": 4600,
      "师弟": 4601,
      "王白": 4602,
      "程度": 4603,
      "道:“你": 4604,
      "王白帝": 4605,
      "仍然": 4606,
      "哈哈": 4607,
      "我。": 4608,
      "迷惑": 4609,
      "说不定": 4610,
      "暗黑经": 4611,
      ",别": 4612,
      ",有": 4613,
      "也不会": 4614,
      "修花": 4615,
      "光芒": 4616,
      "惨叫": 4617,
      "我在": 4618,
      "的“": 4619,
      "见过": 4620,
      ",我是": 4621,
      "“别": 4622,
      "动的": 4623,
      "十七": 4624,
      "嘴巴": 4625,
      "安全": 4626,
      "就像": 4627,
      "接近": 4628,
      "暂时": 4629,
      "的关系": 4630,
      "暗黑经纪": 4631,
      ",以": 4632,
      ",可": 4633,
      ",想": 4634,
      "停了下来": 4635,
      "回事": 4636,
      "开口": 4637,
      "我才": 4638,
      "死去": 4639,
      "黑衣少女": 4640,
      ",就是": 4641,
      ",其实": 4642,
      "“小茵": 4643,
      "一句": 4644,
      "丫头": 4645,
      "容易": 4646,
      "就可以": 4647,
      "弃者": 4648,
      "的白": 4649,
      "的气息": 4650,
      "突的": 4651,
      "鬼面": 4652,
      "的一下": 4653,
      "“那你": 4654,
      "了,我们": 4655,
      "分钟": 4656,
      "向后": 4657,
      "多少": 4658,
      "好象": 4659,
      "实在": 4660,
      "帮主": 4661,
      "恐怖": 4662,
      "摇了": 4663,
      "攻击": 4664,
      "狐狸": 4665,
      "认为": 4666,
      ",还有": 4667,
      "的样子": 4668,
      "被她": 4669,
      "面对": 4670,
      "闪电一般": 4671,
      "摇了摇头": 4672,
      "?』": 4673,
      "医生": 4674,
      "周围": 4675,
      "毁灭": 4676,
      " “": 4677,
      ",当然": 4678,
      "二十": 4679,
      "云儿": 4680,
      "双掌": 4681,
      "奇怪": 4682,
      "美女": 4683,
      "身旁": 4684,
      "通过": 4685,
      "都要": 4686,
      "问道。": 4687,
      "阿姨": 4688,
      "面前": 4689,
      ",也就是": 4690,
      "告诉你": 4691,
      ",每": 4692,
      ",还": 4693,
      "从来": 4694,
      "可怜": 4695,
      "坐在": 4696,
      "家伙": 4697,
      "快的": 4698,
      "杀气": 4699,
      "轻易": 4700,
      "。”冯德": 4701,
      "了,他": 4702,
      "失去了": 4703,
      ",一个": 4704,
      "以前": 4705,
      "将我": 4706,
      "年前": 4707,
      "改变": 4708,
      "结果": 4709,
      "让人": 4710,
      "雷娜": 4711,
      "。”他": 4712,
      "弃者帮": 4713,
      "NP": 4714,
      "关于": 4715,
      "小时": 4716,
      "属于": 4717,
      "着,": 4718,
      "脑中": 4719,
      "说得": 4720,
      ",这样": 4721,
      "告诉我": 4722,
      "的笑容": 4723,
      "NPC": 4724,
      "“现在": 4725,
      "一种": 4726,
      "利用": 4727,
      "化水": 4728,
      "无奈": 4729,
      "替我": 4730,
      "特殊": 4731,
      "色。": 4732,
      "读者": 4733,
      "长老": 4734,
      "青年": 4735,
      "S级": 4736,
      "不出": 4737,
      "冰冷": 4738,
      "四处": 4739,
      "心的": 4740,
      "成功": 4741,
      "挣扎": 4742,
      "是谁": 4743,
      "着那": 4744,
      "身份": 4745,
      "道.": 4746,
      "铁化水": 4747,
      "了,她": 4748,
      "暗黑经纪人": 4749,
      ",难道": 4750,
      "为何": 4751,
      "也要": 4752,
      "反正": 4753,
      "总是": 4754,
      "撼野": 4755,
      "的对": 4756,
      "老者": 4757,
      "胸口": 4758,
      "让她": 4759,
      ",我和": 4760,
      "道:“我": 4761,
      "起了眉头": 4762,
      "诸葛撼野": 4763,
      "丧尸": 4764,
      "了进": 4765,
      "声。": 4766,
      "残龙": 4767,
      "的时间": 4768,
      "这件事": 4769,
      "需要": 4770,
      "什么都": 4771,
      "篇 第": 4772,
      "不想": 4773,
      "之中,": 4774,
      "也没有": 4775,
      "名字": 4776,
      "吸收": 4777,
      "呼吸": 4778,
      "好好": 4779,
      "左手": 4780,
      "死了": 4781,
      ",但却": 4782,
      "“但": 4783,
      "三天": 4784,
      "不安": 4785,
      "之中。": 4786,
      "他是": 4787,
      "十个": 4788,
      "十六": 4789,
      "在他": 4790,
      "爱情": 4791,
      "的,你": 4792,
      "看你": 4793,
      "说是": 4794,
      "阳童子": 4795,
      "黑色": 4796,
      "...”": 4797,
      "重重的": 4798,
      "与我": 4799,
      "似的": 4800,
      "剑气": 4801,
      "客栈": 4802,
      "故意": 4803,
      "江湖": 4804,
      "猎人": 4805,
      "生的": 4806,
      "白色的": 4807,
      "脸上的": 4808,
      "花黛": 4809,
      "。”小书": 4810,
      "我的心": 4811,
      "※※※※": 4812,
      "花黛柔": 4813,
      ",并": 4814,
      "”的": 4815,
      "不但": 4816,
      "主人": 4817,
      "倒是": 4818,
      "剩下": 4819,
      "吧。”": 4820,
      "堂主": 4821,
      "就在这": 4822,
      "平静": 4823,
      "普通": 4824,
      "术士": 4825,
      "着她": 4826,
      "空中": 4827,
      "我的身体": 4828,
      "怎么办": 4829,
      "了一下": 4830,
      "在空中": 4831,
      "所谓的": 4832,
      "之内": 4833,
      "兴奋": 4834,
      "冷笑": 4835,
      "凶手": 4836,
      "在那": 4837,
      "好,": 4838,
      "爆炸": 4839,
      "生物": 4840,
      "跟我": 4841,
      "骷髅": 4842,
      "龙城": 4843,
      "] 0": 4844,
      "响,": 4845,
      "有一个": 4846,
      "灭魔": 4847,
      "莉香": 4848,
      "还不": 4849,
      "面孔": 4850,
      "黑衣鬼面": 4851,
      "这么多": 4852,
      "!』": 4853,
      ",否则": 4854,
      "与他": 4855,
      "其中": 4856,
      "得很": 4857,
      "我知道": 4858,
      "有点": 4859,
      "未必": 4860,
      "看见": 4861,
      "笑容": 4862,
      ".2": 4863,
      "“谁": 4864,
      "不停": 4865,
      "在下": 4866,
      "康云儿": 4867,
      "把他": 4868,
      "死的": 4869,
      "活下去": 4870,
      "父亲": 4871,
      "电脑": 4872,
      "过去": 4873,
      "长的": 4874,
      "......”我": 4875,
      "咬着牙道。": 4876,
      "!我": 4877,
      ",两": 4878,
      ",大": 4879,
      ",只是": 4880,
      "“可是": 4881,
      "也就是": 4882,
      "又是": 4883,
      "各位": 4884,
      "大了": 4885,
      "对她": 4886,
      "故事": 4887,
      "正是": 4888,
      "死在": 4889,
      "混蛋": 4890,
      "移动": 4891,
      "说什么": 4892,
      "一面说着": 4893,
      ",只有": 4894,
      "不行": 4895,
      "怀中": 4896,
      "替你": 4897,
      "的气": 4898,
      "直升": 4899,
      "真正": 4900,
      "眼泪": 4901,
      "飞机": 4902,
      "没有任何": 4903,
      "点了点头。": 4904,
      "。。": 4905,
      "令我": 4906,
      "哥哥": 4907,
      "哪儿": 4908,
      "明天": 4909,
      "晚上": 4910,
      "白痴": 4911,
      "的,但": 4912,
      "目的": 4913,
      "行动": 4914,
      "让他": 4915,
      "魔宫": 4916,
      "......你": 4917,
      "所有的人": 4918,
      "传来了": 4919,
      "“没有": 4920,
      "偷袭": 4921,
      "喃喃": 4922,
      "失踪": 4923,
      "小子": 4924,
      "师命悬": 4925,
      "汉子": 4926,
      "片刻": 4927,
      "皱起了眉头": 4928,
      "继续": 4929,
      "老头": 4930,
      "过,": 4931,
      ",那个": 4932,
      "的话,我": 4933,
      "直升机": 4934,
      "合体": 4935,
      "后面": 4936,
      "地道:“": 4937,
      "对你": 4938,
      "搜索": 4939,
      "旋转": 4940,
      "的力量": 4941,
      "看看": 4942,
      "神龙": 4943,
      "脸色": 4944,
      "英雄": 4945,
      "应该是": 4946,
      "“老大,": 4947,
      "发生了": 4948,
      "] 0 0": 4949,
      ",用": 4950,
      "?'": 4951,
      "一变": 4952,
      "不可能": 4953,
      "你,": 4954,
      "四周": 4955,
      "回到": 4956,
      "封印": 4957,
      "忘了": 4958,
      "愿意": 4959,
      "我已经": 4960,
      "改造": 4961,
      "有所": 4962,
      "都被": 4963,
      "长发": 4964,
      "闭上了": 4965,
      "黑狼": 4966,
      "一动": 4967,
      "从小": 4968,
      "会有": 4969,
      "几天": 4970,
      "四大": 4971,
      "外,": 4972,
      "幽幽": 4973,
      "美丽": 4974,
      "辈子": 4975,
      "都不会": 4976,
      "白衣少女": 4977,
      "xxx": 4978,
      ",好": 4979,
      "“不要": 4980,
      "一头": 4981,
      "了解": 4982,
      "到达": 4983,
      "国的": 4984,
      "地上": 4985,
      "奶奶": 4986,
      "字一句": 4987,
      "对他": 4988,
      "惊道。": 4989,
      "接触": 4990,
      "瓦岗": 4991,
      ",那些": 4992,
      "不住的": 4993,
      "不禁": 4994,
      "之力": 4995,
      "和他": 4996,
      "寂寞": 4997,
      "我所": 4998,
      "我。”": 4999,
      "握着": 5000,
      "最多": 5001,
      "清晰": 5002,
      "白龙": 5003,
      "的男人": 5004,
      "看了": 5005,
      "碧月": 5006,
      "笼罩": 5007,
      "肯定": 5008,
      "魔剑": 5009,
      ",我却": 5010,
      ",我要": 5011,
      "?”袁茵": 5012,
      "已经被": 5013,
      ",一面": 5014,
      "世界上": 5015,
      "一般,": 5016,
      "剑玄之气": 5017,
      "瓦岗堡": 5018,
      "一步": 5019,
      "兴趣": 5020,
      "吧?”我": 5021,
      "基因": 5022,
      "她是": 5023,
      "就被": 5024,
      "意识": 5025,
      "森林": 5026,
      "等待": 5027,
      "转眼": 5028,
      "还在": 5029,
      "点了点头:“": 5030,
      "不可以": 5031,
      "人。": 5032,
      "作品": 5033,
      "偷偷": 5034,
      "回答": 5035,
      "小瘦": 5036,
      "的风": 5037,
      "着他": 5038,
      "竟是": 5039,
      "还没有": 5040,
      "的人,": 5041,
      ",这是": 5042,
      "“怎么": 5043,
      "不及": 5044,
      "不用": 5045,
      "中年": 5046,
      "初庐": 5047,
      "士团": 5048,
      "我却": 5049,
      "更是": 5050,
      "的世界": 5051,
      "联手": 5052,
      "距离": 5053,
      "遇到": 5054,
      "长城": 5055,
      "龙族": 5056,
      "!”袁茵": 5057,
      "魔族的": 5058,
      "第一部 ": 5059,
      "一笑:“": 5060,
      "第一部 初庐": 5061,
      "不多": 5062,
      "从他": 5063,
      "全力": 5064,
      "可知道": 5065,
      "后来": 5066,
      "哈特": 5067,
      "地狱": 5068,
      "将她": 5069,
      "的尸体": 5070,
      "石门": 5071,
      "第三": 5072,
      "红色的": 5073,
      "过一": 5074,
      "队长": 5075,
      "现在的": 5076,
      "出来的": 5077,
      "的声音。": 5078,
      "第一次": 5079,
      "哈特雷": 5080,
      ",人": 5081,
      ",天": 5082,
      ",谁": 5083,
      "也有": 5084,
      "使用": 5085,
      "受到": 5086,
      "城中": 5087,
      "大法": 5088,
      "就如": 5089,
      "无声": 5090,
      "的南宫北": 5091,
      "罢了,": 5092,
      "而已": 5093,
      "背心": 5094,
      "说完": 5095,
      "说了,": 5096,
      "躺在": 5097,
      "都有": 5098,
      ",我知道": 5099,
      "一般。": 5100,
      "在地上的": 5101,
      "哈特雷斯": 5102,
      ",袁茵": 5103,
      ",无论": 5104,
      ":)": 5105,
      "一闪": 5106,
      "五个": 5107,
      "从我": 5108,
      "凌空": 5109,
      "听到了": 5110,
      "她。": 5111,
      "对付": 5112,
      "小声": 5113,
      "废话": 5114,
      "战士": 5115,
      "把她": 5116,
      "甚至": 5117,
      "讨厌": 5118,
      "说到": 5119,
      "隐隐": 5120,
      "什么时候": 5121,
      ",不要": 5122,
      "白衣男子": 5123,
      "根本就": 5124,
      "对不起": 5125,
      "了出": 5126,
      "人物": 5127,
      "你这个": 5128,
      "则是": 5129,
      "别的": 5130,
      "动作": 5131,
      "变身": 5132,
      "可怕": 5133,
      "年青": 5134,
      "恐惧": 5135,
      "数十": 5136,
      "留下": 5137,
      "的说": 5138,
      "最后的": 5139,
      "“难道": 5140,
      "也不是": 5141,
      "兵团": 5142,
      "周宪": 5143,
      "大哥": 5144,
      "天杀": 5145,
      "并不是": 5146,
      "微微": 5147,
      "放过": 5148,
      "杀人": 5149,
      "皇家": 5150,
      "着我的": 5151,
      "紧张": 5152,
      "红发": 5153,
      "话音": 5154,
      "财阀": 5155,
      "部分": 5156,
      ":“老大": 5157,
      ",你的": 5158,
      "的一声": 5159,
      "慢慢的": 5160,
      "狐狸精": 5161,
      ",当": 5162,
      "“他们": 5163,
      "之下,": 5164,
      "了开": 5165,
      "二人": 5166,
      "出。": 5167,
      "只剩下": 5168,
      "咬牙": 5169,
      "团长": 5170,
      "完成": 5171,
      "并没有": 5172,
      "整个人": 5173,
      "未落": 5174,
      "简直": 5175,
      "迅速": 5176,
      "门前": 5177,
      "黑的": 5178,
      ",齐琳": 5179,
      ",原来": 5180,
      "一动,": 5181,
      "了我的": 5182,
      "了......”": 5183,
      "你能": 5184,
      "全都": 5185,
      "公子": 5186,
      "命的": 5187,
      "地面": 5188,
      "小北": 5189,
      "帅哥": 5190,
      "干什么?”": 5191,
      "开心": 5192,
      "我要": 5193,
      "照顾": 5194,
      "花无": 5195,
      "藏在": 5196,
      "黄将军": 5197,
      ",我已经": 5198,
      ",你就": 5199,
      "微笑着": 5200,
      "十六姐": 5201,
      ",血": 5202,
      "‘弃者帮": 5203,
      "“因为": 5204,
      "一眼": 5205,
      "一字一句": 5206,
      "不再": 5207,
      "丧失": 5208,
      "也知道": 5209,
      "伤害": 5210,
      "它们": 5211,
      "实话": 5212,
      "早已": 5213,
      "残酷": 5214,
      "的齐琳": 5215,
      "的原因": 5216,
      "阴阳童子": 5217,
      ",就连": 5218,
      "神秘女子": 5219,
      "显然是": 5220,
      "“等": 5221,
      "中心": 5222,
      "你要": 5223,
      "十八": 5224,
      "叫我": 5225,
      "周评": 5226,
      "大师": 5227,
      "好的": 5228,
      "怀疑": 5229,
      "支持": 5230,
      "有没有": 5231,
      "来,我": 5232,
      "死了,": 5233,
      "气。": 5234,
      "玄幻": 5235,
      "破坏": 5236,
      "笑了": 5237,
      "门外": 5238,
      "到了我的": 5239,
      ",一道": 5240,
      "看着我": 5241,
      "“老大,你": 5242,
      "了下来。": 5243,
      "不断的": 5244,
      "00": 5245,
      "“没": 5246,
      "一剑": 5247,
      "下。": 5248,
      "下去,": 5249,
      "不管": 5250,
      "了她": 5251,
      "人类": 5252,
      "分别": 5253,
      "制造": 5254,
      "号码": 5255,
      "小说": 5256,
      "小小的": 5257,
      "年轻": 5258,
      "无形": 5259,
      "流星": 5260,
      "网络": 5261,
      "考虑": 5262,
      "记得": 5263,
      "起。": 5264,
      "风中": 5265,
      "高的": 5266,
      "可能是": 5267,
      "了过来。": 5268,
      "魔王哈特雷斯": 5269,
      "叹了一口气。": 5270,
      "黑衣鬼面男子": 5271,
      "一人": 5272,
      "不对": 5273,
      "出了一": 5274,
      "别人的": 5275,
      "向下": 5276,
      "向我们": 5277,
      "在她": 5278,
      "女孩子": 5279,
      "年纪": 5280,
      "异常": 5281,
      "想要": 5282,
      "我没有": 5283,
      "手上": 5284,
      "暴雨": 5285,
      "曾经": 5286,
      "模糊": 5287,
      "百分": 5288,
      "皇帝": 5289,
      "相互": 5290,
      "着。": 5291,
      "神情": 5292,
      "经常": 5293,
      "网上": 5294,
      "色,": 5295,
      "都没": 5296,
      "金发": 5297,
      ",但是": 5298,
      "南宫弱": 5299,
      "不能再": 5300,
      "两个人": 5301,
      "感觉到": 5302,
      "马上就要": 5303,
      "死幻之森": 5304,
      "一面说着一面": 5305,
      "一同": 5306,
      "一把": 5307,
      "一颗": 5308,
      "上面": 5309,
      "两人": 5310,
      "充满了": 5311,
      "冷静": 5312,
      "化作": 5313,
      "叔叔": 5314,
      "在这个": 5315,
      "奇迹": 5316,
      "妈妈": 5317,
      "彼此": 5318,
      "漂亮": 5319,
      "着一个": 5320,
      "衣服": 5321,
      "认识": 5322,
      "到了极": 5323,
      "眼睛。": 5324,
      "在空中的": 5325,
      "长城帝国": 5326,
      "‘超梦": 5327,
      "“为什么": 5328,
      "“老公": 5329,
      "一旦": 5330,
      "一脸": 5331,
      "也没": 5332,
      "了?”我": 5333,
      "以后,": 5334,
      "低下了": 5335,
      "傻瓜": 5336,
      "功夫": 5337,
      "带走": 5338,
      "惊恐": 5339,
      "才是": 5340,
      "方式": 5341,
      "武技": 5342,
      "玻璃": 5343,
      "理由": 5344,
      "生活": 5345,
      "的情": 5346,
      "着脸": 5347,
      "笑着": 5348,
      "迷宫": 5349,
      "小书的": 5350,
      "消失在了": 5351,
      "男人婆": 5352,
      "第一部 初庐篇 第": 5353,
      "“看来": 5354,
      "也会": 5355,
      "作为": 5356,
      "倒在了地": 5357,
      "几分": 5358,
      "又道。": 5359,
      "合作": 5360,
      "向他": 5361,
      "商全": 5362,
      "场面": 5363,
      "复活": 5364,
      "外面": 5365,
      "将他": 5366,
      "我这个": 5367,
      "才会": 5368,
      "挠着头": 5369,
      "掌握": 5370,
      "林奶奶": 5371,
      "沈飞": 5372,
      "特别": 5373,
      "猛然": 5374,
      "的少女": 5375,
      "老人": 5376,
      "这句话": 5377,
      "那种": 5378,
      "随时": 5379,
      "了,不过": 5380,
      "的一切": 5381,
      "黑衣兵团": 5382,
      "唯一的": 5383,
      "花无雪": 5384,
      "『你": 5385,
      "一惊": 5386,
      "之时,": 5387,
      "听说": 5388,
      "外公": 5389,
      "对于": 5390,
      "我能": 5391,
      "沉默": 5392,
      "灭绝": 5393,
      "白问": 5394,
      "目标": 5395,
      "盯着": 5396,
      "绝不会": 5397,
      "至少": 5398,
      "要求": 5399,
      "都已经": 5400,
      "间的": 5401,
      "知道你": 5402,
      "怎么能": 5403,
      "传说中的": 5404,
      ",大家": 5405,
      ".xxx": 5406,
      "一天": 5407,
      "不起": 5408,
      "乖乖": 5409,
      "他。”": 5410,
      "休息": 5411,
      "其他": 5412,
      "另一个": 5413,
      "吧,": 5414,
      "吼道。": 5415,
      "国家": 5416,
      "在黑暗中": 5417,
      "急急": 5418,
      "怪物": 5419,
      "明的": 5420,
      "死,": 5421,
      "母亲": 5422,
      "每一个": 5423,
      "玩笑": 5424,
      "的道": 5425,
      "睁开": 5426,
      "窗外": 5427,
      "绝望": 5428,
      "耀眼": 5429,
      "边的": 5430,
      "风吹": 5431,
      "了,这": 5432,
      ",但她": 5433,
      "起来了。": 5434,
      "你们的": 5435,
      "了出来,": 5436,
      "千万不要": 5437,
      "杀手组": 5438,
      "主角": 5439,
      "之人": 5440,
      "他,": 5441,
      "剑的": 5442,
      "受伤": 5443,
      "和她": 5444,
      "和尚": 5445,
      "哪里": 5446,
      "地底": 5447,
      "心头": 5448,
      "文章": 5449,
      "是为了": 5450,
      "气魔剑": 5451,
      "能源": 5452,
      "让我们": 5453,
      "体内的": 5454,
      ",据说": 5455,
      "“对": 5456,
      "“当然": 5457,
      "一瞬间": 5458,
      "不太": 5459,
      "之地": 5460,
      "之声": 5461,
      "了你": 5462,
      "他那": 5463,
      "会不会": 5464,
      "冷道。": 5465,
      "动手": 5466,
      "十分": 5467,
      "华年": 5468,
      "后的": 5469,
      "在我们": 5470,
      "声道:“": 5471,
      "女儿": 5472,
      "射向": 5473,
      "强烈": 5474,
      "我还是": 5475,
      "把我们": 5476,
      "暴走": 5477,
      "林中": 5478,
      "武器": 5479,
      "生之": 5480,
      "知不知道": 5481,
      "被人": 5482,
      "银发": 5483,
      "卧虎居": 5484,
      "话音未落": 5485,
      ",除了": 5486,
      "一阵": 5487,
      "了吗?”": 5488,
      "了吧?": 5489,
      "仿似": 5490,
      "千年": 5491,
      "双臂": 5492,
      "只见": 5493,
      "听着": 5494,
      "城市": 5495,
      "安慰": 5496,
      "就走": 5497,
      "平时": 5498,
      "开启": 5499,
      "待卫": 5500,
      "放在": 5501,
      "昆仑": 5502,
      "明月": 5503,
      "然的": 5504,
      "算命": 5505,
      "罢了。”": 5506,
      "蓝发": 5507,
      "被你": 5508,
      "邪帝": 5509,
      ",我只是": 5510,
      "可能会": 5511,
      "一下子": 5512,
      "为什么不": 5513,
      ",所以我": 5514,
      "的剑气": 5515,
      "淡淡的道。": 5516,
      "的确是": 5517,
      "的神情": 5518,
      ":1": 5519,
      "『我": 5520,
      "一副": 5521,
      "不由": 5522,
      "与她": 5523,
      "了.": 5524,
      "做出": 5525,
      "动弹": 5526,
      "十邪帝": 5527,
      "只不过": 5528,
      "城的": 5529,
      "太过": 5530,
      "威力": 5531,
      "尽的": 5532,
      "形成": 5533,
      "打断": 5534,
      "洗冷": 5535,
      "海中": 5536,
      "温华年": 5537,
      "狂奔": 5538,
      "的脸上": 5539,
      "盈盈": 5540,
      "笑盈盈": 5541,
      "经过": 5542,
      "追杀": 5543,
      "逃走": 5544,
      "阻止": 5545,
      "院长": 5546,
      "飞快的": 5547,
      "鱼儿": 5548,
      "麻烦": 5549,
      ",但他": 5550,
      "的人。”": 5551,
      "自然是": 5552,
      "身后的": 5553,
      "不住地": 5554,
      "是不可能": 5555,
      "紧紧的": 5556,
      "不停的": 5557,
      "发生了什么事": 5558,
      ",便": 5559,
      ",快": 5560,
      ",连": 5561,
      ".1": 5562,
      "“其实": 5563,
      "一件": 5564,
      "一等": 5565,
      "你自己": 5566,
      "剑,": 5567,
      "剑士团": 5568,
      "勉强": 5569,
      "去找": 5570,
      "周静": 5571,
      "射而": 5572,
      "方面": 5573,
      "最大的": 5574,
      "的天": 5575,
      "脖子": 5576,
      "评论": 5577,
      "还真": 5578,
      "逼近": 5579,
      "靠近": 5580,
      ",我心中": 5581,
      "怎么回事": 5582,
      "的话,那": 5583,
      "吧!”我": 5584,
      "吧!我": 5585,
      "对我来说": 5586,
      "身边的": 5587,
      "那么多": 5588,
      "黑发青年": 5589,
      "实在是": 5590,
      "百分之": 5591,
      "“行": 5592,
      "一身": 5593,
      "不如": 5594,
      "也在": 5595,
      "保持": 5596,
      "刚刚": 5597,
      "右掌": 5598,
      "呀!”": 5599,
      "四奴": 5600,
      "大陆": 5601,
      "好了,": 5602,
      "安静": 5603,
      "宋冯德": 5604,
      "干掉": 5605,
      "幽灵": 5606,
      "当中": 5607,
      "求你": 5608,
      "生死": 5609,
      "的身": 5610,
      "看得": 5611,
      "看起来": 5612,
      "等一下": 5613,
      "解药": 5614,
      "起的": 5615,
      "“不过": 5616,
      "魔法师": 5617,
      "在一旁": 5618,
      "之间,": 5619,
      "了下来,": 5620,
      "就算是": 5621,
      "雷霆虎": 5622,
      "拼命的": 5623,
      "白问心": 5624,
      ",还是": 5625,
      "“大": 5626,
      "“不是": 5627,
      "不清": 5628,
      "之巅": 5629,
      "之上,": 5630,
      "众人": 5631,
      "必要": 5632,
      "惊慌": 5633,
      "日子": 5634,
      "是她": 5635,
      "是我的": 5636,
      "灯光": 5637,
      "电子": 5638,
      "的就是": 5639,
      "直接": 5640,
      "秋杀": 5641,
      "立刻": 5642,
      "笑了。": 5643,
      "红的": 5644,
      "蓝星": 5645,
      "轻松": 5646,
      "进来": 5647,
      "除非": 5648,
      ",你要": 5649,
      "看着她": 5650,
      "一直都": 5651,
      "眼睛,": 5652,
      "摇头道。": 5653,
      "~~~~": 5654,
      "‘弃者帮’": 5655,
      "号码牌": 5656,
      "算命先生": 5657,
      " 3": 5658,
      "“原来": 5659,
      "一只": 5660,
      "不在": 5661,
      "八个": 5662,
      "冒险": 5663,
      "多久": 5664,
      "大多": 5665,
      "对手": 5666,
      "干吗": 5667,
      "怀中的": 5668,
      "性命": 5669,
      "我,我": 5670,
      "房中": 5671,
      "护法": 5672,
      "放弃": 5673,
      "施出": 5674,
      "无息": 5675,
      "有事": 5676,
      "棺材": 5677,
      "的同": 5678,
      "的问题": 5679,
      "笑。": 5680,
      "而死": 5681,
      "自觉": 5682,
      "说出": 5683,
      "贤者": 5684,
      "最后一": 5685,
      "淡淡地道。": 5686,
      "的表情。": 5687,
      "到了极点": 5688,
      "蓝星圣晶": 5689,
      ",真是": 5690,
      ",刚才": 5691,
      "一分": 5692,
      "一股": 5693,
      "了我们": 5694,
      "伤口": 5695,
      "倏的": 5696,
      "冲天": 5697,
      "分队长": 5698,
      "名的": 5699,
      "在了一": 5700,
      "多了一": 5701,
      "将手": 5702,
      "干什么?": 5703,
      "得到了": 5704,
      "我都": 5705,
      "承受": 5706,
      "散发": 5707,
      "昏迷": 5708,
      "昨天": 5709,
      "漫天": 5710,
      "现身": 5711,
      "的意思": 5712,
      "的眼神": 5713,
      "的家伙": 5714,
      "真的是": 5715,
      "空间": 5716,
      "红衣": 5717,
      "结束": 5718,
      "耳朵": 5719,
      "聪明": 5720,
      "记住": 5721,
      ",不知": 5722,
      "一般的": 5723,
      "也不知道": 5724,
      "觉得自己": 5725,
      "神秘的": 5726,
      "传说中": 5727,
      "无声无息": 5728,
      "生之扇": 5729,
      ",能": 5730,
      ",被": 5731,
      ",当时": 5732,
      "“这样": 5733,
      "一张": 5734,
      "一时": 5735,
      "为难": 5736,
      "以来": 5737,
      "价值": 5738,
      "你在": 5739,
      "充满": 5740,
      "势力": 5741,
      "呀!": 5742,
      "小孩子": 5743,
      "幸好": 5744,
      "开,": 5745,
      "得意": 5746,
      "手。": 5747,
      "抓住": 5748,
      "无限": 5749,
      "条件": 5750,
      "树叶": 5751,
      "段时间": 5752,
      "没用": 5753,
      "满脸": 5754,
      "的海": 5755,
      "的?”": 5756,
      "的孩子": 5757,
      "的方向": 5758,
      "眼中的": 5759,
      "肩头": 5760,
      "说。”": 5761,
      "远处": 5762,
      "金属": 5763,
      "钱院长": 5764,
      "雪花": 5765,
      "韦伯": 5766,
      "风化": 5767,
      ",一定": 5768,
      ",那就是": 5769,
      "“不行": 5770,
      "面色一变": 5771,
      "'你": 5772,
      ",如": 5773,
      "A级": 5774,
      "“姐姐": 5775,
      "“既然": 5776,
      "一并": 5777,
      "从她": 5778,
      "光线": 5779,
      "出版": 5780,
      "到底": 5781,
      "前面": 5782,
      "包围": 5783,
      "半年": 5784,
      "地的": 5785,
      "对准": 5786,
      "已被": 5787,
      "应声": 5788,
      "惊叫": 5789,
      "我会": 5790,
      "我又": 5791,
      "拍了": 5792,
      "最重要": 5793,
      "有了": 5794,
      "来了": 5795,
      "横飞": 5796,
      "翼翼": 5797,
      "落到": 5798,
      "警察": 5799,
      "谢谢": 5800,
      "......』": 5801,
      "我的话": 5802,
      ",这时": 5803,
      "身体的": 5804,
      "吗?我": 5805,
      "脸上带着": 5806,
      "“小北": 5807,
      "脚步声": 5808,
      "灭绝剑士团": 5809,
      "“有": 5810,
      "“小书": 5811,
      "一口": 5812,
      "两位": 5813,
      "主意": 5814,
      "位置": 5815,
      "你的。”": 5816,
      "倒霉": 5817,
      "可惜": 5818,
      "嗓子": 5819,
      "处于": 5820,
      "多了": 5821,
      "多谢": 5822,
      "大,": 5823,
      "大宅": 5824,
      "大惊": 5825,
      "守护": 5826,
      "就连": 5827,
      "崩溃": 5828,
      "建筑": 5829,
      "形容": 5830,
      "很难": 5831,
      "感情": 5832,
      "打算": 5833,
      "抬头": 5834,
      "无力的": 5835,
      "是不会": 5836,
      "来自": 5837,
      "梦想": 5838,
      "比我": 5839,
      "沉鱼": 5840,
      "深处": 5841,
      "灿烂": 5842,
      "牺牲": 5843,
      "电流": 5844,
      "的速度": 5845,
      "的机会": 5846,
      "皇宫": 5847,
      "着眼睛": 5848,
      "神族": 5849,
      "神色": 5850,
      "给了": 5851,
      "耳中": 5852,
      "血的": 5853,
      "贱人": 5854,
      "进攻": 5855,
      "都城": 5856,
      "野蛮": 5857,
      "驾驶": 5858,
      "黑影": 5859,
      "!”小书": 5860,
      ",但现在": 5861,
      "了。”齐琳": 5862,
      "“我不": 5863,
      "在这儿": 5864,
      "了!”我": 5865,
      "在一瞬间": 5866,
      "任何人": 5867,
      "的感觉。": 5868,
      "未必能": 5869,
      ",恐怕": 5870,
      ",结果": 5871,
      "一脚": 5872,
      "一边": 5873,
      "为止": 5874,
      "儿子": 5875,
      "全部": 5876,
      "兰特": 5877,
      "到时": 5878,
      "到现在": 5879,
      "喘着": 5880,
      "嘻嘻": 5881,
      "四人": 5882,
      "因此": 5883,
      "宝物": 5884,
      "小分队长": 5885,
      "就已经": 5886,
      "开玩笑": 5887,
      "强行": 5888,
      "怒吼": 5889,
      "想法": 5890,
      "摇着头": 5891,
      "来不及": 5892,
      "松堂主": 5893,
      "格兰特": 5894,
      "猛虎": 5895,
      "电话": 5896,
      "的命": 5897,
      "皱着": 5898,
      "绿寺": 5899,
      "艰难": 5900,
      "资格": 5901,
      "里的": 5902,
      "重的": 5903,
      "门的": 5904,
      "闪烁": 5905,
      "飓飙": 5906,
      "。”孙小洁": 5907,
      ",我才": 5908,
      "了,如果": 5909,
      "没有什么": 5910,
      "突然从": 5911,
      "了一点": 5912,
      "了一般": 5913,
      "在了我的": 5914,
      "了起来:“": 5915,
      "果然是": 5916,
      "沉鱼池": 5917,
      "‘失落之都": 5918,
      "一手": 5919,
      "之上": 5920,
      "之际": 5921,
      "了不少": 5922,
      "他。": 5923,
      "住的": 5924,
      "判断": 5925,
      "剑圣": 5926,
      "十多": 5927,
      "十来": 5928,
      "半截": 5929,
      "在他的": 5930,
      "她那": 5931,
      "好不好": 5932,
      "幻天": 5933,
      "微笑道。": 5934,
      "心情": 5935,
      "愤怒": 5936,
      "我现在": 5937,
      "操纵": 5938,
      "最近": 5939,
      "父母": 5940,
      "的阳光": 5941,
      "眼光": 5942,
      "着我们": 5943,
      "绝不": 5944,
      "绝世": 5945,
      "美的": 5946,
      "说句": 5947,
      "转瞬间": 5948,
      "那两个": 5949,
      "问你": 5950,
      "面目": 5951,
      "魔晶": 5952,
      "了,现在": 5953,
      "了,所以": 5954,
      "不是我": 5955,
      "了。”她": 5956,
      "意思?”": 5957,
      "很快就": 5958,
      "西域江南国": 5959,
      "    ": 5960,
      "的样子。": 5961,
      "真正的": 5962,
      "皱起了眉头。": 5963,
      ",为了": 5964,
      ",人家": 5965,
      "“嗯": 5966,
      "了.'": 5967,
      "别说": 5968,
      "发挥": 5969,
      "失败": 5970,
      "师兄": 5971,
      "心里": 5972,
      "急道。": 5973,
      "意义": 5974,
      "手里": 5975,
      "是他": 5976,
      "死路": 5977,
      "注意": 5978,
      "洪幻": 5979,
      "深深": 5980,
      "环境": 5981,
      "的!": 5982,
      "的那个": 5983,
      "的超级": 5984,
      "的天空": 5985,
      "真相": 5986,
      "组的": 5987,
      "证明": 5988,
      "透过": 5989,
      "随便": 5990,
      "飞鸟": 5991,
      "马车": 5992,
      "了,因为": 5993,
      "知道我": 5994,
      "怎么可能": 5995,
      "离开这儿": 5996,
      "轻轻一": 5997,
      "手中的剑": 5998,
      "超梦四奴": 5999,
      "空气中": 6000,
      "对不对": 6001,
      ",竟": 6002,
      ",既然": 6003,
      ",想不到": 6004,
      "一击": 6005,
      "上方": 6006,
      "下次": 6007,
      "关心": 6008,
      "关欣": 6009,
      "可爱": 6010,
      "咱们": 6011,
      "对我们": 6012,
      "寻找": 6013,
      "很清楚": 6014,
      "怒道。": 6015,
      "想来": 6016,
      "想着": 6017,
      "想到了": 6018,
      "我自己": 6019,
      "手指": 6020,
      "数百": 6021,
      "武当": 6022,
      "灵魂": 6023,
      "白色": 6024,
      "的?": 6025,
      "的水": 6026,
      "的青": 6027,
      "着他的": 6028,
      "联系": 6029,
      "苍白": 6030,
      "蒙面": 6031,
      "见识": 6032,
      "解决": 6033,
      "过程": 6034,
      "进去": 6035,
      "释放": 6036,
      "里美": 6037,
      "陌生": 6038,
      "面纱": 6039,
      "马德": 6040,
      "鬼刀": 6041,
      "黑杀": 6042,
      "我们就": 6043,
      "没有人": 6044,
      ",这一": 6045,
      ",这种": 6046,
      ",如果你": 6047,
      "来说,": 6048,
      "摇头。": 6049,
      "点了点头,": 6050,
      "卧虎周评": 6051,
      "我心头": 6052,
      "小心翼翼": 6053,
      "四大美人": 6054,
      "拍了拍": 6055,
      "!!": 6056,
      ",更": 6057,
      "不明": 6058,
      "交换": 6059,
      "住了。": 6060,
      "何方": 6061,
      "修习": 6062,
      "值得": 6063,
      "六个": 6064,
      "再也": 6065,
      "冯阿姨": 6066,
      "前进": 6067,
      "受了": 6068,
      "只觉": 6069,
      "嘴角": 6070,
      "女人的": 6071,
      "子弹": 6072,
      "实的": 6073,
      "工作": 6074,
      "想起了": 6075,
      "感兴趣": 6076,
      "拜托": 6077,
      "时刻": 6078,
      "明明": 6079,
      "暗杀": 6080,
      "本能": 6081,
      "来到": 6082,
      "正常": 6083,
      "潜入": 6084,
      "的在": 6085,
      "的同时": 6086,
      "相当": 6087,
      "看不到": 6088,
      "睁开了": 6089,
      "老板": 6090,
      "苦笑道。": 6091,
      "获得": 6092,
      "语气": 6093,
      "说道。": 6094,
      "跟你": 6095,
      "身的": 6096,
      "都能": 6097,
      "阶段": 6098,
      "难以": 6099,
      "。”那": 6100,
      "已经是": 6101,
      "“你这个": 6102,
      "的,如果": 6103,
      "起来。": 6104,
      "齐琳的": 6105,
      ",但我却": 6106,
      "整个世界": 6107,
      "的黑色": 6108,
      "的心情": 6109,
      "****************": 6110,
      ",也就是说": 6111,
      "骷髅兵": 6112,
      "昆仑之巅": 6113,
      "飓飙帝国": 6114,
      "死路一条": 6115,
      "“轰": 6116,
      "不堪": 6117,
      "不怕": 6118,
      "中了": 6119,
      "亮的": 6120,
      "出口": 6121,
      "加上": 6122,
      "动。": 6123,
      "双目": 6124,
      "回复": 6125,
      "外表": 6126,
      "头也不": 6127,
      "她,": 6128,
      "宝贝": 6129,
      "就行": 6130,
      "影子": 6131,
      "打了个": 6132,
      "放开": 6133,
      "救命": 6134,
      "是有": 6135,
      "死。”": 6136,
      "汹涌": 6137,
      "猛地": 6138,
      "用手": 6139,
      "的好": 6140,
      "神殿": 6141,
      "第四": 6142,
      "等着": 6143,
      "背上": 6144,
      "衫少女": 6145,
      "让他们": 6146,
      "诸位": 6147,
      "超魔": 6148,
      "身上,": 6149,
      "达到": 6150,
      "这小": 6151,
      "都可以": 6152,
      "醒来": 6153,
      "附近": 6154,
      "隐藏": 6155,
      "黄河": 6156,
      "龙应声": 6157,
      "?”孙小洁": 6158,
      "的人。": 6159,
      "了。』": 6160,
      ",一直": 6161,
      "离开了": 6162,
      "有一天": 6163,
      "着我。": 6164,
      "说不出的": 6165,
      "几乎是": 6166,
      "就在这时": 6167,
      ",把": 6168,
      ",请": 6169,
      ",老大": 6170,
      "2/": 6171,
      "一丝": 6172,
      "两道": 6173,
      "五行": 6174,
      "借着": 6175,
      "出招": 6176,
      "半个": 6177,
      "却没有": 6178,
      "卷 ": 6179,
      "发誓": 6180,
      "吸引": 6181,
      "嘴唇": 6182,
      "回到了": 6183,
      "在你": 6184,
      "地看着": 6185,
      "声中": 6186,
      "射出": 6187,
      "帮你": 6188,
      "弥漫": 6189,
      "弱的": 6190,
      "悲伤": 6191,
      "我还": 6192,
      "拉着": 6193,
      "救我": 6194,
      "星光": 6195,
      "是我们": 6196,
      "杀你": 6197,
      "的那一": 6198,
      "的高手": 6199,
      "眸子": 6200,
      "短发": 6201,
      "窗户": 6202,
      "蓝色的": 6203,
      "袭击": 6204,
      "说你": 6205,
      "资料": 6206,
      "走到": 6207,
      "走。”": 6208,
      "进入了": 6209,
      "道:『": 6210,
      "道:'": 6211,
      "配合": 6212,
      "露出": 6213,
      "首先": 6214,
      ",我现在": 6215,
      ",我突然": 6216,
      "!”她": 6217,
      "已经没有": 6218,
      "的,她": 6219,
      ",不但": 6220,
      "黑衣少年": 6221,
      "难道你": 6222,
      "住了我的": 6223,
      "无论如何": 6224,
      "第二部 ": 6225,
      "皇家灭绝剑士团": 6226,
      "冲天而": 6227,
      ",剑": 6228,
      "4.2": 6229,
      ":2": 6230,
      "?那": 6231,
      "“砰": 6232,
      "一亮": 6233,
      "丝毫": 6234,
      "也好": 6235,
      "习惯": 6236,
      "了吧?”": 6237,
      "他在": 6238,
      "何时": 6239,
      "光之": 6240,
      "光明": 6241,
      "其它": 6242,
      "刹那": 6243,
      "向上": 6244,
      "向那": 6245,
      "和南宫北": 6246,
      "委屈": 6247,
      "实力": 6248,
      "家的": 6249,
      "将我们": 6250,
      "已是": 6251,
      "心脏": 6252,
      "念头": 6253,
      "性格": 6254,
      "意。": 6255,
      "意见": 6256,
      "手段": 6257,
      "找到了": 6258,
      "接着": 6259,
      "提供": 6260,
      "无可": 6261,
      "明显": 6262,
      "杀我": 6263,
      "欧阳": 6264,
      "气的": 6265,
      "波动": 6266,
      "熟悉": 6267,
      "王巅": 6268,
      "的走": 6269,
      "看一下": 6270,
      "碧海": 6271,
      "竟会": 6272,
      "笑了,": 6273,
      "紧闭": 6274,
      "绝色": 6275,
      "耳边": 6276,
      "自由": 6277,
      "范围": 6278,
      "身为": 6279,
      "连忙": 6280,
      "青天": 6281,
      ",我可以": 6282,
      "可以说": 6283,
      "说话,": 6284,
      "“是吗?”": 6285,
      "————": 6286,
      "武侠)": 6287,
      "三十八": 6288,
      "002/": 6289,
      "的同时,": 6290,
      ",看着": 6291,
      ":4": 6292,
      "“所以": 6293,
      "一族": 6294,
      "三个人": 6295,
      "下面": 6296,
      "不解": 6297,
      "不说": 6298,
      "之剑": 6299,
      "也被": 6300,
      "修练": 6301,
      "做到": 6302,
      "具体": 6303,
      "去,我": 6304,
      "双腿": 6305,
      "变化": 6306,
      "呀?": 6307,
      "失措": 6308,
      "察觉": 6309,
      "就能": 6310,
      "巡逻": 6311,
      "当我": 6312,
      "忘记": 6313,
      "手下": 6314,
      "手腕": 6315,
      "报仇": 6316,
      "掠过": 6317,
      "接受": 6318,
      "放下": 6319,
      "无力": 6320,
      "星星": 6321,
      "未来": 6322,
      "柔声道。": 6323,
      "水中": 6324,
      "液体": 6325,
      "火焰": 6326,
      "犹豫": 6327,
      "生存": 6328,
      "的味": 6329,
      "的一个": 6330,
      "的小书": 6331,
      "看清": 6332,
      "纵横": 6333,
      "而来的": 6334,
      "角色": 6335,
      "身而": 6336,
      "轻声道。": 6337,
      "还好": 6338,
      "追踪": 6339,
      "重新": 6340,
      "随之": 6341,
      "高兴": 6342,
      "龙宫": 6343,
      "。”周平": 6344,
      "。”绿莹": 6345,
      "?”她": 6346,
      "没有一点": 6347,
      ",但你": 6348,
      "“我知道": 6349,
      ",这里": 6350,
      "他的话": 6351,
      ",不然": 6352,
      ",而是": 6353,
      "吗?你": 6354,
      "这一切": 6355,
      "有什么事": 6356,
      "吸血丧尸": 6357,
      "疯狂的": 6358,
      "白家大宅": 6359,
      "最强战士": 6360,
      "摇了摇头:“": 6361,
      ".xxx.xxx": 6362,
      "红衣少年": 6363,
      "王巅土": 6364,
      "“周宁": 6365,
      "一半": 6366,
      "一言": 6367,
      "上前": 6368,
      "不屑": 6369,
      "不必": 6370,
      "举起了": 6371,
      "之色": 6372,
      "也太": 6373,
      "乱的": 6374,
      "了两": 6375,
      "了几": 6376,
      "仍是": 6377,
      "到我": 6378,
      "努力": 6379,
      "十年": 6380,
      "又会": 6381,
      "又不是": 6382,
      "又开始": 6383,
      "各种": 6384,
      "同样": 6385,
      "呼啸": 6386,
      "在此": 6387,
      "大树": 6388,
      "如今": 6389,
      "威胁": 6390,
      "帮我": 6391,
      "得以": 6392,
      "快,": 6393,
      "惊讶": 6394,
      "想象": 6395,
      "我忙": 6396,
      "战场": 6397,
      "手中,": 6398,
      "施展": 6399,
      "树林": 6400,
      "沙漠": 6401,
      "满面": 6402,
      "看不见": 6403,
      "突破": 6404,
      "笑:“": 6405,
      "组织": 6406,
      "至于": 6407,
      "血液": 6408,
      "解开": 6409,
      "身于": 6410,
      "躲在": 6411,
      "这座": 6412,
      "都无法": 6413,
      "镇定": 6414,
      ",我真的": 6415,
      "!”齐琳": 6416,
      "可以说是": 6417,
      "不会是": 6418,
      "黑衣佣兵": 6419,
      "也不知": 6420,
      "一声,": 6421,
      "缓缓的道。": 6422,
      "瞬间,": 6423,
      "渐渐的": 6424,
      "的女儿": 6425,
      "神龙财阀": 6426,
      "皱着眉头": 6427,
      "说句实话": 6428,
      "碧海青天": 6429,
      "碧海青天丹": 6430,
      "!你": 6431,
      ",让我": 6432,
      "33": 6433,
      "一掌": 6434,
      "一看": 6435,
      "一件事": 6436,
      "之匙": 6437,
      "也不能": 6438,
      "了很多": 6439,
      "事件": 6440,
      "从容": 6441,
      "代表": 6442,
      "依靠": 6443,
      "出书": 6444,
      "别想": 6445,
      "前,": 6446,
      "厉声": 6447,
      "只听": 6448,
      "叹道。": 6449,
      "后果": 6450,
      "向她": 6451,
      "喜儿": 6452,
      "对着我": 6453,
      "将会": 6454,
      "将头": 6455,
      "床上": 6456,
      "心中的": 6457,
      "抬起了": 6458,
      "招式": 6459,
      "拿着": 6460,
      "春杀": 6461,
      "是否": 6462,
      "李虚": 6463,
      "来历": 6464,
      "毁杀": 6465,
      "气,": 6466,
      "泪水": 6467,
      "焚毁杀": 6468,
      "狠狠": 6469,
      "的门": 6470,
      "的男子": 6471,
      "的眼中": 6472,
      "的士兵": 6473,
      "的消息": 6474,
      "笑,": 6475,
      "等我": 6476,
      "缓步": 6477,
      "胡说": 6478,
      "见面": 6479,
      "说谎": 6480,
      "说的是": 6481,
      "身之处": 6482,
      "银豺": 6483,
      "雾中": 6484,
      "魔焚毁杀": 6485,
      "了,那": 6486,
      "我们是": 6487,
      "不要再": 6488,
      "黑暗中的": 6489,
      "也不敢": 6490,
      "天龙帮的人": 6491,
      "身上。": 6492,
      "这一招": 6493,
      "小茵姐": 6494,
      "的剑光": 6495,
      "眉头一": 6496,
      "在地上": 6497,
      "的模样。": 6498,
      "了进来。": 6499,
      "了出去,": 6500,
      "头也不回": 6501,
      "李虚焰": 6502,
      ",没": 6503,
      ",怎么": 6504,
      "’,": 6505,
      "“快": 6506,
      "“周兄": 6507,
      "上去": 6508,
      "不妙": 6509,
      "不懂": 6510,
      "不觉": 6511,
      "世间": 6512,
      "两条": 6513,
      "之外": 6514,
      "之上。": 6515,
      "交给": 6516,
      "产生": 6517,
      "人。”": 6518,
      "从那": 6519,
      "任务": 6520,
      "做为": 6521,
      "出声": 6522,
      "变形": 6523,
      "只会": 6524,
      "吩咐": 6525,
      "启动": 6526,
      "呀?”": 6527,
      "哭泣": 6528,
      "回忆": 6529,
      "差不多": 6530,
      "很好": 6531,
      "徐命悬": 6532,
      "怎样": 6533,
      "悲哀": 6534,
      "感应": 6535,
      "或者": 6536,
      "所为": 6537,
      "替他": 6538,
      "最爱": 6539,
      "松了一口气": 6540,
      "水术士": 6541,
      "猎杀": 6542,
      "的方法": 6543,
      "相对": 6544,
      "老爹": 6545,
      "而来": 6546,
      "船舱": 6547,
      "苍白的": 6548,
      "行走": 6549,
      "这群": 6550,
      "逐渐": 6551,
      "郝白": 6552,
      "鲜儿": 6553,
      "黄色的": 6554,
      "黑夜": 6555,
      "。”李无月": 6556,
      ",我会": 6557,
      "!”他": 6558,
      "什么?”我": 6559,
      "什么东西": 6560,
      "“你是": 6561,
      "“我想": 6562,
      "的,所以": 6563,
      ",这次": 6564,
      "天龙诀": 6565,
      "希望能": 6566,
      ".'向春风": 6567,
      "※※※": 6568,
      "身形一": 6569,
      "十二贤者": 6570,
      "所有的人都": 6571,
      "惊慌失措": 6572,
      "风化城": 6573,
      "洪幻国": 6574,
      "超魔杀": 6575,
      ",直": 6576,
      ",自己": 6577,
      ",陈斌": 6578,
      "“要": 6579,
      "“冯德": 6580,
      "一只手": 6581,
      "不上": 6582,
      "不成": 6583,
      "不通": 6584,
      "严重": 6585,
      "为我": 6586,
      "了下": 6587,
      "了......": 6588,
      "了吗?": 6589,
      "出一个": 6590,
      "创造": 6591,
      "叫你": 6592,
      "国师": 6593,
      "复杂": 6594,
      "小鱼儿": 6595,
      "就象": 6596,
      "就这样": 6597,
      "很有": 6598,
      "很喜欢": 6599,
      "心底": 6600,
      "忙道。": 6601,
      "想起": 6602,
      "提升": 6603,
      "旁边": 6604,
      "无峰": 6605,
      "是被": 6606,
      "暗暗": 6607,
      "死灵": 6608,
      "每一": 6609,
      "气势": 6610,
      "气海": 6611,
      "浑身": 6612,
      "温暖": 6613,
      "漆黑的": 6614,
      "现实": 6615,
      "白水": 6616,
      "的份": 6617,
      "的红": 6618,
      "的陈斌": 6619,
      "的光芒": 6620,
      "窗外的": 6621,
      "网站": 6622,
      "螺旋": 6623,
      "负责": 6624,
      "过头": 6625,
      "长得": 6626,
      "难受": 6627,
      "马医生": 6628,
      "鼻子": 6629,
      ",我可": 6630,
      ",我在": 6631,
      ",我不能": 6632,
      "了,你们": 6633,
      "我们三人": 6634,
      "不是说": 6635,
      "“我是": 6636,
      "突然道。": 6637,
      "“这是": 6638,
      "大家都": 6639,
      "身后。": 6640,
      "我和孙小洁": 6641,
      "之前,": 6642,
      "“不错,": 6643,
      "怎么样?": 6644,
      "千万别": 6645,
      "的脸色": 6646,
      "是什么人?”": 6647,
      "异常的": 6648,
      "幻天大师": 6649,
      "回复:": 6650,
      ",才": 6651,
      ",小书": 6652,
      "?这": 6653,
      "不动": 6654,
      "不算": 6655,
      "为你": 6656,
      "之所以": 6657,
      "了:“": 6658,
      "二字": 6659,
      "以及": 6660,
      "似的,": 6661,
      "住了,": 6662,
      "公会": 6663,
      "内的": 6664,
      "冷笑道。": 6665,
      "出生": 6666,
      "分析": 6667,
      "到如今": 6668,
      "去见": 6669,
      "吞噬": 6670,
      "喊了起来。": 6671,
      "回了": 6672,
      "夜晚": 6673,
      "大叔": 6674,
      "大变": 6675,
      "太阳": 6676,
      "实是": 6677,
      "实现": 6678,
      "弄到": 6679,
      "心,": 6680,
      "性的": 6681,
      "我再": 6682,
      "我那": 6683,
      "把握": 6684,
      "是要": 6685,
      "望去,": 6686,
      "来了。”": 6687,
      "林间": 6688,
      "琳娜": 6689,
      "的叫": 6690,
      "的!”": 6691,
      "的生命": 6692,
      "的情况": 6693,
      "站着": 6694,
      "笑得": 6695,
      "第一个": 6696,
      "而出,": 6697,
      "菲琳娜": 6698,
      "蓝色": 6699,
      "身材": 6700,
      "身着": 6701,
      "这位": 6702,
      "追求": 6703,
      "重伤": 6704,
      "长街": 6705,
      "静的": 6706,
      "面上": 6707,
      "面具": 6708,
      ",我只": 6709,
      "?”南宫北": 6710,
      "这个时候": 6711,
      "这个样子": 6712,
      ",这些": 6713,
      "吗?』": 6714,
      "黑暗龙宫": 6715,
      ",在下": 6716,
      "对我说": 6717,
      "对我道。": 6718,
      "出了一个": 6719,
      "之间的": 6720,
      "游戏世界": 6721,
      "挣扎着": 6722,
      "有所思": 6723,
      "转眼间": 6724,
      "洗冷隋": 6725,
      "飞鸟巢": 6726,
      "碧海青天丹’": 6727,
      "无峰岭": 6728,
      "白水镰": 6729,
      ",最": 6730,
      "“还有": 6731,
      "上飞机": 6732,
      "下手": 6733,
      "不定": 6734,
      "中人": 6735,
      "中最": 6736,
      "主要": 6737,
      "之色。": 6738,
      "事到如今": 6739,
      "会被": 6740,
      "停止": 6741,
      "元安": 6742,
      "剑心": 6743,
      "协会": 6744,
      "却不": 6745,
      "发动": 6746,
      "可是我": 6747,
      "听过": 6748,
      "哪有": 6749,
      "在她的": 6750,
      "夕阳": 6751,
      "夜空": 6752,
      "奈何": 6753,
      "小嘴": 6754,
      "岩石": 6755,
      "强大的": 6756,
      "想办法": 6757,
      "我看": 6758,
      "找不到": 6759,
      "折磨": 6760,
      "有关": 6761,
      "来得": 6762,
      "泪流": 6763,
      "淡道。": 6764,
      "点,": 6765,
      "点击": 6766,
      "然道。": 6767,
      "燕都城": 6768,
      "的我们": 6769,
      "的眼睛": 6770,
      "着嘴": 6771,
      "着这": 6772,
      "着双眼": 6773,
      "睁大了": 6774,
      "紫色": 6775,
      "红牙": 6776,
      "纤阿姨": 6777,
      "而活": 6778,
      "耐烦": 6779,
      "自杀": 6780,
      "落到了": 6781,
      "让你们": 6782,
      "赶到": 6783,
      "身后,": 6784,
      "还可以": 6785,
      "追上": 6786,
      "道的": 6787,
      "那神秘女子": 6788,
      "锐利": 6789,
      "门,": 6790,
      "阴童子": 6791,
      "陆元安": 6792,
      "额头": 6793,
      "魔结界": 6794,
      "黄色": 6795,
      ",我看": 6796,
      "这个人": 6797,
      "的人们": 6798,
      ",我们的": 6799,
      ",在我": 6800,
      "这一辈子": 6801,
      ",要知道": 6802,
      "冷冷的": 6803,
      "拼命地": 6804,
      "无数的": 6805,
      "冰冷的": 6806,
      "灭魔猎人": 6807,
      "能源体": 6808,
      ",南宫北": 6809,
      ",可是": 6810,
      "‘碧海青天丹’": 6811,
      "“说": 6812,
      "“没事": 6813,
      "“放心": 6814,
      "一块": 6815,
      "一年": 6816,
      "三年": 6817,
      "三百": 6818,
      "上了一": 6819,
      "之事": 6820,
      "亲自": 6821,
      "低着头": 6822,
      "住。": 6823,
      "信赖": 6824,
      "停住了": 6825,
      "先走": 6826,
      "光,": 6827,
      "凌晨": 6828,
      "十五": 6829,
      "厉声道。": 6830,
      "原谅": 6831,
      "变态": 6832,
      "咏唱": 6833,
      "圣物": 6834,
      "完蛋": 6835,
      "将那": 6836,
      "将目光": 6837,
      "将手一": 6838,
      "小蝶": 6839,
      "张开": 6840,
      "强的": 6841,
      "当年": 6842,
      "当中,": 6843,
      "意味": 6844,
      "成为了": 6845,
      "我与": 6846,
      "我来": 6847,
      "截铁": 6848,
      "挣脱": 6849,
      "捕头": 6850,
      "故作": 6851,
      "方便": 6852,
      "无尽的": 6853,
      "有着": 6854,
      "树顶": 6855,
      "每次": 6856,
      "沙游": 6857,
      "法子": 6858,
      "滞魔结界": 6859,
      "满身": 6860,
      "爆发": 6861,
      "的朋友": 6862,
      "短篇": 6863,
      "第五": 6864,
      "结婚": 6865,
      "苍茫": 6866,
      "若有所思": 6867,
      "薇思": 6868,
      "表现": 6869,
      "要知道": 6870,
      "解释": 6871,
      "说的,": 6872,
      "足以": 6873,
      "踏着": 6874,
      "身在空中的": 6875,
      "这就是": 6876,
      "透明": 6877,
      "造龙": 6878,
      "金色的": 6879,
      "青魔": 6880,
      "马二": 6881,
      "魔力": 6882,
      "魔吸": 6883,
      "龙珠": 6884,
      ",我一": 6885,
      ":“那": 6886,
      "!”冯德": 6887,
      "这个小": 6888,
      "知道了": 6889,
      "的,因为": 6890,
      ",一旦": 6891,
      "那个人": 6892,
      "“不用": 6893,
      "也不想": 6894,
      "一声轻": 6895,
      "我不禁": 6896,
      "了过来,": 6897,
      "很快就会": 6898,
      "军方的": 6899,
      " 2002/": 6900,
      "停了下来。": 6901,
      "的笑容。": 6902,
      "无奈的": 6903,
      "看了看": 6904,
      "了出去。": 6905,
      "造龙计划": 6906,
      ",与": 6907,
      ",若": 6908,
      ",身体": 6909,
      ":0": 6910,
      "“我的": 6911,
      "“就是": 6912,
      "『那": 6913,
      "一场": 6914,
      "一句话": 6915,
      "三大": 6916,
      "三长老": 6917,
      "不耐烦": 6918,
      "之钥": 6919,
      "了他": 6920,
      "人心": 6921,
      "你和": 6922,
      "你了。”": 6923,
      "内力": 6924,
      "出城": 6925,
      "力气": 6926,
      "勇敢": 6927,
      "包括": 6928,
      "却如": 6929,
      "去做": 6930,
      "参加": 6931,
      "双足": 6932,
      "发展": 6933,
      "后悔": 6934,
      "呢?”我": 6935,
      "喝酒": 6936,
      "坚持": 6937,
      "多年": 6938,
      "大大的": 6939,
      "天地": 6940,
      "头:“": 6941,
      "尖锐": 6942,
      "庵主": 6943,
      "弄得": 6944,
      "强大": 6945,
      "当中。": 6946,
      "得多": 6947,
      "忍不住": 6948,
      "思议": 6949,
      "惊人的": 6950,
      "我可以": 6951,
      "战争": 6952,
      "所说的": 6953,
      "承认": 6954,
      "承诺": 6955,
      "拒绝": 6956,
      "掌心": 6957,
      "提醒": 6958,
      "斩钉": 6959,
      "是这样": 6960,
      "期待": 6961,
      "杀了我": 6962,
      "极为": 6963,
      "状况": 6964,
      "玄剑": 6965,
      "玄铁": 6966,
      "理会": 6967,
      "男孩": 6968,
      "疯子": 6969,
      "的武功": 6970,
      "的面孔": 6971,
      "穿梭": 6972,
      "笨蛋": 6973,
      "绿色的": 6974,
      "能不能": 6975,
      "自信": 6976,
      "自我": 6977,
      "舞的": 6978,
      "融化": 6979,
      "要比": 6980,
      "软软": 6981,
      "还不是": 6982,
      "这条": 6983,
      "远远": 6984,
      "闭上": 6985,
      "难看": 6986,
      "霍维": 6987,
      "面无": 6988,
      "飞速": 6989,
      "首领": 6990,
      "高高": 6991,
      ",我有": 6992,
      "......”她": 6993,
      ",一股": 6994,
      "起来了,": 6995,
      ",我们就": 6996,
      "的。”袁茵": 6997,
      ",就算是": 6998,
      "的声音道。": 6999,
      "一下,": 7000,
      "完全的": 7001,
      "的。』": 7002,
      "邪都的": 7003,
      "前方的": 7004,
      "根本就不": 7005,
      "痛苦的": 7006,
      "在了地上。": 7007,
      "这时我才": 7008,
      "。。。。": 7009,
      "“等一等": 7010,
      "喘着气": 7011,
      ",老": 7012,
      ",说": 7013,
      ",突然": 7014,
      ",今天": 7015,
      ",右手": 7016,
      ":5": 7017,
      "一挥": 7018,
      "一转": 7019,
      "不远处": 7020,
      "乌云": 7021,
      "也得": 7022,
      "他又": 7023,
      "代价": 7024,
      "你会": 7025,
      "关键": 7026,
      "再来": 7027,
      "几个人": 7028,
      "区域": 7029,
      "十天": 7030,
      "印象": 7031,
      "可不是": 7032,
      "吓得": 7033,
      "吧。": 7034,
      "地带": 7035,
      "多了一个": 7036,
      "大开": 7037,
      "契约": 7038,
      "好了": 7039,
      "尴尬": 7040,
      "忍心": 7041,
      "慕荣": 7042,
      "我突然": 7043,
      "我不知道": 7044,
      "打量": 7045,
      "救你": 7046,
      "无疑": 7047,
      "日圣晶": 7048,
      "星空": 7049,
      "桂花": 7050,
      "没错": 7051,
      "然的道。": 7052,
      "理解": 7053,
      "的程度": 7054,
      "眼。": 7055,
      "眼镜": 7056,
      "着她的": 7057,
      "空中,": 7058,
      "站了起来。": 7059,
      "笑了起来。": 7060,
      "答案": 7061,
      "给他": 7062,
      "职业": 7063,
      "肉体": 7064,
      "船上": 7065,
      "色狼": 7066,
      "误会": 7067,
      "说我": 7068,
      "轻声": 7069,
      "过来,": 7070,
      "野望": 7071,
      "金色": 7072,
      "闻言": 7073,
      "阴森": 7074,
      "鞠海": 7075,
      "飞龙": 7076,
      "魔女": 7077,
      "黄沙": 7078,
      ",我便": 7079,
      ":“好": 7080,
      "一个人的": 7081,
      ",但这": 7082,
      "已经开始": 7083,
      "了。”小书": 7084,
      "了。”冯德": 7085,
      "“我......我": 7086,
      ",她们": 7087,
      "他的身体": 7088,
      ",不知道": 7089,
      "“那我们": 7090,
      "真是太": 7091,
      "缓缓地": 7092,
      "进入失落之都": 7093,
      "了过去。": 7094,
      "死亡暴走": 7095,
      "怎么样?”": 7096,
      "春喜姑娘": 7097,
      "转身就走": 7098,
      "用力地": 7099,
      "死幻之城": 7100,
      "停了下来,": 7101,
      "地底迷宫": 7102,
      "‘失落之都’": 7103,
      "斩钉截铁": 7104,
      " |": 7105,
      ",象": 7106,
      ",为什么": 7107,
      ",此时": 7108,
      ",反正": 7109,
      "22": 7110,
      "SS级": 7111,
      "om": 7112,
      "“不会": 7113,
      "一偏": 7114,
      "上来": 7115,
      "不自觉": 7116,
      "两天": 7117,
      "也很": 7118,
      "也可以": 7119,
      "了半": 7120,
      "于是": 7121,
      "从黑暗中": 7122,
      "伤心": 7123,
      "你想": 7124,
      "再度": 7125,
      "凝固": 7126,
      "刀疤": 7127,
      "化为": 7128,
      "医皇": 7129,
      "在哪": 7130,
      "基本": 7131,
      "处理": 7132,
      "大大": 7133,
      "夫人": 7134,
      "头发": 7135,
      "好事": 7136,
      "妖皇": 7137,
      "定的": 7138,
      "就把": 7139,
      "开封": 7140,
      "总算": 7141,
      "意料": 7142,
      "我曾": 7143,
      "我一个人": 7144,
      "才发现": 7145,
      "把这": 7146,
      "捕快": 7147,
      "敌人": 7148,
      "无关": 7149,
      "无比": 7150,
      "本书": 7151,
      "某种": 7152,
      "欲望": 7153,
      "比如": 7154,
      "灰衣": 7155,
      "灼热": 7156,
      "狂风": 7157,
      "男人的": 7158,
      "的巨": 7159,
      "的最": 7160,
      "的......”": 7161,
      "的冯德": 7162,
      "的二号": 7163,
      "真实": 7164,
      "示意": 7165,
      "穿着": 7166,
      "竟有": 7167,
      "等等": 7168,
      "系统": 7169,
      "红色": 7170,
      "细胞": 7171,
      "结局": 7172,
      "袭向": 7173,
      "赤裸": 7174,
      "路上": 7175,
      "连累": 7176,
      "退。": 7177,
      "降临": 7178,
      "静止": 7179,
      "。”陈依姿": 7180,
      "什么样的": 7181,
      "我的。”": 7182,
      "“你要": 7183,
      "突然出现在": 7184,
      ",一切": 7185,
      ",一头": 7186,
      "的话,你": 7187,
      "一点,": 7188,
      "发现了": 7189,
      "剑玄能源体": 7190,
      "第一人": 7191,
      "着一把": 7192,
      "“他”": 7193,
      "如何?”": 7194,
      "颤抖着": 7195,
      "是什么人?": 7196,
      ",想来": 7197,
      "特殊的": 7198,
      "电脑公会": 7199,
      "魔宫之匙": 7200,
      "十八岁": 7201,
      "不由得": 7202,
      "短篇武侠)": 7203,
      "野望大陆": 7204,
      ",它": 7205,
      ",竟然": 7206,
      ",显然": 7207,
      "一共": 7208,
      "一百": 7209,
      "上床": 7210,
      "不喜欢": 7211,
      "丛林": 7212,
      "五官": 7213,
      "作梦": 7214,
      "你这样": 7215,
      "便宜": 7216,
      "光华": 7217,
      "凝重": 7218,
      "受到了": 7219,
      "同情": 7220,
      "啊?": 7221,
      "圣妖": 7222,
      "在想": 7223,
      "在一个": 7224,
      "太监": 7225,
      "头的": 7226,
      "家小姐": 7227,
      "小龙": 7228,
      "形成了": 7229,
      "得快": 7230,
      "快乐": 7231,
      "快步": 7232,
      "成长": 7233,
      "文剑圣": 7234,
      "时代": 7235,
      "是最": 7236,
      "晚风": 7237,
      "本剑玄录": 7238,
      "杀掉": 7239,
      "植物": 7240,
      "歌声": 7241,
      "每一个人": 7242,
      "没什么": 7243,
      "的.": 7244,
      "皮肤": 7245,
      "看我": 7246,
      "瞎子": 7247,
      "米的": 7248,
      "红光": 7249,
      "老哥": 7250,
      "藏着": 7251,
      "衣衫": 7252,
      "还算": 7253,
      "送死": 7254,
      "造成": 7255,
      "那两": 7256,
      "那样": 7257,
      "重剑": 7258,
      "错了,": 7259,
      "陪着": 7260,
      "飞快": 7261,
      "。”白狐": 7262,
      ",但我们": 7263,
      "了。”袁茵": 7264,
      ",她就": 7265,
      "的话,就": 7266,
      "这样做": 7267,
      "南宫北的": 7268,
      "吧!你": 7269,
      "真是个": 7270,
      "重重地": 7271,
      "不同的": 7272,
      "大声的": 7273,
      "恢复了": 7274,
      ",可惜": 7275,
      "乖乖的": 7276,
      "4.27": 7277,
      "三十八皇子": 7278,
      ",看": 7279,
      ",不是": 7280,
      ",白狐": 7281,
      ",应该": 7282,
      ",希望": 7283,
      "4 1": 7284,
      "?难道": 7285,
      "“人家": 7286,
      "一付": 7287,
      "不去": 7288,
      "中间": 7289,
      "中,我": 7290,
      "举行": 7291,
      "之势": 7292,
      "之心": 7293,
      "也变得": 7294,
      "人群": 7295,
      "们的": 7296,
      "似的。": 7297,
      "你说": 7298,
      "你,你": 7299,
      "使命": 7300,
      "关健": 7301,
      "到我的": 7302,
      "剑魔吸": 7303,
      "却在": 7304,
      "厚的": 7305,
      "双脚": 7306,
      "吧,我": 7307,
      "吼道:“": 7308,
      "周大哥": 7309,
      "商队": 7310,
      "在你的": 7311,
      "大叫": 7312,
      "天真": 7313,
      "女娃": 7314,
      "好吗?”": 7315,
      "妙的": 7316,
      "寒气": 7317,
      "山中": 7318,
      "开枪": 7319,
      "得太": 7320,
      "怀中。": 7321,
      "成了一": 7322,
      "我有": 7323,
      "我估计": 7324,
      "抢先": 7325,
      "施主": 7326,
      "无辜": 7327,
      "是怎么": 7328,
      "本身": 7329,
      "杀机": 7330,
      "来找": 7331,
      "每个": 7332,
      "求求你": 7333,
      "沉睡": 7334,
      "派的": 7335,
      "清脆": 7336,
      "漫画": 7337,
      "甚是": 7338,
      "甲板": 7339,
      "电光": 7340,
      "的银": 7341,
      "的NPC": 7342,
      "睡觉": 7343,
      "短短": 7344,
      "窗子": 7345,
      "练功": 7346,
      "经济": 7347,
      "绝技": 7348,
      "老兄": 7349,
      "者的": 7350,
      "背上的": 7351,
      "脚下": 7352,
      "腰间": 7353,
      "茫茫": 7354,
      "落的": 7355,
      "行宫": 7356,
      "被发现": 7357,
      "解除": 7358,
      "言语": 7359,
      "说她": 7360,
      "责任": 7361,
      "走吧!”": 7362,
      "起了一": 7363,
      "过的": 7364,
      "还会": 7365,
      "这两个": 7366,
      "连续": 7367,
      "那就": 7368,
      "都快": 7369,
      "锁链": 7370,
      "骗我": 7371,
      "。”舅舅": 7372,
      ",我还是": 7373,
      "不是太": 7374,
      "怎么这么": 7375,
      ",这么": 7376,
      ",这就是": 7377,
      "不会有事": 7378,
      "她的声音": 7379,
      "的一下,": 7380,
      "你的意思": 7381,
      "孙小洁的": 7382,
      "其实我": 7383,
      "“这......": 7384,
      "马上就": 7385,
      "身边,": 7386,
      "那一刻": 7387,
      "不知何时": 7388,
      "帝国的": 7389,
      ",我的心": 7390,
      " [w": 7391,
      "将军府": 7392,
      "了上来。": 7393,
      "紧紧地": 7394,
      "不可思议": 7395,
      "挠着头道。": 7396,
      "眉头一皱": 7397,
      "马二先生": 7398,
      "第一人称": 7399,
      ",‘": 7400,
      ",心": 7401,
      ",真": 7402,
      ",什么": 7403,
      ",已经": 7404,
      ",在这": 7405,
      ":3": 7406,
      "“那个": 7407,
      "。『": 7408,
      "一双": 7409,
      "上次": 7410,
      "不死": 7411,
      "不以为": 7412,
      "与你": 7413,
      "了片刻": 7414,
      "交手": 7415,
      "你怎么": 7416,
      "保重": 7417,
      "信任": 7418,
      "信心": 7419,
      "做了": 7420,
      "全灭": 7421,
      "军队": 7422,
      "冲击": 7423,
      "力。": 7424,
      "加入": 7425,
      "动物": 7426,
      "包裹": 7427,
      "卑鄙": 7428,
      "即将": 7429,
      "却始终": 7430,
      "厉叱": 7431,
      "口诀": 7432,
      "只知道": 7433,
      "可不可以": 7434,
      "后方": 7435,
      "听听": 7436,
      "大作": 7437,
      "大厦": 7438,
      "头颅": 7439,
      "好气": 7440,
      "如烟": 7441,
      "孤孤": 7442,
      "将你": 7443,
      "尖叫": 7444,
      "张大了": 7445,
      "手臂": 7446,
      "打扰": 7447,
      "抓住了": 7448,
      "提高": 7449,
      "时光": 7450,
      "智商": 7451,
      "有很多": 7452,
      "望着我": 7453,
      "朝着": 7454,
      "柳如烟": 7455,
      "欣慰": 7456,
      "死在了": 7457,
      "残忍": 7458,
      "沙哑": 7459,
      "洋洋": 7460,
      "漫天的": 7461,
      "火山": 7462,
      "照明": 7463,
      "狰狞": 7464,
      "的将": 7465,
      "的同伴": 7466,
      "的佣兵": 7467,
      "眨眼": 7468,
      "站在一旁": 7469,
      "置身于": 7470,
      "而出": 7471,
      "而来。": 7472,
      "肚子": 7473,
      "背着": 7474,
      "自语": 7475,
      "落地": 7476,
      "蒙着": 7477,
      "许昊": 7478,
      "说,我": 7479,
      "请你": 7480,
      "走了": 7481,
      "跃起,": 7482,
      "过。": 7483,
      "运气": 7484,
      "那人": 7485,
      "那只": 7486,
      "面面": 7487,
      "。”南宫北": 7488,
      "。”二号": 7489,
      ",我又": 7490,
      ",我一定会": 7491,
      ",我估计": 7492,
      "?”齐琳": 7493,
      ":“......”": 7494,
      ":“你们": 7495,
      ",你现在": 7496,
      "“你想": 7497,
      "的,他": 7498,
      "的,这": 7499,
      ",一把": 7500,
      ",不能": 7501,
      "吗?”袁茵": 7502,
      "冯德的": 7503,
      "老大的": 7504,
      ",就像": 7505,
      ",而我": 7506,
      "一直都在": 7507,
      "点头道。": 7508,
      "出现了": 7509,
      "了过来": 7510,
      "永远都": 7511,
      "水晶门": 7512,
      "了上来": 7513,
      "生物波动": 7514,
      "幽幽的": 7515,
      "倒在了地上。": 7516,
      "因此而": 7517,
      "沉鱼池’": 7518,
      "巡逻艇": 7519,
      "'我": 7520,
      ",先": 7521,
      ",向": 7522,
      ",哪": 7523,
      "4 0": 7524,
      "7.1": 7525,
      "“小洁": 7526,
      "“傻瓜": 7527,
      "”!": 7528,
      "一想": 7529,
      "临死": 7530,
      "也罢": 7531,
      "也能": 7532,
      "亲切": 7533,
      "低头": 7534,
      "借助": 7535,
      "刺客": 7536,
      "剑珠": 7537,
      "千年前": 7538,
      "去.": 7539,
      "发抖": 7540,
      "台下": 7541,
      "命令": 7542,
      "善良": 7543,
      "因该": 7544,
      "声中,": 7545,
      "多,": 7546,
      "女童": 7547,
      "她在": 7548,
      "子的": 7549,
      "完治": 7550,
      "开。": 7551,
      "急促": 7552,
      "急了。": 7553,
      "情的": 7554,
      "我将": 7555,
      "我只有": 7556,
      "我急忙": 7557,
      "扇门": 7558,
      "手上的": 7559,
      "打着": 7560,
      "扭头": 7561,
      "护住": 7562,
      "招术": 7563,
      "按照": 7564,
      "接下来": 7565,
      "放出": 7566,
      "无名": 7567,
      "无聊": 7568,
      "无能": 7569,
      "昏睡": 7570,
      "有缘": 7571,
      "杨道": 7572,
      "枫林": 7573,
      "步。": 7574,
      "水上飞机": 7575,
      "消耗": 7576,
      "深渊": 7577,
      "满头": 7578,
      "炸了开": 7579,
      "爷爷": 7580,
      "牢牢": 7581,
      "玛雅": 7582,
      "生机": 7583,
      "生下来": 7584,
      "甬道": 7585,
      "的向": 7586,
      "的邪牙": 7587,
      "相觑": 7588,
      "着自己的": 7589,
      "着手中的": 7590,
      "研究": 7591,
      "竟敢": 7592,
      "精光": 7593,
      "约定": 7594,
      "给她": 7595,
      "给我的": 7596,
      "绿色": 7597,
      "而不": 7598,
      "聚集": 7599,
      "肩膀": 7600,
      "能将": 7601,
      "自行": 7602,
      "色彩": 7603,
      "草丛": 7604,
      "落叶": 7605,
      "蔓延": 7606,
      "西装": 7607,
      "要想": 7608,
      "誓言": 7609,
      "象是": 7610,
      "超越": 7611,
      "跃起": 7612,
      "路。": 7613,
      "轻功": 7614,
      "这话": 7615,
      "遇上": 7616,
      "道理": 7617,
      "遗憾": 7618,
      "陷入": 7619,
      "?”李无月": 7620,
      "了,他们": 7621,
      "一个小": 7622,
      "没有办法": 7623,
      "现在是": 7624,
      "“你......你": 7625,
      ",那是": 7626,
      "不会再": 7627,
      "看着他": 7628,
      "一定能": 7629,
      ",就如": 7630,
      "你的身体": 7631,
      "只是一个": 7632,
      "的声音:“": 7633,
      "真的很": 7634,
      "说话。": 7635,
      "手中。": 7636,
      "魔族三长老": 7637,
      "消失在": 7638,
      "消失了。": 7639,
      "作者的": 7640,
      "洗仁鲜的": 7641,
      "一切都": 7642,
      "冷冷地道。": 7643,
      "什么事?”": 7644,
      "从来没有": 7645,
      "※※※※※※※※": 7646,
      "年青男子": 7647,
      "“没关系": 7648,
      "低下了头。": 7649,
      "睁开眼睛": 7650,
      "强烈的": 7651,
      "蓝发女童": 7652,
      "了下去。": 7653,
      "基本上": 7654,
      ",自然": 7655,
      "“齐琳": 7656,
      "一见": 7657,
      "三圣晶": 7658,
      "不肯": 7659,
      "与我们": 7660,
      "了回": 7661,
      "了指": 7662,
      "交给我": 7663,
      "仍旧": 7664,
      "以外": 7665,
      "何必": 7666,
      "作用": 7667,
      "你也": 7668,
      "你还": 7669,
      "佩服": 7670,
      "保证": 7671,
      "入侵": 7672,
      "全是": 7673,
      "其他的": 7674,
      "决斗": 7675,
      "准确": 7676,
      "几次": 7677,
      "凭空": 7678,
      "分之一": 7679,
      "剑客": 7680,
      "十九": 7681,
      "古龙": 7682,
      "另外": 7683,
      "听我": 7684,
      "回家": 7685,
      "在他们": 7686,
      "在心中": 7687,
      "地,": 7688,
      "地。": 7689,
      "天,": 7690,
      "失望": 7691,
      "她。”": 7692,
      "婚礼": 7693,
      "完整": 7694,
      "完美": 7695,
      "小腹": 7696,
      "少许": 7697,
      "尽力": 7698,
      "带来": 7699,
      "幸运": 7700,
      "应付": 7701,
      "影行宫": 7702,
      "想像": 7703,
      "意志": 7704,
      "感谢": 7705,
      "我虽然": 7706,
      "打得": 7707,
      "把他们": 7708,
      "把你的": 7709,
      "抛弃": 7710,
      "抱住": 7711,
      "指了指": 7712,
      "控魂": 7713,
      "提出": 7714,
      "是,": 7715,
      "替她": 7716,
      "月影行宫": 7717,
      "来看": 7718,
      "林易": 7719,
      "枫叶": 7720,
      "死了,我": 7721,
      "毫不": 7722,
      "没好气": 7723,
      "洗澡": 7724,
      "活下来": 7725,
      "海国师": 7726,
      "清风": 7727,
      "漆黑": 7728,
      "甜甜": 7729,
      "由得": 7730,
      "的马": 7731,
      "的黑衣": 7732,
      "的只是": 7733,
      "的作者": 7734,
      "眼前的": 7735,
      "种族": 7736,
      "笑嘻嘻": 7737,
      "繁星": 7738,
      "红日圣晶": 7739,
      "给了我": 7740,
      "罗控魂": 7741,
      "老伯": 7742,
      "老爸": 7743,
      "而行": 7744,
      "能否": 7745,
      "脱手": 7746,
      "落在了": 7747,
      "藏剑": 7748,
      "血肉": 7749,
      "被他们": 7750,
      "诡异": 7751,
      "走出": 7752,
      "身在空中": 7753,
      "还得": 7754,
      "这片": 7755,
      "迷失": 7756,
      "退,": 7757,
      "适合": 7758,
      "那东西": 7759,
      "里面的": 7760,
      "降生": 7761,
      "陷入了": 7762,
      "难逃": 7763,
      "雪亮": 7764,
      "雪白的": 7765,
      "麻痹": 7766,
      ",我真": 7767,
      "了,而且": 7768,
      "我的手": 7769,
      "......”袁茵": 7770,
      ",不管": 7771,
      "她的身体": 7772,
      "的一瞬间": 7773,
      "“那就": 7774,
      "点头。": 7775,
      "有一些": 7776,
      "只要你": 7777,
      "相信你": 7778,
      "商岚妍的": 7779,
      "淡淡的": 7780,
      "“是吗?": 7781,
      "几乎要": 7782,
      "失落之都的": 7783,
      "在空气": 7784,
      "记忆中": 7785,
      "天下第一": 7786,
      "向前一": 7787,
      "恐怖的": 7788,
      "就在这时,": 7789,
      "怎么办?": 7790,
      "‘超梦’": 7791,
      "霍维依": 7792,
      "圣妖一族": 7793,
      "面面相觑": 7794,
      "罗控魂大法": 7795,
      ",由": 7796,
      ",双手": 7797,
      ",随着": 7798,
      ".c": 7799,
      "] ": 7800,
      "“喂": 7801,
      "“真": 7802,
      "“虽然": 7803,
      "“真的": 7804,
      "“大家": 7805,
      "一女": 7806,
      "一根": 7807,
      "一辈子": 7808,
      "不杀": 7809,
      "不然": 7810,
      "不动的": 7811,
      "不容易": 7812,
      "与冯德": 7813,
      "两只": 7814,
      "中的人": 7815,
      "之体": 7816,
      "亚拉": 7817,
      "些什么": 7818,
      "人影": 7819,
      "人?”": 7820,
      "仅仅": 7821,
      "从未": 7822,
      "仪器": 7823,
      "伯伯": 7824,
      "你的,": 7825,
      "出奇": 7826,
      "剑尖": 7827,
      "功能": 7828,
      "匹马": 7829,
      "去死": 7830,
      "双拳": 7831,
      "各国": 7832,
      "吸精": 7833,
      "围攻": 7834,
      "地望着": 7835,
      "天际": 7836,
      "威风": 7837,
      "对我的": 7838,
      "小命": 7839,
      "少林": 7840,
      "尽头": 7841,
      "局面": 7842,
      "左边": 7843,
      "干净": 7844,
      "建议": 7845,
      "开了,": 7846,
      "很大": 7847,
      "很少": 7848,
      "快点": 7849,
      "怡虹": 7850,
      "怪不得": 7851,
      "意外": 7852,
      "成的": 7853,
      "我对": 7854,
      "或是": 7855,
      "打扮": 7856,
      "打造": 7857,
      "扭曲": 7858,
      "把自己": 7859,
      "投向了": 7860,
      "救他": 7861,
      "新的": 7862,
      "时的": 7863,
      "是想": 7864,
      "是没有": 7865,
      "有多": 7866,
      "有的": 7867,
      "朦胧": 7868,
      "本人": 7869,
      "沙滩": 7870,
      "流的": 7871,
      "浓的": 7872,
      "滋味": 7873,
      "烈的": 7874,
      "然。": 7875,
      "然大": 7876,
      "用尽": 7877,
      "男一女": 7878,
      "留在": 7879,
      "的死": 7880,
      "的不是": 7881,
      "看去,": 7882,
      "眼睁": 7883,
      "着自己": 7884,
      "终点": 7885,
      "而去。": 7886,
      "胸前": 7887,
      "能够": 7888,
      "舒服": 7889,
      "荆珂": 7890,
      "血雨": 7891,
      "要说": 7892,
      "见你": 7893,
      "让自己": 7894,
      "设计": 7895,
      "读书": 7896,
      "走了,": 7897,
      "走到了": 7898,
      "走吧!": 7899,
      "身处": 7900,
      "边缘": 7901,
      "这小子": 7902,
      "连连": 7903,
      "迷惘": 7904,
      "逃亡": 7905,
      "逃避": 7906,
      "那片": 7907,
      "长长的": 7908,
      "青衣": 7909,
      "靠在": 7910,
      "顾一切": 7911,
      "颗心": 7912,
      "食言": 7913,
      "骄傲": 7914,
      "魔经": 7915,
      "黑蛇": 7916,
      "齐家": 7917,
      "我们。": 7918,
      "一个月": 7919,
      "了。”他": 7920,
      "“我看": 7921,
      "怎么知道": 7922,
      "了一下,": 7923,
      ",一身": 7924,
      "的。”她": 7925,
      "声音。": 7926,
      ",就在": 7927,
      "白狐孙小洁": 7928,
      ",如果没有": 7929,
      "缓缓的道:“": 7930,
      "消失了,": 7931,
      "战斗能力": 7932,
      "轻轻地": 7933,
      "摇头道:“": 7934,
      ",因为我": 7935,
      "发生什么事": 7936,
      "那一瞬间": 7937,
      "淡淡一笑": 7938,
      "的地方。": 7939,
      "绝对不会": 7940,
      "生命之钥": 7941,
      "闪电般": 7942,
      "死亡气息": 7943,
      " 11": 7944,
      "说的也是": 7945,
      "不断地": 7946,
      "必须要": 7947,
      "最强的": 7948,
      "周围的": 7949,
      "不安。": 7950,
      "猎人协会": 7951,
      "过一丝": 7952,
      "根本就没有": 7953,
      "一字一句地道。": 7954,
      "冲天而起,": 7955,
      "喜儿妹妹": 7956,
      "猎杀计划": 7957,
      "面无表情": 7958,
      " “我": 7959,
      ",等": 7960,
      ",自": 7961,
      ",冯德": 7962,
      ",小茵": 7963,
      ",老达": 7964,
      ",只能": 7965,
      ".0": 7966,
      "55": 7967,
      "lu": 7968,
      "一战": 7969,
      "七八": 7970,
      "七彩": 7971,
      "下,我": 7972,
      "不愿": 7973,
      "不离": 7974,
      "不绝": 7975,
      "不下去": 7976,
      "两边": 7977,
      "事。”": 7978,
      "今夜": 7979,
      "从此": 7980,
      "从他的": 7981,
      "优势": 7982,
      "会死": 7983,
      "儒士": 7984,
      "公园": 7985,
      "兴致": 7986,
      "内容": 7987,
      "冲到": 7988,
      "到大": 7989,
      "到她": 7990,
      "刺激": 7991,
      "力,": 7992,
      "压抑": 7993,
      "去了,": 7994,
      "发疯": 7995,
      "咔咔": 7996,
      "四个人": 7997,
      "外界": 7998,
      "外面的": 7999,
      "好处": 8000,
      "妇人": 8001,
      "妓女": 8002,
      "宁愿": 8003,
      "就得": 8004,
      "就有": 8005,
      "尼克": 8006,
      "归于": 8007,
      "影响": 8008,
      "得更": 8009,
      "总护法": 8010,
      "情愿": 8011,
      "想想": 8012,
      "憧憬": 8013,
      "懒洋洋": 8014,
      "我真的": 8015,
      "所欲": 8016,
      "把剑": 8017,
      "把手": 8018,
      "护士": 8019,
      "挂着": 8020,
      "提起": 8021,
      "插道。": 8022,
      "收拾": 8023,
      "无所": 8024,
      "是‘": 8025,
      "是无法": 8026,
      "更加": 8027,
      "有个": 8028,
      "柔声": 8029,
      "欺负": 8030,
      "沉声": 8031,
      "涨红": 8032,
      "生气": 8033,
      "白云": 8034,
      "的上": 8035,
      "的下": 8036,
      "的山": 8037,
      "的树": 8038,
      "的惨叫": 8039,
      "皇室": 8040,
      "破绽": 8041,
      "空空": 8042,
      "空翻": 8043,
      "紫色的": 8044,
      "线索": 8045,
      "终极": 8046,
      "给我们": 8047,
      "维持": 8048,
      "罗英": 8049,
      "老婆": 8050,
      "而来,": 8051,
      "而出。": 8052,
      "耗尽": 8053,
      "茫然的": 8054,
      "血,": 8055,
      "血统": 8056,
      "袁圆": 8057,
      "裂天": 8058,
      "要杀": 8059,
      "观众": 8060,
      "视野": 8061,
      "躺在地上的": 8062,
      "迎面": 8063,
      "这边": 8064,
      "违背": 8065,
      "连环": 8066,
      "避过": 8067,
      "那小": 8068,
      "那时": 8069,
      "门。": 8070,
      "问我": 8071,
      "随后": 8072,
      "雨水": 8073,
      "露出了": 8074,
      "青山": 8075,
      "飞行": 8076,
      "。”张伯": 8077,
      "一个问题": 8078,
      ",你先": 8079,
      ",你别": 8080,
      ",你可": 8081,
      ",你可知道": 8082,
      ",但在": 8083,
      "现在我": 8084,
      "“你的": 8085,
      "“我不知道": 8086,
      "突然被": 8087,
      "了一眼": 8088,
      ",一条": 8089,
      "起来,": 8090,
      ",就会": 8091,
      "只是为了": 8092,
      "还有一": 8093,
      "的声音,": 8094,
      "一点都不": 8095,
      ",如果我": 8096,
      ",如果不是": 8097,
      "说话之间": 8098,
      "这种事情": 8099,
      ".'张刀": 8100,
      "手中的长剑": 8101,
      "出现的": 8102,
      "究竟发生了什么事": 8103,
      "作者:": 8104,
      "的看着我。": 8105,
      "我心中暗": 8106,
      "天涯猎人协会": 8107,
      "杀了你": 8108,
      "诸葛先生": 8109,
      "用力一": 8110,
      "并不算": 8111,
      "死去的": 8112,
      "残龙党": 8113,
      "脸色而活": 8114,
      "红发男子": 8115,
      "一字一句的道。": 8116,
      "笑了:“": 8117,
      "金发少女": 8118,
      "一颗星星": 8119,
      "倒在了地上,": 8120,
      "打断了": 8121,
      "深深的": 8122,
      "变形艇": 8123,
      "玄铁锁链": 8124,
      "飞快地": 8125,
      "电光火": 8126,
      ".com": 8127,
      "眼睁睁": 8128,
      ",都是": 8129,
      ",心中": 8130,
      ",最后": 8131,
      "?但": 8132,
      "A组": 8133,
      "] 3": 8134,
      "“少": 8135,
      "“想": 8136,
      "“算": 8137,
      "“也许": 8138,
      "“对不起": 8139,
      "。 “": 8140,
      "一招": 8141,
      "一拳": 8142,
      "一咬牙": 8143,
      "上百": 8144,
      "下一": 8145,
      "不满": 8146,
      "不相": 8147,
      "不舍": 8148,
      "不说话": 8149,
      "与他们": 8150,
      "专家": 8151,
      "为之": 8152,
      "为此": 8153,
      "举起": 8154,
      "也无法": 8155,
      "也算是": 8156,
      "也跟着": 8157,
      "乱舞": 8158,
      "了这": 8159,
      "了出去": 8160,
      "交叉": 8161,
      "人之": 8162,
      "人都": 8163,
      "仍在": 8164,
      "仔细": 8165,
      "你已经": 8166,
      "元气": 8167,
      "公寓": 8168,
      "分明": 8169,
      "前来": 8170,
      "力道": 8171,
      "动着": 8172,
      "危机": 8173,
      "却已经": 8174,
      "发的": 8175,
      "口水": 8176,
      "各族": 8177,
      "向你": 8178,
      "听得": 8179,
      "咆哮": 8180,
      "和他们": 8181,
      "嘛!": 8182,
      "地道": 8183,
      "增殖": 8184,
      "大吃": 8185,
      "大漠": 8186,
      "天绝": 8187,
      "如同": 8188,
      "寂静": 8189,
      "对了,": 8190,
      "属下": 8191,
      "岛上": 8192,
      "幻想": 8193,
      "弟子": 8194,
      "往往": 8195,
      "得上": 8196,
      "快一点": 8197,
      "惊喜": 8198,
      "想过": 8199,
      "技术": 8200,
      "抬起": 8201,
      "掌声": 8202,
      "摇摇": 8203,
      "时机": 8204,
      "暗器": 8205,
      "暴发": 8206,
      "本姑娘": 8207,
      "梦罗控魂大法": 8208,
      "每个人": 8209,
      "气线": 8210,
      "流泪": 8211,
      "海面": 8212,
      "游走": 8213,
      "灯火": 8214,
      "炎剑": 8215,
      "用这": 8216,
      "的魔": 8217,
      "的笑道。": 8218,
      "的周平": 8219,
      "的黑雷": 8220,
      "的过程": 8221,
      "眼里": 8222,
      "确是": 8223,
      "第七": 8224,
      "糊涂": 8225,
      "练习": 8226,
      "给你。”": 8227,
      "老妈": 8228,
      "脑子": 8229,
      "脱口": 8230,
      "自动": 8231,
      "良久": 8232,
      "若无": 8233,
      "苦笑道:“": 8234,
      "落入": 8235,
      "街上": 8236,
      "要去": 8237,
      "见我": 8238,
      "观察": 8239,
      "论坛": 8240,
      "赶快": 8241,
      "足够": 8242,
      "逃离": 8243,
      "邪魔": 8244,
      "金庸": 8245,
      "震得": 8246,
      "鞭子": 8247,
      "飘飘": 8248,
      "飞掠": 8249,
      "黑莲": 8250,
      "。”陈斌": 8251,
      "。”老达": 8252,
      "。”燕儿": 8253,
      ",我曾": 8254,
      ",我只有": 8255,
      ",我只能": 8256,
      "?”小书": 8257,
      "......他": 8258,
      ",你一定要": 8259,
      "我的剑": 8260,
      ",这样的": 8261,
      ",不用": 8262,
      "人的目光": 8263,
      "可能性": 8264,
      "的声音从": 8265,
      "自己的身体": 8266,
      "为什么会": 8267,
      "了!』": 8268,
      "竟然会": 8269,
      "“老大,我": 8270,
      "希望你能": 8271,
      "对我说过": 8272,
      "成了两": 8273,
      "西门断天的": 8274,
      "超级猎杀计划": 8275,
      "是一件": 8276,
      "淡淡的道:“": 8277,
      "一样,": 8278,
      "“小涯": 8279,
      "在地上,": 8280,
      ",对于": 8281,
      "得到幸福": 8282,
      ",我不禁": 8283,
      "佣兵团": 8284,
      "对不起,": 8285,
      "身前,": 8286,
      "的女人,": 8287,
      "眼前一": 8288,
      "的白色": 8289,
      "闭上了眼睛": 8290,
      "‘超梦杀手组": 8291,
      "特别是": 8292,
      "话音未落,": 8293,
      "“行了,": 8294,
      "无声无息的": 8295,
      "魔晶石": 8296,
      "        ": 8297,
      "不自觉的": 8298,
      "妖皇安杰尔": 8299,
      "小龙女": 8300,
      "林易国": 8301,
      "青衣儒士": 8302,
      "黑蛇夫人": 8303,
      "尼克斯": 8304,
      " “你": 8305,
      "! [": 8306,
      ",毕竟": 8307,
      ",另一": 8308,
      ",幸好": 8309,
      ".x": 8310,
      "3 2": 8311,
      "?他": 8312,
      "K 0": 8313,
      "bb": 8314,
      "ilu": 8315,
      "s.com": 8316,
      "“死": 8317,
      "“皇子": 8318,
      "“黑狼": 8319,
      "”,": 8320,
      "一团": 8321,
      "不受": 8322,
      "不爱": 8323,
      "不经": 8324,
      "不出来": 8325,
      "不应该": 8326,
      "之王": 8327,
      "乌龟": 8328,
      "也想": 8329,
      "习武": 8330,
      "了的": 8331,
      "了你的": 8332,
      "人潮": 8333,
      "人间": 8334,
      "他妈": 8335,
      "以来,": 8336,
      "伤势": 8337,
      "伸手": 8338,
      "但我": 8339,
      "住,": 8340,
      "体质": 8341,
      "作出": 8342,
      "你来": 8343,
      "做梦": 8344,
      "偶像": 8345,
      "允许": 8346,
      "六十": 8347,
      "兵器": 8348,
      "冷的": 8349,
      "出剑": 8350,
      "到他": 8351,
      "勇气": 8352,
      "又被": 8353,
      "后,我": 8354,
      "呢!”": 8355,
      "和我们": 8356,
      "哪个": 8357,
      "嘿嘿": 8358,
      "在‘": 8359,
      "坚定": 8360,
      "坠落": 8361,
      "大伙": 8362,
      "大人,": 8363,
      "天鹰": 8364,
      "失声": 8365,
      "奇道。": 8366,
      "实际": 8367,
      "就知道": 8368,
      "局长": 8369,
      "屁股": 8370,
      "巨大": 8371,
      "心动": 8372,
      "总觉得": 8373,
      "我竟": 8374,
      "我一个": 8375,
      "所在": 8376,
      "手无": 8377,
      "才好": 8378,
      "把头": 8379,
      "把你们": 8380,
      "把自己的": 8381,
      "担忧": 8382,
      "撕裂": 8383,
      "文)": 8384,
      "新月": 8385,
      "无影": 8386,
      "是不能": 8387,
      "暗的": 8388,
      "月儿": 8389,
      "有八": 8390,
      "有一点": 8391,
      "李仁": 8392,
      "来了。": 8393,
      "极度": 8394,
      "死寂": 8395,
      "毫无": 8396,
      "点点": 8397,
      "然而": 8398,
      "父皇": 8399,
      "犹如": 8400,
      "理想": 8401,
      "男女": 8402,
      "疾奔": 8403,
      "疾转": 8404,
      "白蛇": 8405,
      "白骨": 8406,
      "的石": 8407,
      "的长": 8408,
      "盘旋": 8409,
      "看似": 8410,
      "离去": 8411,
      "空洞": 8412,
      "米左右": 8413,
      "粉碎": 8414,
      "绿林": 8415,
      "美男": 8416,
      "老虎": 8417,
      "耳中。": 8418,
      "脑袋": 8419,
      "菲尼克斯": 8420,
      "落空": 8421,
      "被困": 8422,
      "被别人": 8423,
      "见他": 8424,
      "观音": 8425,
      "规则": 8426,
      "说道.": 8427,
      "贴身": 8428,
      "走!”": 8429,
      "走了。”": 8430,
      "赵志": 8431,
      "超过": 8432,
      "踏上": 8433,
      "身在": 8434,
      "轻道:“": 8435,
      "这两": 8436,
      "透明的": 8437,
      "那儿": 8438,
      "那黑": 8439,
      "钟楼": 8440,
      "钥匙": 8441,
      "问。": 8442,
      "闯入": 8443,
      "阴谋": 8444,
      "阴阴": 8445,
      "集团": 8446,
      "雾水": 8447,
      "风格": 8448,
      "食物": 8449,
      "高速": 8450,
      "。”雷智森": 8451,
      ",我最": 8452,
      ",我竟": 8453,
      ",我一定要": 8454,
      "这个问题": 8455,
      ",但如果": 8456,
      "已经完全": 8457,
      "突然传来了": 8458,
      "了一些": 8459,
      "了一口": 8460,
      ",她是": 8461,
      "还是先": 8462,
      "世界的": 8463,
      "?”我惊道。": 8464,
      "这么简单": 8465,
      "吧!”袁茵": 8466,
      "邪牙的": 8467,
      "一声令": 8468,
      "是什么东西": 8469,
      "相信我": 8470,
      ",不过我": 8471,
      "出一道": 8472,
      "双眼。": 8473,
      "变成一颗星星": 8474,
      " 12": 8475,
      "杀了他": 8476,
      "“这个......": 8477,
      "冷冷的道。": 8478,
      "的黑发": 8479,
      "这个世界上最": 8480,
      "打开了,": 8481,
      "颤抖。": 8482,
      "月光下": 8483,
      "的地步": 8484,
      "黑发少女": 8485,
      "哈哈大": 8486,
      "江湖上": 8487,
      "这么多年": 8488,
      "中年汉子": 8489,
      "大法师": 8490,
      "一闪,": 8491,
      "说到这里": 8492,
      "散发着": 8493,
      "对准了": 8494,
      "警察局": 8495,
      "对不对?”": 8496,
      "受了伤": 8497,
      "无可奈何": 8498,
      "电光火石": 8499,
      "大吃一惊": 8500,
      ".xilu": 8501,
      "bbs.com": 8502,
      ".xilubbs.com": 8503,
      ".xilubbs.com]": 8504,
      "!我们": 8505,
      ")1": 8506,
      ",四": 8507,
      ",手": 8508,
      ",来": 8509,
      ",风": 8510,
      ",似乎": 8511,
      ",甚至": 8512,
      "10": 8513,
      ": ": 8514,
      "hj": 8515,
      "“一": 8516,
      "“天": 8517,
      "“想不到": 8518,
      "“啊!”": 8519,
      "一旁": 8520,
      "一试": 8521,
      "一间": 8522,
      "上千": 8523,
      "上路": 8524,
      "不开": 8525,
      "不着": 8526,
      "不语": 8527,
      "东方": 8528,
      "丢下": 8529,
      "五天": 8530,
      "人员": 8531,
      "人在": 8532,
      "人妖": 8533,
      "人能": 8534,
      "人质": 8535,
      "介绍": 8536,
      "传来。": 8537,
      "何况": 8538,
      "你一": 8539,
      "倒飞": 8540,
      "倒在了": 8541,
      "停在了": 8542,
      "免费": 8543,
      "冒了出来": 8544,
      "冰凉": 8545,
      "冷汗": 8546,
      "净化": 8547,
      "出声,": 8548,
      "到这": 8549,
      "刷的一下": 8550,
      "前往": 8551,
      "加快": 8552,
      "十四": 8553,
      "卡眠": 8554,
      "参天": 8555,
      "又在": 8556,
      "又是一": 8557,
      "口鲜血": 8558,
      "只好": 8559,
      "哀求": 8560,
      "商量": 8561,
      "啊?”": 8562,
      "四射": 8563,
      "困难": 8564,
      "圣魔经": 8565,
      "地下": 8566,
      "坐在了": 8567,
      "境界": 8568,
      "多么": 8569,
      "多大": 8570,
      "大堆": 8571,
      "她也": 8572,
      "她已经": 8573,
      "如雨": 8574,
      "子。": 8575,
      "密集": 8576,
      "小妹": 8577,
      "小白": 8578,
      "就在我": 8579,
      "展开": 8580,
      "左臂": 8581,
      "市场": 8582,
      "底下": 8583,
      "弄清楚": 8584,
      "弹了起来,": 8585,
      "当前": 8586,
      "当成": 8587,
      "得知": 8588,
      "怕你": 8589,
      "急速": 8590,
      "情形": 8591,
      "想干什么?”": 8592,
      "感到": 8593,
      "感受": 8594,
      "我只能": 8595,
      "抓着": 8596,
      "抱歉": 8597,
      "抵抗": 8598,
      "捕捉": 8599,
      "换气": 8600,
      "掌柜": 8601,
      "提前": 8602,
      "效果": 8603,
      "数字": 8604,
      "文字": 8605,
      "斩断": 8606,
      "早上": 8607,
      "显得": 8608,
      "最少": 8609,
      "月亮": 8610,
      "未来的": 8611,
      "树上": 8612,
      "死不": 8613,
      "死人": 8614,
      "死定": 8615,
      "死了。”": 8616,
      "气囊": 8617,
      "法师": 8618,
      "活动": 8619,
      "活下去,": 8620,
      "流沙": 8621,
      "浓雾": 8622,
      "火球": 8623,
      "玩家": 8624,
      "生还": 8625,
      "生生的": 8626,
      "用剑": 8627,
      "留下的": 8628,
      "的两": 8629,
      "的光": 8630,
      "的寒": 8631,
      "的双手": 8632,
      "的站在": 8633,
      "的攻击": 8634,
      "相关": 8635,
      "看不清": 8636,
      "窒息": 8637,
      "立在": 8638,
      "索性": 8639,
      "紧了": 8640,
      "给你们": 8641,
      "而知": 8642,
      "耳光": 8643,
      "肩头,": 8644,
      "背负": 8645,
      "胜利": 8646,
      "能感觉到": 8647,
      "脉门": 8648,
      "自有": 8649,
      "舍不得": 8650,
      "茫然": 8651,
      "虫子": 8652,
      "行为": 8653,
      "要做": 8654,
      "试试": 8655,
      "说来": 8656,
      "走去。": 8657,
      "走进了": 8658,
      "起伏": 8659,
      "超超": 8660,
      "跟踪": 8661,
      "身,": 8662,
      "迎着": 8663,
      "还想": 8664,
      "这三": 8665,
      "造人": 8666,
      "遥远": 8667,
      "里,": 8668,
      "铁链": 8669,
      "随手": 8670,
      "...'": 8671,
      "。” “": 8672,
      ":“他": 8673,
      ":“这": 8674,
      ",你也": 8675,
      ",你快": 8676,
      ",你想": 8677,
      ",但由于": 8678,
      "知道自己": 8679,
      "现在起": 8680,
      "已经到了": 8681,
      "袁茵和南宫北": 8682,
      "的人物": 8683,
      "“你究竟": 8684,
      "“我不是": 8685,
      "的,不过": 8686,
      "到了他的": 8687,
      "突然传来": 8688,
      ",一般": 8689,
      "的话,我就": 8690,
      "那个什么": 8691,
      "身体中": 8692,
      "还有什么": 8693,
      "还有一个": 8694,
      "“那我就": 8695,
      ",如果他": 8696,
      "“不知道": 8697,
      "黑暗的": 8698,
      "吧!变成一颗星星": 8699,
      "离开这个": 8700,
      "竟然能": 8701,
      "喜欢你": 8702,
      "在我心中": 8703,
      "老达的": 8704,
      "是一种": 8705,
      "不知为何": 8706,
      "不得不": 8707,
      "我一咬牙": 8708,
      "身形一动,": 8709,
      "幻水大人": 8710,
      "之一的": 8711,
      "天下无": 8712,
      "身前。": 8713,
      "的女孩子": 8714,
      "之下。": 8715,
      "的血液": 8716,
      "有一种说不出的": 8717,
      "始终都": 8718,
      "的关系,": 8719,
      "二十四": 8720,
      "快的速度": 8721,
      "轻易地": 8722,
      "喃喃的道。": 8723,
      "洗冷谷": 8724,
      "“嗯。”": 8725,
      "卧虎周评——": 8726,
      "一言不": 8727,
      "软软的": 8728,
      "转身就走。": 8729,
      " | ": 8730,
      "然大悟": 8731,
      "齐家镇": 8732,
      "白蛇先生": 8733,
      "赵志守": 8734,
      "hj.xilubbs.com]": 8735,
      "卡眠莎": 8736,
      " 字": 8737,
      " 帖": 8738,
      " 点击": 8739,
      "!'": 8740,
      "(xxx": 8741,
      ") 2002/": 8742,
      ",做": 8743,
      ",也是": 8744,
      ",也不": 8745,
      ",眼中": 8746,
      ",整个": 8747,
      ",哈哈": 8748,
      "?如果": 8749,
      "“看": 8750,
      "“多谢": 8751,
      "“周大哥": 8752,
      "”。": 8753,
      "一夜": 8754,
      "一遍": 8755,
      "上,我": 8756,
      "下。”": 8757,
      "下杀手": 8758,
      "不像": 8759,
      "不让": 8760,
      "不该": 8761,
      "与此": 8762,
      "两掌": 8763,
      "之夜": 8764,
      "之类": 8765,
      "了三": 8766,
      "了吧?”我": 8767,
      "事后": 8768,
      "人族": 8769,
      "今年": 8770,
      "他已经": 8771,
      "仪式": 8772,
      "优秀": 8773,
      "传来的": 8774,
      "位于": 8775,
      "你现在": 8776,
      "你这么": 8777,
      "你这种": 8778,
      "便会": 8779,
      "内心": 8780,
      "凝视": 8781,
      "出声。": 8782,
      "击杀": 8783,
      "到我们": 8784,
      "十一": 8785,
      "十万": 8786,
      "厮杀": 8787,
      "变强": 8788,
      "同小": 8789,
      "名其": 8790,
      "向他的": 8791,
      "听见": 8792,
      "呵呵": 8793,
      "命运": 8794,
      "和袁茵": 8795,
      "商业": 8796,
      "在网上": 8797,
      "垃圾": 8798,
      "城门": 8799,
      "墙角": 8800,
      "大吼": 8801,
      "女孩": 8802,
      "她又": 8803,
      "她就": 8804,
      "好了。”": 8805,
      "学会": 8806,
      "守在": 8807,
      "客人": 8808,
      "对望": 8809,
      "将这": 8810,
      "少爷": 8811,
      "带上": 8812,
      "帮助": 8813,
      "得了": 8814,
      "得要": 8815,
      "微弱的": 8816,
      "态度": 8817,
      "怕我": 8818,
      "恍然大悟": 8819,
      "恶心": 8820,
      "惊愕": 8821,
      "感染": 8822,
      "成辉": 8823,
      "所到": 8824,
      "扛着": 8825,
      "推开": 8826,
      "搞笑": 8827,
      "数十个": 8828,
      "数千年": 8829,
      "文学": 8830,
      "无光": 8831,
      "无踪": 8832,
      "昨夜": 8833,
      "晚儿": 8834,
      "智慧": 8835,
      "来了,": 8836,
      "某些": 8837,
      "森森": 8838,
      "次 帖": 8839,
      "死的人": 8840,
      "段哥哥": 8841,
      "毁掉": 8842,
      "毒的": 8843,
      "没想到": 8844,
      "沸腾": 8845,
      "派人": 8846,
      "流动": 8847,
      "满面的": 8848,
      "潜水": 8849,
      "猛的一": 8850,
      "现象": 8851,
      "生日": 8852,
      "电击": 8853,
      "留言": 8854,
      "的从": 8855,
      "的残": 8856,
      "的孙小洁": 8857,
      "的微笑": 8858,
      "的望着": 8859,
      "的游戏": 8860,
      "的记忆": 8861,
      "的秘密": 8862,
      "的长剑": 8863,
      "目前的": 8864,
      "眉道。": 8865,
      "知,": 8866,
      "知觉": 8867,
      "码头": 8868,
      "砰砰": 8869,
      "破了": 8870,
      "破神": 8871,
      "碰到": 8872,
      "离去。": 8873,
      "穷追": 8874,
      "站了起来": 8875,
      "笑得很": 8876,
      "结结": 8877,
      "绝计": 8878,
      "美得": 8879,
      "美人的": 8880,
      "而飞": 8881,
      "脸。": 8882,
      "自私": 8883,
      "致命": 8884,
      "苏醒": 8885,
      "虽说": 8886,
      "行。": 8887,
      "表示": 8888,
      "话中": 8889,
      "话题": 8890,
      "说什么?": 8891,
      "起眉头": 8892,
      "趁机": 8893,
      "趁着": 8894,
      "达叔": 8895,
      "这艘": 8896,
      "逃跑": 8897,
      "那是": 8898,
      "郑北": 8899,
      "长大": 8900,
      "门打开": 8901,
      "防御": 8902,
      "防护": 8903,
      "非同小": 8904,
      "领域": 8905,
      "颜色": 8906,
      "飞驰": 8907,
      "骑士团": 8908,
      "默默": 8909,
      "齐声": 8910,
      "龙卷": 8911,
      ",我都": 8912,
      ",我不会": 8913,
      "?”他": 8914,
      "了,就": 8915,
      "了,而": 8916,
      "!”南宫北": 8917,
      "什么叫": 8918,
      "什么地方": 8919,
      ",你在": 8920,
      ",你是": 8921,
      ",你这个": 8922,
      ",你怎么": 8923,
      "这个女人": 8924,
      "“你在": 8925,
      "“我要": 8926,
      ",他也": 8927,
      ",一双": 8928,
      ",那我就": 8929,
      "不会有": 8930,
      "因为我": 8931,
      "的。”齐琳": 8932,
      "的话,他": 8933,
      "虽然是": 8934,
      "黑衣红发男子": 8935,
      "一下。”": 8936,
      "原来是": 8937,
      "入了黑暗": 8938,
      "意思?”我": 8939,
      "此刻已经": 8940,
      "啊!我": 8941,
      " [小分队长": 8942,
      "的老者": 8943,
      "卧虎之心": 8944,
      "面色大变": 8945,
      "武林高手": 8946,
      "毕竟是": 8947,
      "身子一": 8948,
      "普通人": 8949,
      "黑衣鬼面男": 8950,
      "改造成": 8951,
      "“怎么回事": 8952,
      "丧失了": 8953,
      ".xxx) 2002/": 8954,
      "的身影": 8955,
      "电子仪器": 8956,
      "艰难的": 8957,
      "——————": 8958,
      ".xxx.xxx.xxx) 2002/": 8959,
      "意味深": 8960,
      "文剑圣诸葛撼野": 8961,
      " [whj.xilubbs.com]": 8962,
      "论坛: ": 8963,
      "邪魔增殖": 8964,
      "当前论坛: ": 8965,
      "吧!变成一颗星星吧!变成一颗星星": 8966,
      " 字节": 8967,
      "(xxx.xxx.xxx.xxx) 2002/": 8968,
      "次 帖号": 8969,
      "破神裂": 8970,
      "非同小可": 8971,
      "当前论坛: 卧虎居": 8972,
      ",二": 8973,
      ",总": 8974,
      ",手中": 8975,
      ",估计": 8976,
      "4 2": 8977,
      "‘沉鱼池’": 8978,
      "“唉": 8979,
      "“啊": 8980,
      "“......": 8981,
      "“混蛋": 8982,
      "一出": 8983,
      "一千": 8984,
      "一发": 8985,
      "一扬": 8986,
      "与那": 8987,
      "两种": 8988,
      "丫环": 8989,
      "临时": 8990,
      "丹田": 8991,
      "主题": 8992,
      "了她的": 8993,
      "事,": 8994,
      "交易": 8995,
      "他会": 8996,
      "付出": 8997,
      "以上": 8998,
      "伸出": 8999,
      "但是": 9000,
      "体的": 9001,
      "你又": 9002,
      "你可": 9003,
      "你不要": 9004,
      "保住": 9005,
      "做了个": 9006,
      "元素": 9007,
      "先别": 9008,
      "公路": 9009,
      "六脉": 9010,
      "关上": 9011,
      "出乎": 9012,
      "出鞘": 9013,
      "创世": 9014,
      "到你": 9015,
      "到哪儿": 9016,
      "匆匆": 9017,
      "半坐": 9018,
      "却已": 9019,
      "去。”": 9020,
      "反复": 9021,
      "召唤": 9022,
      "后面的": 9023,
      "向外": 9024,
      "向我的": 9025,
      "听她": 9026,
      "听话": 9027,
      "听说过": 9028,
      "呜呜": 9029,
      "呵欠": 9030,
      "喊道。": 9031,
      "喘息": 9032,
      "团团": 9033,
      "地从": 9034,
      "地道,": 9035,
      "处的": 9036,
      "多的": 9037,
      "大侠": 9038,
      "天剑": 9039,
      "天色": 9040,
      "夺取": 9041,
      "奔去。": 9042,
      "女友": 9043,
      "她现在": 9044,
      "好自": 9045,
      "好了!”": 9046,
      "如飞": 9047,
      "妇女": 9048,
      "妮子": 9049,
      "嫁给": 9050,
      "小二": 9051,
      "小妍": 9052,
      "岩洞": 9053,
      "师妹": 9054,
      "带你": 9055,
      "当作": 9056,
      "很简单": 9057,
      "心裂": 9058,
      "恨恨": 9059,
      "悬念": 9060,
      "悬在空中的": 9061,
      "情人": 9062,
      "想知道": 9063,
      "想不通": 9064,
      "惶恐": 9065,
      "意,": 9066,
      "我可": 9067,
      "我得": 9068,
      "我这": 9069,
      "我也是": 9070,
      "房子": 9071,
      "房门": 9072,
      "所说": 9073,
      "执行": 9074,
      "找个": 9075,
      "找一个": 9076,
      "抚着": 9077,
      "指着我": 9078,
      "接道。": 9079,
      "撑着": 9080,
      "撕心裂": 9081,
      "教我": 9082,
      "星期": 9083,
      "是从": 9084,
      "是由": 9085,
      "来。”": 9086,
      "林茵": 9087,
      "柔软": 9088,
      "梦中": 9089,
      "欲坠": 9090,
      "殿中": 9091,
      "每天": 9092,
      "气体": 9093,
      "气虎": 9094,
      "沉声道:“": 9095,
      "沙发": 9096,
      "测试": 9097,
      "海底": 9098,
      "清晨": 9099,
      "源源": 9100,
      "火光": 9101,
      "灭口": 9102,
      "炸弹": 9103,
      "点。": 9104,
      "熄灭": 9105,
      "猜测": 9106,
      "理智": 9107,
      "用了": 9108,
      "男人,": 9109,
      "痛楚": 9110,
      "白发": 9111,
      "百年": 9112,
      "的书": 9113,
      "的口": 9114,
      "的战": 9115,
      "的特": 9116,
      "的?”我": 9117,
      "的魔族": 9118,
      "的绿莹": 9119,
      "的脚步声": 9120,
      "盲女": 9121,
      "着嗓子": 9122,
      "礼物": 9123,
      "神经": 9124,
      "科幻": 9125,
      "空荡": 9126,
      "第八": 9127,
      "经历": 9128,
      "绝不能": 9129,
      "绽放": 9130,
      "老娘": 9131,
      "老鼠": 9132,
      "脚下的": 9133,
      "自主": 9134,
      "色佣兵团": 9135,
      "莫名的": 9136,
      "落下": 9137,
      "衣角": 9138,
      "要你": 9139,
      "视线": 9140,
      "认真": 9141,
      "说要": 9142,
      "走在": 9143,
      "走火": 9144,
      "跟我们": 9145,
      "这是我": 9146,
      "遭到": 9147,
      "那年": 9148,
      "邪破神裂": 9149,
      "郑西": 9150,
      "部队": 9151,
      "银光": 9152,
      "银色的": 9153,
      "错了": 9154,
      "长长": 9155,
      "随风": 9156,
      "难怪": 9157,
      "雨中": 9158,
      "露出一": 9159,
      "静静的": 9160,
      "顾自": 9161,
      "预感": 9162,
      "黄衫": 9163,
      "黑龙": 9164,
      ",你说": 9165,
      ",你可以": 9166,
      ",你究竟": 9167,
      "现在就": 9168,
      "的人流": 9169,
      ",他就": 9170,
      ",一声": 9171,
      ",一手": 9172,
      ",那我": 9173,
      ",那是因为": 9174,
      "不会死": 9175,
      "不会放过": 9176,
      "出来吧!": 9177,
      "那个小": 9178,
      "看着自己": 9179,
      "的一般": 9180,
      "只有一个": 9181,
      "白狐的": 9182,
      "发现自己": 9183,
      "竟然还": 9184,
      "点头道:“": 9185,
      "一声冷笑": 9186,
      "大家的": 9187,
      ",他们的": 9188,
      ",但我还是": 9189,
      "我不想": 9190,
      "是一片": 9191,
      "的手段": 9192,
      "都不敢": 9193,
      "控制的": 9194,
      "进入邪都": 9195,
      ",对不起": 9196,
      "本来就是": 9197,
      "真气’": 9198,
      ",我不想": 9199,
      "在了地上": 9200,
      "西域江南国的": 9201,
      ",只要你": 9202,
      "脸上的笑容": 9203,
      "的气氛": 9204,
      "幽幽地道。": 9205,
      "等待着": 9206,
      "小声的道。": 9207,
      "红发少年": 9208,
      "红发美男": 9209,
      "简直是": 9210,
      "无形的": 9211,
      "不对劲": 9212,
      "动弹不得": 9213,
      "只不过是": 9214,
      "实在是太": 9215,
      "昨天晚上": 9216,
      ",这时我才": 9217,
      "野蛮读者": 9218,
      "驾驶室": 9219,
      "半截剑玄录": 9220,
      "“轰”": 9221,
      "“砰!”": 9222,
      "超魔杀空间": 9223,
      "张大了嘴巴": 9224,
      "7.15": 9225,
      "裂天之剑": 9226,
      "意味深长": 9227,
      "邪魔增殖大法": 9228,
      "(xxx.xxx.xxx.xxx) 2002/0": 9229,
      "撕心裂肺": 9230,
      ",“": 9231,
      ",到": 9232,
      ",很": 9233,
      ",您": 9234,
      ",算": 9235,
      ",开始": 9236,
      ",作者": 9237,
      ",别人": 9238,
      ",让你": 9239,
      ",说不定": 9240,
      ",除非": 9241,
      "K 点击": 9242,
      "] 1": 9243,
      "‘吸精": 9244,
      "“就": 9245,
      "“老": 9246,
      "“有什么": 9247,
      "“两位": 9248,
      "“飞鸟巢": 9249,
      "一事": 9250,
      "一飞": 9251,
      "一想到": 9252,
      "下毒": 9253,
      "下越": 9254,
      "不下": 9255,
      "不平": 9256,
      "不来": 9257,
      "不希望": 9258,
      "与南宫北": 9259,
      "与我一": 9260,
      "世道": 9261,
      "个性": 9262,
      "丫头,": 9263,
      "为自己": 9264,
      "之路": 9265,
      "也未必能": 9266,
      "乱军": 9267,
      "了自己的": 9268,
      "云方": 9269,
      "五人": 9270,
      "他现在": 9271,
      "传音": 9272,
      "你最好": 9273,
      "做不到": 9274,
      "八面": 9275,
      "共同": 9276,
      "关切": 9277,
      "到的": 9278,
      "前。": 9279,
      "前面的": 9280,
      "剑士": 9281,
      "剑鬼": 9282,
      "剩下的": 9283,
      "十有八": 9284,
      "升起": 9285,
      "却又": 9286,
      "却有": 9287,
      "反击": 9288,
      "台上": 9289,
      "右腕": 9290,
      "各个": 9291,
      "各自": 9292,
      "同归于": 9293,
      "吸了一口气": 9294,
      "和孙小洁": 9295,
      "响了起来。": 9296,
      "四肢": 9297,
      "图书": 9298,
      "圆形": 9299,
      "在乎": 9300,
      "在阳光": 9301,
      "在哪儿": 9302,
      "处,": 9303,
      "大雨": 9304,
      "天亮": 9305,
      "天才": 9306,
      "夫妇": 9307,
      "头脑": 9308,
      "女人,": 9309,
      "女朋友": 9310,
      "奴隶": 9311,
      "她竟": 9312,
      "客厅": 9313,
      "富贵": 9314,
      "寒颤": 9315,
      "对了": 9316,
      "对自己": 9317,
      "就此": 9318,
      "左手一": 9319,
      "布满": 9320,
      "带回": 9321,
      "干什么": 9322,
      "张开了": 9323,
      "当初": 9324,
      "很久": 9325,
      "得不": 9326,
      "微弱": 9327,
      "必杀": 9328,
      "怜悯": 9329,
      "感激": 9330,
      "我?”": 9331,
      "我怎么": 9332,
      "我一面": 9333,
      "我回头": 9334,
      "我点了点头:“": 9335,
      "戴着": 9336,
      "手术": 9337,
      "手枪": 9338,
      "打不过": 9339,
      "扩散": 9340,
      "拖着": 9341,
      "招,": 9342,
      "挑战": 9343,
      "换了": 9344,
      "掩饰": 9345,
      "携着": 9346,
      "摆脱": 9347,
      "摧毁": 9348,
      "擅长": 9349,
      "收缩": 9350,
      "放肆": 9351,
      "方圆": 9352,
      "时,我": 9353,
      "时,她": 9354,
      "暖流": 9355,
      "最喜欢": 9356,
      "机器": 9357,
      "来人": 9358,
      "松开了": 9359,
      "树木": 9360,
      "样的人": 9361,
      "根手指": 9362,
      "椅子": 9363,
      "气氛": 9364,
      "氧气": 9365,
      "汹汹": 9366,
      "沙化": 9367,
      "流传": 9368,
      "流行": 9369,
      "混乱": 9370,
      "满天的": 9371,
      "激动": 9372,
      "热闹": 9373,
      "牙齿": 9374,
      "用来": 9375,
      "用的是": 9376,
      "留着": 9377,
      "痕迹": 9378,
      "痴痴": 9379,
      "的前": 9380,
      "的精": 9381,
      "的美": 9382,
      "的少年": 9383,
      "的胸口": 9384,
      "的方式": 9385,
      "的文章": 9386,
      "睡着": 9387,
      "石辉": 9388,
      "砰的一下": 9389,
      "破空": 9390,
      "碑林": 9391,
      "社会": 9392,
      "移动的": 9393,
      "稍稍": 9394,
      "站了起来,": 9395,
      "答道。": 9396,
      "经脉": 9397,
      "缘故": 9398,
      "缠斗": 9399,
      "置信": 9400,
      "翅膀": 9401,
      "老树": 9402,
      "联盟": 9403,
      "脸少女": 9404,
      "至今": 9405,
      "舌头": 9406,
      "花花": 9407,
      "莫名其": 9408,
      "血丝": 9409,
      "行,": 9410,
      "要将": 9411,
      "见到了": 9412,
      "角度": 9413,
      "言。": 9414,
      "说。": 9415,
      "调查": 9416,
      "谨慎": 9417,
      "走廊": 9418,
      "越下越": 9419,
      "过我": 9420,
      "进化": 9421,
      "进步": 9422,
      "道歉": 9423,
      "邪阵": 9424,
      "都说": 9425,
      "门口": 9426,
      "面容": 9427,
      "骗你": 9428,
      "高大": 9429,
      "高度": 9430,
      "高空": 9431,
      "高高的": 9432,
      "高云方": 9433,
      "魔念": 9434,
      "。”黑衣鬼面男子": 9435,
      ",我来": 9436,
      ",我也是": 9437,
      ",我自然": 9438,
      "了,这个": 9439,
      ":“小": 9440,
      ":“我们": 9441,
      "!”二号": 9442,
      "!”玲玲": 9443,
      ",你不要": 9444,
      ",但那": 9445,
      ",但他的": 9446,
      ",但是我": 9447,
      "知道他": 9448,
      "现在我们": 9449,
      "“你不": 9450,
      "的,就算": 9451,
      "的,而且": 9452,
      "怎么说": 9453,
      ",那就": 9454,
      "如果我": 9455,
      "这样说": 9456,
      "的一剑": 9457,
      "。”我轻道。": 9458,
      "。”我沉声道。": 9459,
      "只有死路一条": 9460,
      "只是个": 9461,
      "一直都是": 9462,
      "也不可能": 9463,
      "了!”冯德": 9464,
      "不知道为什么": 9465,
      "喜欢上": 9466,
      "魔法阵": 9467,
      "在一起,": 9468,
      "西门断天的女儿": 9469,
      "刚才我": 9470,
      "刚才的": 9471,
      ".'李剑": 9472,
      "出手,": 9473,
      "黑雷的": 9474,
      "淡淡地道:“": 9475,
      "失落之门": 9476,
      "那么的": 9477,
      "微笑。": 9478,
      "小青的": 9479,
      "的时候,": 9480,
      "的看着我": 9481,
      "了过去,": 9482,
      "能量炮": 9483,
      ",是因为": 9484,
      "’的‘": 9485,
      "的老头": 9486,
      "疯狂地": 9487,
      "大声的道。": 9488,
      ",小北": 9489,
      "“什么意思?”": 9490,
      "目前为止": 9491,
      "怎么会有": 9492,
      "的气息。": 9493,
      "向后退": 9494,
      "“但是": 9495,
      "怎么办?”": 9496,
      "灭魔者": 9497,
      "旋转着": 9498,
      "英雄志": 9499,
      "年青人": 9500,
      "微微一笑:“": 9501,
      "地面上": 9502,
      "急急的": 9503,
      "保持着": 9504,
      "在了一起,": 9505,
      "野蛮女友": 9506,
      "闪烁不定": 9507,
      "十多个": 9508,
      "四大美人’": 9509,
      "本能的": 9510,
      "人心魄": 9511,
      "玄剑阁": 9512,
      "摇摇欲坠": 9513,
      "穷追不舍": 9514,
      "防护罩": 9515,
      "八面威风": 9516,
      "十有八九": 9517,
      ",据": 9518,
      ",无": 9519,
      ",正": 9520,
      ",都": 9521,
      ",两个": 9522,
      ",很快": 9523,
      "4.1": 9524,
      "LO": 9525,
      "“主人": 9526,
      "“在下": 9527,
      "“各位": 9528,
      "“说的也是": 9529,
      "『她": 9530,
      "一命": 9531,
      "一本": 9532,
      "一横": 9533,
      "一趟": 9534,
      "三界": 9535,
      "上下": 9536,
      "下坠": 9537,
      "不就是": 9538,
      "东京": 9539,
      "两片": 9540,
      "为她": 9541,
      "也算": 9542,
      "也开始": 9543,
      "也好,": 9544,
      "乡下": 9545,
      "了;": 9546,
      "了眼": 9547,
      "了吧!": 9548,
      "五岁": 9549,
      "京城": 9550,
      "人们": 9551,
      "人士": 9552,
      "从空中": 9553,
      "从地上": 9554,
      "他却": 9555,
      "他就": 9556,
      "他能": 9557,
      "他要": 9558,
      "仰天": 9559,
      "伙伴": 9560,
      "传入了": 9561,
      "传了出来。": 9562,
      "伪装": 9563,
      "低声": 9564,
      "何处": 9565,
      "作战": 9566,
      "你有": 9567,
      "你这": 9568,
      "你可以": 9569,
      "你一个人": 9570,
      "保镖": 9571,
      "倩姐姐": 9572,
      "先去": 9573,
      "入魔": 9574,
      "其中。": 9575,
      "冷得": 9576,
      "冷漠": 9577,
      "几句": 9578,
      "凶险": 9579,
      "出去,": 9580,
      "刚要": 9581,
      "到晚": 9582,
      "十三": 9583,
      "十数": 9584,
      "十绝": 9585,
      "千人": 9586,
      "厕所": 9587,
      "去看": 9588,
      "双腕": 9589,
      "发光": 9590,
      "取得": 9591,
      "叛乱军": 9592,
      "叫声": 9593,
      "可否": 9594,
      "右边": 9595,
      "吉普": 9596,
      "和别人": 9597,
      "响起": 9598,
      "嘛!”": 9599,
      "圆睁": 9600,
      "圣躯": 9601,
      "地点": 9602,
      "地上,": 9603,
      "墙壁": 9604,
      "增加": 9605,
      "外人": 9606,
      "大口": 9607,
      "大盗": 9608,
      "大小姐": 9609,
      "头部": 9610,
      "夸张": 9611,
      "好听": 9612,
      "好,我": 9613,
      "如幽灵": 9614,
      "妓院": 9615,
      "嫣然": 9616,
      "宁静": 9617,
      "客气": 9618,
      "宫女": 9619,
      "家中": 9620,
      "对孙小洁": 9621,
      "封闭": 9622,
      "将剑": 9623,
      "将我的": 9624,
      "就越": 9625,
      "就变得": 9626,
      "工具": 9627,
      "巨响": 9628,
      "巨响,": 9629,
      "巴巴": 9630,
      "布满了": 9631,
      "并肩": 9632,
      "幸亏": 9633,
      "异样的": 9634,
      "强力": 9635,
      "强自": 9636,
      "很大的": 9637,
      "得出": 9638,
      "心理": 9639,
      "心痛": 9640,
      "忍着": 9641,
      "思索": 9642,
      "惊呼": 9643,
      "成两": 9644,
      "我也不": 9645,
      "手掌": 9646,
      "打倒": 9647,
      "扬威": 9648,
      "扬起": 9649,
      "抗拒": 9650,
      "抢到": 9651,
      "挂在": 9652,
      "挥舞": 9653,
      "放在了": 9654,
      "方程": 9655,
      "景象": 9656,
      "更新": 9657,
      "有多少": 9658,
      "本事": 9659,
      "机长": 9660,
      "杀戮": 9661,
      "松懈": 9662,
      "极限": 9663,
      "柔和": 9664,
      "正确": 9665,
      "正色": 9666,
      "死前": 9667,
      "死!”": 9668,
      "气流": 9669,
      "水涡": 9670,
      "污辱": 9671,
      "沙蛇": 9672,
      "没关系": 9673,
      "浪费": 9674,
      "源自": 9675,
      "潮水": 9676,
      "灵活": 9677,
      "燃烧": 9678,
      "王机长": 9679,
      "甜美": 9680,
      "生生": 9681,
      "电视": 9682,
      "男孩子": 9683,
      "的名": 9684,
      "的路": 9685,
      "的鬼": 9686,
      "的,我们": 9687,
      "的剑玄录": 9688,
      "的花火": 9689,
      "的眼光": 9690,
      "皱起眉头": 9691,
      "盘算": 9692,
      "盲眼": 9693,
      "直入": 9694,
      "直直": 9695,
      "看去": 9696,
      "看不出": 9697,
      "眼看": 9698,
      "秀发": 9699,
      "穿过": 9700,
      "立身之处": 9701,
      "约会": 9702,
      "练成": 9703,
      "经验": 9704,
      "绕着": 9705,
      "绝不是": 9706,
      "网上的": 9707,
      "聊天": 9708,
      "肩头。": 9709,
      "胡乱": 9710,
      "胡言": 9711,
      "脆弱": 9712,
      "花园": 9713,
      "落在": 9714,
      "行侠": 9715,
      "被吸": 9716,
      "话,": 9717,
      "诱惑": 9718,
      "贴着": 9719,
      "贵的": 9720,
      "赚钱": 9721,
      "超邪": 9722,
      "踏上了": 9723,
      "转瞬": 9724,
      "转移": 9725,
      "转过": 9726,
      "轮椅": 9727,
      "输入": 9728,
      "辛苦": 9729,
      "边,": 9730,
      "还未": 9731,
      "这部": 9732,
      "连接": 9733,
      "迟早": 9734,
      "追逐": 9735,
      "逆转": 9736,
      "通知": 9737,
      "逸世道": 9738,
      "那块": 9739,
      "那张": 9740,
      "那条": 9741,
      "那被": 9742,
      "部位": 9743,
      "门外的": 9744,
      "顺便": 9745,
      "顺利": 9746,
      "飞向": 9747,
      "黄衫少女": 9748,
      "龙的": 9749,
      "。”玲玲": 9750,
      "。”杨光": 9751,
      "。”师命悬": 9752,
      ",我不知道": 9753,
      ",我立即": 9754,
      ",我终于": 9755,
      ",我相信": 9756,
      "!”绿莹": 9757,
      "没有想到": 9758,
      "没有理会": 9759,
      ",你自己": 9760,
      "这个地方": 9761,
      "这个方向": 9762,
      "他们是": 9763,
      "不是很": 9764,
      "的人潮": 9765,
      "的人群": 9766,
      "“你以为": 9767,
      "突然又": 9768,
      "了一声": 9769,
      ",一下": 9770,
      ",一副": 9771,
      "的话。": 9772,
      "的话,她": 9773,
      "那个叫": 9774,
      "她的手": 9775,
      "虽然没有": 9776,
      "的一点": 9777,
      "的一颗心": 9778,
      ",而现在": 9779,
      "黑衣人的": 9780,
      "只是一": 9781,
      "只是在": 9782,
      "一直沉默": 9783,
      "“那我": 9784,
      "眼睛一亮": 9785,
      "非常有": 9786,
      "竟然是": 9787,
      "一声清": 9788,
      "一声惨叫": 9789,
      "告诉你们": 9790,
      "是什么意思?”": 9791,
      ",现在我": 9792,
      ",但我想": 9793,
      "那一天": 9794,
      "淡淡一笑:“": 9795,
      "的笑了起来。": 9796,
      "不知不觉": 9797,
      "究竟是": 9798,
      "的地方,": 9799,
      "着一种": 9800,
      "第二个": 9801,
      "第二次": 9802,
      ",对方": 9803,
      "如何?": 9804,
      "杀了你。”": 9805,
      "“不错,我": 9806,
      "温柔的": 9807,
      "再说。”": 9808,
      "房间中": 9809,
      "吸血族的": 9810,
      "脚步。": 9811,
      "存在着": 9812,
      "的神色": 9813,
      "“如果你": 9814,
      "超梦六杀的": 9815,
      "就好了。”": 9816,
      "迷惑的道。": 9817,
      "是谁?”": 9818,
      "的对手": 9819,
      "了进来": 9820,
      "什么都不知道": 9821,
      "冷笑。": 9822,
      "“可是......”": 9823,
      "?'向春风": 9824,
      "从小就": 9825,
      "我所料": 9826,
      "基因组": 9827,
      "偷偷的": 9828,
      "一颗心": 9829,
      "“为什么?”": 9830,
      "每一个人的": 9831,
      "无限的": 9832,
      "包围圈": 9833,
      "武当派": 9834,
      "半个小时": 9835,
      "头也不回的": 9836,
      "死灵法师": 9837,
      "‘超梦杀手组’": 9838,
      "无影无踪": 9839,
      "观音姐姐": 9840,
      "龙卷风": 9841,
      "空荡荡": 9842,
      "邪破神裂弹": 9843,
      "十绝阵": 9844,
      "方程式": 9845,
      "超邪圣躯": 9846,
      ",其": 9847,
      ",反": 9848,
      ",白": 9849,
      ",可以": 9850,
      ",脸上": 9851,
      ",同时": 9852,
      ",本来": 9853,
      ",“我”": 9854,
      ",后来": 9855,
      "/1": 9856,
      "/2": 9857,
      "??": 9858,
      "?不过": 9859,
      "B组的": 9860,
      "’!”": 9861,
      "“从": 9862,
      "“咦": 9863,
      "“在": 9864,
      "“很": 9865,
      "“臭": 9866,
      "“请": 9867,
      "“知道": 9868,
      "“邪牙": 9869,
      "“山藏": 9870,
      "“废话": 9871,
      "一会": 9872,
      "一刻": 9873,
      "一生": 9874,
      "一路": 9875,
      "一开始": 9876,
      "一回事": 9877,
      "万一": 9878,
      "三分钟": 9879,
      "下方": 9880,
      "不够": 9881,
      "不走": 9882,
      "不清楚": 9883,
      "不顾一切": 9884,
      "两年": 9885,
      "为他": 9886,
      "为首": 9887,
      "也无": 9888,
      "也不要": 9889,
      "也想不到": 9890,
      "了这个": 9891,
      "了:)": 9892,
      "了下去,": 9893,
      "五年": 9894,
      "些什么?": 9895,
      "交待": 9896,
      "从她的": 9897,
      "会在": 9898,
      "伴随着": 9899,
      "体会": 9900,
      "余一飞": 9901,
      "你快": 9902,
      "停下了": 9903,
      "像是": 9904,
      "先把": 9905,
      "公平": 9906,
      "具尸体": 9907,
      "写作": 9908,
      "写手": 9909,
      "冲动": 9910,
      "凶残": 9911,
      "出卖": 9912,
      "创作": 9913,
      "利器": 9914,
      "到这里": 9915,
      "剑锋": 9916,
      "办到": 9917,
      "加入了": 9918,
      "匕首": 9919,
      "十分钟": 9920,
      "千里": 9921,
      "半身": 9922,
      "单纯": 9923,
      "卫队": 9924,
      "历史": 9925,
      "又道:“": 9926,
      "反对": 9927,
      "发着": 9928,
      "古城": 9929,
      "叱道。": 9930,
      "后代": 9931,
      "哽咽": 9932,
      "啊!”我": 9933,
      "四面": 9934,
      "回首": 9935,
      "回过头": 9936,
      "坚强": 9937,
      "堪堪": 9938,
      "大地": 9939,
      "大约": 9940,
      "大计": 9941,
      "天赋": 9942,
      "她却": 9943,
      "好戏": 9944,
      "好吗?": 9945,
      "如水": 9946,
      "学徒": 9947,
      "完结": 9948,
      "宝藏": 9949,
      "密密": 9950,
      "密道": 9951,
      "对他们": 9952,
      "将自己": 9953,
      "将她的": 9954,
      "小组": 9955,
      "小男孩": 9956,
      "就没有": 9957,
      "尽管": 9958,
      "屋檐": 9959,
      "工程": 9960,
      "常常": 9961,
      "平常": 9962,
      "当我们": 9963,
      "得一": 9964,
      "得罪": 9965,
      "得厉害": 9966,
      "心。": 9967,
      "心所欲": 9968,
      "必死": 9969,
      "快些": 9970,
      "怀中,": 9971,
      "恶搞": 9972,
      "惊道:“": 9973,
      "想用": 9974,
      "意的": 9975,
      "慈祥": 9976,
      "慎重": 9977,
      "我?": 9978,
      "我去": 9979,
      "我已": 9980,
      "我不会": 9981,
      "我看着": 9982,
      "我师傅": 9983,
      "我笑道:“": 9984,
      "我脑中": 9985,
      "战略": 9986,
      "所能": 9987,
      "打击": 9988,
      "打死": 9989,
      "扬声道。": 9990,
      "把那": 9991,
      "护体": 9992,
      "拳头": 9993,
      "提到": 9994,
      "握住": 9995,
      "握住了": 9996,
      "整座": 9997,
      "日夜": 9998,
      "早已经": 9999,
      "时而": 10000,
      "是为": 10001,
      "是很": 10002,
      "是血": 10003,
      "是非常": 10004,
      "是属于": 10005,
      "暴露": 10006,
      "最有": 10007,
      "有几": 10008,
      "有限": 10009,
      "有两个": 10010,
      "未知": 10011,
      "杀之": 10012,
      "来救": 10013,
      "极有": 10014,
      "枪声": 10015,
      "楼的": 10016,
      "樱花": 10017,
      "欣喜": 10018,
      "死丫头": 10019,
      "毛骨": 10020,
      "水面": 10021,
      "沉吟": 10022,
      "注入": 10023,
      "海市": 10024,
      "海牙": 10025,
      "溜溜": 10026,
      "潘阳": 10027,
      "火海": 10028,
      "炼兵": 10029,
      "然地道。": 10030,
      "物体": 10031,
      "狡猾": 10032,
      "玉风": 10033,
      "王爷": 10034,
      "用的": 10035,
      "白纱": 10036,
      "百多": 10037,
      "的三": 10038,
      "的刀": 10039,
      "的白狐": 10040,
      "的黑暗": 10041,
      "的魔法": 10042,
      "的战斗力": 10043,
      "的犬奴": 10044,
      "的黑衣少女": 10045,
      "的身份": 10046,
      "的作品": 10047,
      "的中心": 10048,
      "的语气": 10049,
      "的短发": 10050,
      "相比": 10051,
      "看他": 10052,
      "看出": 10053,
      "看过": 10054,
      "真面目": 10055,
      "眨着眼睛": 10056,
      "破碎": 10057,
      "神功": 10058,
      "离我们": 10059,
      "积雪": 10060,
      "空中的": 10061,
      "站出来": 10062,
      "竟被": 10063,
      "端的": 10064,
      "笑脸": 10065,
      "第六": 10066,
      "等于": 10067,
      "等你": 10068,
      "等一等": 10069,
      "篇文章": 10070,
      "紫衣": 10071,
      "红着脸": 10072,
      "约而": 10073,
      "给你的": 10074,
      "而为": 10075,
      "而去": 10076,
      "肌肉": 10077,
      "脑死": 10078,
      "自会": 10079,
      "自顾自": 10080,
      "花丛": 10081,
      "薄薄": 10082,
      "藏身之处": 10083,
      "虽是": 10084,
      "融合": 10085,
      "行人": 10086,
      "补充": 10087,
      "要我": 10088,
      "要找": 10089,
      "见她": 10090,
      "规定": 10091,
      "视为": 10092,
      "角落": 10093,
      "言,": 10094,
      "警告": 10095,
      "警方": 10096,
      "诅咒": 10097,
      "话一": 10098,
      "说这些": 10099,
      "走了出来。": 10100,
      "起一": 10101,
      "跟着我": 10102,
      "身受": 10103,
      "身影": 10104,
      "躯体": 10105,
      "转过头": 10106,
      "这把": 10107,
      "这几天": 10108,
      "迷途": 10109,
      "避免": 10110,
      "那边": 10111,
      "那道": 10112,
      "都已": 10113,
      "都很": 10114,
      "都知道": 10115,
      "重创": 10116,
      "银眸": 10117,
      "银色": 10118,
      "长大的": 10119,
      "间,": 10120,
      "随心所欲": 10121,
      "隔绝": 10122,
      "静静": 10123,
      "领着": 10124,
      "风,": 10125,
      "飞纵": 10126,
      "骑士": 10127,
      "麻麻": 10128,
      "黑洞": 10129,
      "。”夏怒": 10130,
      "。”普竹": 10131,
      "。”诸葛撼野": 10132,
      ",我将": 10133,
      ",我怕": 10134,
      ",我能": 10135,
      "我们还是": 10136,
      "我们三个": 10137,
      ",你以为": 10138,
      "这个秘密": 10139,
      ",但还是": 10140,
      "自己。": 10141,
      "知道她": 10142,
      "已经变成了": 10143,
      "的人是": 10144,
      "就是这样": 10145,
      "“你说": 10146,
      "“你不是": 10147,
      "“我......": 10148,
      "的,那": 10149,
      "的,他们": 10150,
      "怎么可以": 10151,
      "了一种": 10152,
      "那个时候": 10153,
      "看着我。": 10154,
      "吗?”孙小洁": 10155,
      "身体上": 10156,
      "老大你": 10157,
      "不能让": 10158,
      "。”我道。": 10159,
      "吗?'": 10160,
      "在这种": 10161,
      "的声音又": 10162,
      "的声音突然": 10163,
      "一下。": 10164,
      "这么快": 10165,
      "下来的": 10166,
      "离开这": 10167,
      "无法再": 10168,
      "剑玄之": 10169,
      "剑玄感应": 10170,
      "天龙帮士兵": 10171,
      "感觉不到": 10172,
      "让我来": 10173,
      "西门家": 10174,
      "一声怒吼": 10175,
      "时间,": 10176,
      "觉得自己的": 10177,
      "是什么?”": 10178,
      "马上就会": 10179,
      "似乎已经": 10180,
      "神秘男子": 10181,
      "“是吗?”我": 10182,
      "不知所": 10183,
      "出一副": 10184,
      "绝对是": 10185,
      "天空中": 10186,
      "的东西。": 10187,
      "危险的": 10188,
      "果然如": 10189,
      "四个字": 10190,
      "的目光。": 10191,
      ",让她": 10192,
      ",没有人": 10193,
      "了上来,": 10194,
      "三十多": 10195,
      "叹了一口气:“": 10196,
      "就好了,": 10197,
      "仍然在": 10198,
      ",别说": 10199,
      "从来没": 10200,
      "可怜的": 10201,
      "利用价值": 10202,
      "跟我来": 10203,
      "喃喃的道:“": 10204,
      "] 0 04.27": 10205,
      "?'张刀": 10206,
      "闭上了眼睛。": 10207,
      "一头雾水": 10208,
      "接触到": 10209,
      "笼罩在": 10210,
      "世界上最": 10211,
      "说到一半": 10212,
      "的说道。": 10213,
      "简直就是": 10214,
      "化作了": 10215,
      "长城帝国’": 10216,
      "“对了,": 10217,
      "形成的": 10218,
      "出版社": 10219,
      "十来个": 10220,
      "深深地": 10221,
      "蒙面人": 10222,
      "小心翼翼的": 10223,
      "光之卵": 10224,
      "绝色少女": 10225,
      "的味道": 10226,
      "的味道。": 10227,
      "3333": 10228,
      "泪流满面的": 10229,
      "睁大了眼睛": 10230,
      "慕荣淼": 10231,
      "真实身份": 10232,
      "脱手而飞": 10233,
      "作者:小分队长": 10234,
      "黑莲魔女": 10235,
      "与此同时": 10236,
      "森森的": 10237,
      "走火入魔": 10238,
      "吉普车": 10239,
      "强自镇定": 10240,
      "转过身": 10241,
      "密密麻麻": 10242,
      "毛骨悚": 10243,
      "潘阳湖": 10244,
      "约而同": 10245,
      "!她": 10246,
      ",不会": 10247,
      ",李无月": 10248,
      ",周平": 10249,
      ",夏怒": 10250,
      ",猛的": 10251,
      ",身形": 10252,
      ",由于": 10253,
      ",它们": 10254,
      ",到时": 10255,
      "‘风化城": 10256,
      "‘燕都城": 10257,
      "“哥": 10258,
      "“把": 10259,
      "“她的": 10260,
      "“狐狸精": 10261,
      "“可是我": 10262,
      "“什么事?”": 10263,
      "一体": 10264,
      "一处": 10265,
      "一抓": 10266,
      "一流": 10267,
      "不止": 10268,
      "与邪牙": 10269,
      "之色的": 10270,
      "之人,": 10271,
      "乎乎": 10272,
      "也说不定": 10273,
      "了他们": 10274,
      "了他的": 10275,
      "予人": 10276,
      "事实": 10277,
      "于死": 10278,
      "交流": 10279,
      "交给你": 10280,
      "他一": 10281,
      "他没有": 10282,
      "仗着": 10283,
      "传了过来。": 10284,
      "伸出一": 10285,
      "住在": 10286,
      "你那": 10287,
      "你了,": 10288,
      "你......": 10289,
      "你就是": 10290,
      "你可知道": 10291,
      "倪局长": 10292,
      "入夜": 10293,
      "关志": 10294,
      "关闭": 10295,
      "冯照": 10296,
      "冲到了": 10297,
      "冷宫": 10298,
      "冷笑道:“": 10299,
      "凌厉": 10300,
      "凝结": 10301,
      "几声": 10302,
      "出发": 10303,
      "分开": 10304,
      "分手": 10305,
      "分离": 10306,
      "别墅": 10307,
      "到了。”": 10308,
      "剑。": 10309,
      "剑鞘": 10310,
      "动人心魄": 10311,
      "勃勃": 10312,
      "十指": 10313,
      "升龙": 10314,
      "半本剑玄录": 10315,
      "压低": 10316,
      "又能": 10317,
      "又要": 10318,
      "友情": 10319,
      "双唇": 10320,
      "发不出": 10321,
      "口舌": 10322,
      "口中的": 10323,
      "只想": 10324,
      "叫人": 10325,
      "可笑": 10326,
      "吃饭": 10327,
      "名成员": 10328,
      "后。": 10329,
      "听不懂": 10330,
      "周身": 10331,
      "和你们": 10332,
      "和冯德": 10333,
      "哈拉": 10334,
      "喘气": 10335,
      "四天": 10336,
      "围观": 10337,
      "在袁茵": 10338,
      "地笑道。": 10339,
      "地站在": 10340,
      "声线": 10341,
      "大事": 10342,
      "大发": 10343,
      "大喊": 10344,
      "太高": 10345,
      "好玩": 10346,
      "如泉": 10347,
      "妖族": 10348,
      "妻子": 10349,
      "孙悟": 10350,
      "实实的": 10351,
      "对抗": 10352,
      "将他们": 10353,
      "将他的": 10354,
      "将自己的": 10355,
      "小女娃": 10356,
      "尚未": 10357,
      "岁那年": 10358,
      "已渐渐": 10359,
      "帮他": 10360,
      "平安": 10361,
      "年来": 10362,
      "幽梅": 10363,
      "强到": 10364,
      "得住": 10365,
      "得起": 10366,
      "得非常": 10367,
      "微型": 10368,
      "心语": 10369,
      "忘了我": 10370,
      "快速": 10371,
      "急如": 10372,
      "悄悄": 10373,
      "想一想": 10374,
      "我用": 10375,
      "我终于": 10376,
      "战的": 10377,
      "截然": 10378,
      "打在": 10379,
      "拿到": 10380,
      "拿出来": 10381,
      "挥了": 10382,
      "损失": 10383,
      "掌风": 10384,
      "提着": 10385,
      "敢说": 10386,
      "方面的": 10387,
      "旅店": 10388,
      "早有": 10389,
      "明亮的": 10390,
      "星月": 10391,
      "替我们": 10392,
      "最先": 10393,
      "最初": 10394,
      "最高": 10395,
      "有几分": 10396,
      "服务": 10397,
      "望去": 10398,
      "本小姐": 10399,
      "杀了,": 10400,
      "杨过": 10401,
      "极不": 10402,
      "柔儿": 10403,
      "检查": 10404,
      "模仿": 10405,
      "欢迎": 10406,
      "欣赏": 10407,
      "死于": 10408,
      "死去,": 10409,
      "水儿": 10410,
      "没办法": 10411,
      "活生生的": 10412,
      "浓烟": 10413,
      "滚滚": 10414,
      "漫不经": 10415,
      "牵强": 10416,
      "犯罪": 10417,
      "环顾": 10418,
      "现场": 10419,
      "琉璃": 10420,
      "留下了": 10421,
      "疲惫": 10422,
      "的余": 10423,
      "的火": 10424,
      "的网": 10425,
      "的重": 10426,
      "的野": 10427,
      "的雨": 10428,
      "的王八蛋": 10429,
      "的能力": 10430,
      "的灯光": 10431,
      "的眸子": 10432,
      "皆是": 10433,
      "盟主": 10434,
      "直视": 10435,
      "真神": 10436,
      "眨了": 10437,
      "矛盾": 10438,
      "神奇": 10439,
      "称为": 10440,
      "程序": 10441,
      "空。": 10442,
      "穿透": 10443,
      "突道。": 10444,
      "笔者": 10445,
      "精英": 10446,
      "精血": 10447,
      "缚鸡": 10448,
      "美少年": 10449,
      "老狐狸": 10450,
      "者,": 10451,
      "而亡": 10452,
      "能力的": 10453,
      "脸上,": 10454,
      "花样": 10455,
      "若不是": 10456,
      "英俊": 10457,
      "茶楼": 10458,
      "蜃楼": 10459,
      "血腥": 10460,
      "衣裳": 10461,
      "要用": 10462,
      "觅着": 10463,
      "让开": 10464,
      "评价": 10465,
      "话。": 10466,
      "谁会": 10467,
      "调戏": 10468,
      "贝特": 10469,
      "走了过来。": 10470,
      "跃到了": 10471,
      "踪影": 10472,
      "过敏": 10473,
      "过神": 10474,
      "过后,": 10475,
      "还给我": 10476,
      "这死之炉": 10477,
      "这家伙": 10478,
      "造型": 10479,
      "那双": 10480,
      "那根": 10481,
      "都带着": 10482,
      "金光": 10483,
      "金牌": 10484,
      "钻进了": 10485,
      "锋利": 10486,
      "闪避": 10487,
      "闲事": 10488,
      "阁下": 10489,
      "阴影": 10490,
      "阻击": 10491,
      "隔离": 10492,
      "难免": 10493,
      "雪白": 10494,
      "雷家": 10495,
      "雷少爷": 10496,
      "面包": 10497,
      "面子": 10498,
      "顶部": 10499,
      "预料": 10500,
      "食沙蛇": 10501,
      "马贼": 10502,
      "黄昏": 10503,
      "黑,": 10504,
      "。”一个": 10505,
      "。”陈鱼": 10506,
      ",我没有": 10507,
      ",我一定": 10508,
      "?”冯德": 10509,
      "?”燕儿": 10510,
      "了,虽然": 10511,
      "我们都": 10512,
      "一个字": 10513,
      "......但": 10514,
      ",你不": 10515,
      ",你会": 10516,
      ",你能": 10517,
      "我的‘": 10518,
      "我的同伴": 10519,
      "我的一颗心": 10520,
      "自己是": 10521,
      "他们在": 10522,
      "已经在": 10523,
      "已经有": 10524,
      "的人生": 10525,
      "“我怎么": 10526,
      "道:“那": 10527,
      ",他是": 10528,
      "突然出现": 10529,
      "了一半": 10530,
      "......”他": 10531,
      ",一时": 10532,
      ",她那": 10533,
      "齐琳。": 10534,
      "的话。”": 10535,
      "的话,我们": 10536,
      "还是要": 10537,
      "她的心": 10538,
      "南宫家": 10539,
      "在了他的": 10540,
      "孙小洁。": 10541,
      "了,我想": 10542,
      ",如果能": 10543,
      "非常清楚": 10544,
      "也不过": 10545,
      "应该可以": 10546,
      "时候,": 10547,
      "无法形容": 10548,
      "陈斌的": 10549,
      ",所以我们": 10550,
      "真的要": 10551,
      "难道是": 10552,
      "的事,": 10553,
      "“老大,我们": 10554,
      "魔法学徒": 10555,
      "当然是": 10556,
      "当然不会": 10557,
      "一声厉叱": 10558,
      "告诉我们": 10559,
      "李无月的": 10560,
      "这一对": 10561,
      "在我面前": 10562,
      "缓缓地道。": 10563,
      "看到我": 10564,
      "二号的": 10565,
      "吧?我": 10566,
      "“是啊!": 10567,
      "一样。": 10568,
      "一样的": 10569,
      "我和袁茵": 10570,
      "我和小书": 10571,
      "说不出": 10572,
      "的手式": 10573,
      "都不肯": 10574,
      "是一个很": 10575,
      "出一丝": 10576,
      "如此的": 10577,
      "这里的": 10578,
      "变成了一": 10579,
      "的东西。”": 10580,
      " 10": 10581,
      "全身的": 10582,
      "前方。": 10583,
      "篇 第二": 10584,
      "发出一声": 10585,
      "在了地上,": 10586,
      "吸血族的女人": 10587,
      "了上去。": 10588,
      ",然后再": 10589,
      "存在的": 10590,
      ",也许是": 10591,
      "有人在": 10592,
      "之处,": 10593,
      "大概是": 10594,
      "程度的": 10595,
      "十七个": 10596,
      "十七号": 10597,
      "摇了摇头。": 10598,
      "S级的高手": 10599,
      "了进来,": 10600,
      "脸上的表情": 10601,
      "※※※※※※": 10602,
      "从小到大": 10603,
      "森林中": 10604,
      "了开来": 10605,
      "“等等": 10606,
      "乖乖地": 10607,
      "怎么回事?": 10608,
      "百分之九": 10609,
      "“大叔": 10610,
      "的意思是": 10611,
      "最重要的是": 10612,
      "的命令": 10613,
      "的命运": 10614,
      "我心头一惊": 10615,
      "何方?": 10616,
      "不解的道。": 10617,
      "上前去": 10618,
      "松了一口气。": 10619,
      "清脆的": 10620,
      "在空气中": 10621,
      "二十四小时": 10622,
      "潜水艇": 10623,
      "当前论坛: 卧虎居 [whj.xilubbs.com]": 10624,
      "同归于尽": 10625,
      "逸世道长": 10626,
      "玉风令": 10627,
      "银眸美少年": 10628,
      "!他": 10629,
      "!但": 10630,
      "'那": 10631,
      ",听": 10632,
      ",立即": 10633,
      ",时间": 10634,
      ",一个人": 10635,
      ",马上": 10636,
      ",雷智森": 10637,
      ",姐姐": 10638,
      ",准备": 10639,
      ",此刻": 10640,
      ",胡飞": 10641,
      ",剑光": 10642,
      ",整个人": 10643,
      ",显然是": 10644,
      "-2": 10645,
      "9.2": 10646,
      "?!": 10647,
      "B组": 10648,
      "CK": 10649,
      "en": 10650,
      "“以": 10651,
      "“够": 10652,
      "“妈": 10653,
      "“真是": 10654,
      "“为什么要": 10655,
      "“男人婆": 10656,
      "“谢谢": 10657,
      "“对不起,": 10658,
      "、‘": 10659,
      "一到": 10660,
      "一指": 10661,
      "一滴": 10662,
      "一群": 10663,
      "一齐": 10664,
      "一分钟": 10665,
      "万丈": 10666,
      "万分": 10667,
      "丈夫": 10668,
      "上船": 10669,
      "下唇": 10670,
      "不容": 10671,
      "不已": 10672,
      "不祥": 10673,
      "不相信": 10674,
      "不忍心": 10675,
      "与袁茵": 10676,
      "与安杰尔": 10677,
      "个人的": 10678,
      "中流": 10679,
      "之日": 10680,
      "乘客": 10681,
      "也随之": 10682,
      "也别想": 10683,
      "乱七八": 10684,
      "交出来": 10685,
      "享受": 10686,
      "从没": 10687,
      "以外,": 10688,
      "仰望着": 10689,
      "伤痕": 10690,
      "伸出了": 10691,
      "伸出了一": 10692,
      "低垂": 10693,
      "你再": 10694,
      "你不是": 10695,
      "你还是": 10696,
      "侥幸": 10697,
      "俗话": 10698,
      "偏偏": 10699,
      "八方": 10700,
      "六星": 10701,
      "其中的": 10702,
      "内部": 10703,
      "再见": 10704,
      "冒着": 10705,
      "军士": 10706,
      "冲着": 10707,
      "击中": 10708,
      "击得": 10709,
      "刀光": 10710,
      "划过": 10711,
      "剑术": 10712,
      "剑柄": 10713,
      "剑核": 10714,
      "势头": 10715,
      "化成": 10716,
      "医术": 10717,
      "十人": 10718,
      "卫生": 10719,
      "去追": 10720,
      "去:“": 10721,
      "双眉": 10722,
      "另人": 10723,
      "可见": 10724,
      "同行": 10725,
      "吧......”": 10726,
      "吧。”我": 10727,
      "告辞": 10728,
      "味道": 10729,
      "和这个": 10730,
      "咖啡": 10731,
      "哪去": 10732,
      "唱歌": 10733,
      "四条": 10734,
      "圆之夜": 10735,
      "在城": 10736,
      "在自己": 10737,
      "在手中": 10738,
      "在这个世界上": 10739,
      "地里": 10740,
      "地上。": 10741,
      "坟窟": 10742,
      "处置": 10743,
      "大乱": 10744,
      "大海": 10745,
      "大量": 10746,
      "头上": 10747,
      "奇异": 10748,
      "好了!": 10749,
      "如电": 10750,
      "婴儿": 10751,
      "它的": 10752,
      "对她的": 10753,
      "将手中": 10754,
      "将手中的": 10755,
      "小觑": 10756,
      "小子,": 10757,
      "小和尚": 10758,
      "尘埃": 10759,
      "就没": 10760,
      "尽量": 10761,
      "局势": 10762,
      "山脉": 10763,
      "幻月": 10764,
      "建立": 10765,
      "开门": 10766,
      "异变": 10767,
      "形态": 10768,
      "待员": 10769,
      "得可怕": 10770,
      "必定": 10771,
      "忍受": 10772,
      "快到": 10773,
      "息。": 10774,
      "恰好": 10775,
      "情景": 10776,
      "惊心动": 10777,
      "想起来": 10778,
      "感动": 10779,
      "憔悴": 10780,
      "我爹": 10781,
      "我真": 10782,
      "我只是": 10783,
      "我一定要": 10784,
      "我一定会": 10785,
      "所指": 10786,
      "手足": 10787,
      "打了一个": 10788,
      "抓走": 10789,
      "招呼": 10790,
      "持着": 10791,
      "挟着": 10792,
      "撒谎": 10793,
      "撒哈拉": 10794,
      "放松": 10795,
      "救她": 10796,
      "无人": 10797,
      "无穷": 10798,
      "日的": 10799,
      "明亮": 10800,
      "明星": 10801,
      "暗算": 10802,
      "有时": 10803,
      "杀他": 10804,
      "权利": 10805,
      "来到了": 10806,
      "林外": 10807,
      "果实": 10808,
      "某个": 10809,
      "某人": 10810,
      "标志": 10811,
      "树枝": 10812,
      "棵树": 10813,
      "棵大树": 10814,
      "楚楚": 10815,
      "死士": 10816,
      "殒星": 10817,
      "毁了": 10818,
      "比你": 10819,
      "求救": 10820,
      "沙暴": 10821,
      "活腻": 10822,
      "浮出": 10823,
      "消灭": 10824,
      "深入": 10825,
      "深恐": 10826,
      "灰色的": 10827,
      "点。”": 10828,
      "烟灰": 10829,
      "照亮": 10830,
      "牢房": 10831,
      "狂笑": 10832,
      "猎坟窟": 10833,
      "玩弄": 10834,
      "痛快": 10835,
      "瘟疫": 10836,
      "白光": 10837,
      "白玉": 10838,
      "白白": 10839,
      "的你": 10840,
      "的家": 10841,
      "的灯": 10842,
      "的铁": 10843,
      "的控制": 10844,
      "的能量": 10845,
      "的紫电": 10846,
      "的齐虎": 10847,
      "的房间": 10848,
      "的名字": 10849,
      "的点了点头。": 10850,
      "的距离": 10851,
      "的功夫": 10852,
      "的日子": 10853,
      "直觉": 10854,
      "真有": 10855,
      "真空": 10856,
      "眯眯": 10857,
      "眼皮": 10858,
      "着小嘴": 10859,
      "秘书": 10860,
      "秦王": 10861,
      "称呼": 10862,
      "窗口": 10863,
      "笛子": 10864,
      "精气": 10865,
      "组合": 10866,
      "细细": 10867,
      "绿影": 10868,
      "罢了,我": 10869,
      "而入": 10870,
      "而至": 10871,
      "胜负": 10872,
      "脑中的": 10873,
      "舍弃": 10874,
      "舞,": 10875,
      "船上的": 10876,
      "虫小": 10877,
      "蚂蚁": 10878,
      "血污": 10879,
      "被迫": 10880,
      "解心语": 10881,
      "言自语": 10882,
      "设想": 10883,
      "试验": 10884,
      "话,我": 10885,
      "话还没": 10886,
      "说起": 10887,
      "说的话": 10888,
      "象我": 10889,
      "贵宾": 10890,
      "赶车": 10891,
      "越是": 10892,
      "躺着": 10893,
      "转,": 10894,
      "输送": 10895,
      "边。": 10896,
      "达到了": 10897,
      "过去,": 10898,
      "过来的": 10899,
      "这一点": 10900,
      "通往": 10901,
      "逼我": 10902,
      "遇见": 10903,
      "遮住了": 10904,
      "那四个": 10905,
      "都不是": 10906,
      "里的人": 10907,
      "重建": 10908,
      "长鞭": 10909,
      "长身而": 10910,
      "问道.": 10911,
      "附录": 10912,
      "陪你": 10913,
      "难得": 10914,
      "难过": 10915,
      "雕虫小": 10916,
      "雷声": 10917,
      "音乐": 10918,
      "马尾": 10919,
      "齐齐": 10920,
      "。”邪牙": 10921,
      "。”花火": 10922,
      "。”铁化水": 10923,
      "。”花黛柔": 10924,
      ",我先": 10925,
      "!”一个": 10926,
      "什么人": 10927,
      "什么好": 10928,
      "一个个": 10929,
      ",你再": 10930,
      ",你还": 10931,
      ",你不会": 10932,
      ",但又": 10933,
      ",但他们": 10934,
      "自己也": 10935,
      "现在正在": 10936,
      "就是在": 10937,
      "“你知不知道": 10938,
      "“我没有": 10939,
      "“我已经": 10940,
      "“我不会": 10941,
      "“我虽然": 10942,
      "的,现在": 10943,
      "......”小书": 10944,
      ",这是我": 10945,
      "可以算是": 10946,
      ",一种": 10947,
      ",一边": 10948,
      "如果不是": 10949,
      "你们。”": 10950,
      ",我们都": 10951,
      ",不敢": 10952,
      "出来了,": 10953,
      "吗?”她": 10954,
      "吗?”齐琳": 10955,
      "黑衣士兵": 10956,
      "都是为了": 10957,
      "一直没有": 10958,
      ",如果是": 10959,
      ",如果有": 10960,
[...]
